[PAD]
[UNK]
[START]
[END]
!
"
#
$
%
&
'
(
)
*
+
,
-
.
/
0
1
2
3
4
5
6
7
8
9
:
;
<
=
>
?
@
[
\
]
^
_
`
a
b
c
d
e
f
g
h
i
j
k
l
m
n
o
p
q
r
s
t
u
v
w
x
y
z
{
|
}
~
¡
¢
£
¤
¥
¦
§
©
«
¬
®
°
±
¶
·
»
¿
×
æ
ð
÷
ø
þ
đ
ħ
ı
ł
ŋ
œ
ɑ
ə
ɛ
ɣ
ɦ
ʹ
ʺ
ʻ
ʼ
ˆ
ˈ
ː
˗
ˮ
ͷ
α
β
γ
δ
ε
ζ
η
θ
ι
λ
μ
ξ
ο
π
σ
υ
φ
χ
ψ
ω
б
г
д
з
и
л
п
у
ф
ц
ч
ш
щ
ъ
ы
э
ю
я
ђ
ғ
қ
א
ב
ג
ד
ה
ו
ח
י
כ
ל
ם
מ
ן
נ
ס
ע
פ
צ
ק
ר
ש
ת
ا
ب
ت
ج
د
ر
ز
س
ش
ص
ع
ـ
ق
ك
ل
م
ن
ه
و
ي
ک
ی
இ
ச
ன
ம
ய
ற
வ
ை
ᄀ
ᄂ
ᄃ
ᄅ
ᄆ
ᄇ
ᄉ
ᄋ
ᄌ
ᄏ
ᄐ
ᄑ
ᄒ
ᄚ
ᅡ
ᅢ
ᅥ
ᅦ
ᅩ
ᅭ
ᅮ
ᅲ
ᅳ
ᅵ
ᆨ
ᆫ
ᆮ
ᆯ
ᆷ
ᆸ
ᆼ
᠐
᠕
ᦂ
‐
‒
–
—
―
‘
’
‚
‛
“
”
„
†
‡
•
‣
‧
‰
′
‹
›
※
⁃
⁄
₤
₩
€
₱
←
↑
→
↓
↔
↩
⇋
⇒
⇓
⇔
∂
∅
∆
∈
∑
−
∙
√
∞
≈
≡
≤
≥
≺
⊃
⊗
⌈
⌉
⌊
⌋
⌘
─
│
■
▪
▲
▶
▷
▸
►
▼
▾
◀
◄
◆
◉
◊
○
◎
●
◙
◠
◦
★
☞
☯
☺
♀
♂
♠
♣
♥
♦
♫
✎
✓
✔
✘
✩
✹
❉
❤
➤
➥
⠢
⠦
⠨
⠬
⤵
々
「
」
〜
あ
い
う
え
お
か
き
く
け
こ
さ
し
す
せ
そ
た
ち
っ
つ
て
と
な
に
の
は
ひ
ふ
へ
ほ
ま
み
む
め
も
や
ゆ
よ
ら
り
る
れ
ろ
わ
を
ん
ァ
ア
ィ
イ
ゥ
ウ
ェ
エ
ォ
オ
カ
キ
ク
ケ
コ
サ
シ
ス
セ
ソ
タ
チ
ッ
ツ
テ
ト
ナ
ニ
ネ
ハ
ヒ
フ
ヘ
ホ
マ
ミ
ム
メ
モ
ャ
ュ
ユ
ョ
ラ
リ
ル
レ
ロ
ワ
ン
・
ー
一
三
上
下
不
与
世
个
中
为
主
丽
么
也
习
书
了
予
事
二
些
交
产
亮
人
什
今
介
仕
他
付
代
以
们
件
任
休
会
位
低
体
何
作
你
使
例
供
価
便
保
信
個
們
候
借
値
值
做
停
健
備
債
像
優
克
免
党
入
全
公
共
关
其
具
再
写
処
出
分
切
初
別
利
到
制
前
割
創
力
加
助
労
効
動
務
勤
包
化
区
午
半
华
単
博
印
厕
原
去
参
友
发
取
受
口
句
另
可
台
合
同
名
后
向
告
呢
周
味
和
品
唯
商
問
善
器
噴
回
因
国
在
地
坛
基
報
場
境
増
壁
壊
士
备
変
夕
外
多
夢
大
天
太
奧
女
好
如
始
子
存
学
孩
它
安
完
宗
定
実
客
室
宫
家
容
寄
富
實
对
対
射
将
小
少
尚
就
屋
山
州
工
左
己
布
希
帯
帳
帶
常
平
年
幸
床
府
度
庭
康
建
式
引
強
当
形
彫
影
彼
很
後
得
從
御
德
心
必
応
念
忽
思
急
性
恒
息
悠
您
情
惯
想
意
愛
感
態
慣
成
我
或
战
戦
所
手
打
払
找
択
抣
抮
抯
抰
拉
拍
持
指
挑
採
探
控
推
提
支
收
改
放
故
教
散
数
整
文
料
断
斯
新
方
於
无
日
早
时
明
是
昼
時
普
景
暖
更
書
最
月
有
朋
服
朗
望
朝
期
未
本
束
来
板
林
枚
果
柏
查
柱
栄
标
格
案
档
梩
梯
森
検
業
極
楼
楽
標
模
権
機
檔
檢
次
欲
止
正
段
毎
毫
民
気
水
永
求
決
油
法
注
洗
活
流
消
清
減
温
港
源
準
滞
火
炉
点
為
热
無
然
照
片
版
物
特
状
现
現
球
理
環
瓶
生
産
用
由
电
画
界
略
発
白
的
目
相
省
看
真
眠
着
睡
瞑
知
短
石
研
破
確
示
社
禅
福
禪
私
移
程
積
究
空
立
章
笥
第
算
管
箱
節
簡
米
糖
紀
約
素
索
細
組
結
絵
經
続
網
線
編
織
线
网
置
習
翻
老
考
者
聞
育
能
自
良
色
花
苦
蒙
蓄
行
術
表
裠
製
要
見
視
解
言
計
記
設
評
話
詳
語
読
論
謝
设
词
读
負
貯
買
費
資
質
購
起
身
車
転
近
这
进
追
送
這
通
速
造
連
週
進
運
過
道
達
遠
適
選
部
配
里
重
量
金
鈥
錢
铁
键
開
間
関
關
门
阅
附
限
除
陽
階
集
雕
難
電
面
響
預
頼
題
题
食
香
马
高
the
and
of
to
in
is
for
with
you
on
that
it
are
this
be
from
as
your
or
by
can
will
at
we
not
all
have
an
##s
was
our
has
which
they
but
one
also
he
more
there
if
their
his
hotel
about
new
other
when
time
so
who
up
hotels
information
what
do
its
only
car
these
my
no
budget
use
like
them
real
first
out
very
us
after
were
many
most
offers
may
house
people
file
make
into
estate
some
find
been
best
well
then
how
two
any
years
see
now
system
than
free
day
had
ago
##a
world
just
de
where
would
rental
10
here
such
through
because
site
over
place
me
##e
get
service
work
water
center
room
way
take
around
even
made
used
year
during
area
god
good
city
example
before
between
quality
him
available
high
##ing
each
her
right
know
life
dll
open
every
great
since
need
small
special
holiday
data
go
different
tourist
home
should
those
com
curacao
same
name
##d
big
cheap
without
being
list
back
own
children
possible
want
she
old
part
months
products
##ed
order
number
price
found
##o
said
long
prices
within
large
##n
12
located
jihlava
online
using
##i
shall
much
three
internet
##t
come
united
still
book
group
both
light
ads
rooms
while
could
company
always
states
thousands
must
days
airport
set
help
beautiful
20
##r
next
website
below
under
natural
software
apartment
double
last
does
15
living
important
conditions
visit
air
30
offer
services
man
##er
sea
easy
weather
files
lord
enjoy
again
low
another
please
##y
product
page
did
experience
net
down
access
design
away
end
family
look
few
international
am
view
including
pictures
click
ll
11
00
beach
accommodation
full
business
km
windows
really
following
case
based
night
problem
money
july
country
minutes
2016
little
side
however
left
give
bed
##l
##ly
van
select
directory
read
course
park
contact
18
top
say
per
hand
la
re
today
november
against
lot
love
let
too
times
body
form
power
thursday
centre
until
travel
equipment
off
support
europe
together
program
##m
white
check
able
building
play
called
public
space
second
economic
start
pool
don
things
heart
become
why
bathroom
results
control
type
main
food
search
kitchen
black
game
already
south
dog
means
less
several
change
european
level
working
apartments
earth
parking
##es
restaurant
september
25
line
art
known
maximum
according
floor
latest
station
stay
energy
near
netherlands
point
process
computer
everything
14
location
show
town
garden
better
project
music
photos
france
nature
private
church
often
put
16
customer
therefore
higher
various
buy
24
land
local
dutch
13
games
jesus
person
tv
once
research
live
san
looking
close
##en
##c
provide
keep
000
fully
market
100
upon
others
choose
50
etc
material
nice
photo
above
hours
four
total
something
men
development
flat
given
security
temperatures
language
range
among
##2
personal
came
along
activities
yet
2015
village
created
history
tits
works
features
xhamster
general
modern
single
complete
requests
never
red
hire
reach
week
short
en
might
web
machine
spain
include
##h
islands
road
size
human
thus
##g
models
further
ideal
contains
unto
barcelona
crochet
morning
sure
drive
discover
create
terrace
needs
campsite
network
send
save
equipped
team
##k
built
°c
video
image
tour
blue
self
systems
third
directly
took
present
table
young
17
think
whole
national
countries
choice
version
makes
perfect
##0
north
son
extra
request
front
having
ask
going
##1
green
screen
dedicated
office
making
users
shows
result
simply
region
museum
note
friday
walk
state
add
month
application
health
school
shower
##on
via
parts
social
##p
style
central
specific
simple
french
19
hard
learn
user
management
rent
amateur
age
original
actually
provides
rest
unique
especially
download
due
extension
technology
companies
##u
2007
later
bit
provided
sun
performance
production
island
king
card
far
future
feel
mobile
germany
done
field
non
went
taken
suite
whether
##3
compilation
belgium
property
oil
position
##4
domain
content
century
father
professional
industry
february
women
care
easily
german
test
environment
additional
round
fact
period
try
key
color
breakfast
houses
picture
construction
##5
cases
clear
common
restaurants
details
27
2012
speed
return
customers
current
spirit
swimming
included
party
necessary
22
description
21
true
areas
words
homes
comes
series
japanese
english
listed
october
standard
40
almost
technical
materials
tool
five
link
follow
industrial
coffee
google
device
run
02
word
summer
medical
longer
training
st
cannot
analysis
thou
01
cars
##x
transport
booking
outside
april
ass
suitable
ground
popular
model
sports
events
thanks
designed
deals
meteo
##al
wednesday
bring
behind
spanish
el
virus
window
study
august
places
dogs
outdoor
ceramic
june
villa
allows
26
23
skin
##us
receive
turn
thought
inside
law
call
war
facilities
insurance
famous
email
child
certain
sound
message
knowledge
safety
exclusive
head
##6
developed
bedroom
value
map
selection
addition
strong
situated
glass
event
march
sometimes
bar
options
questions
fast
students
mind
wide
account
wall
added
saturday
israel
date
03
seen
views
born
##7
ever
woman
types
step
half
pc
kind
2011
effect
2004
past
##f
itself
changes
camping
mountain
sale
guests
comfortable
continue
solution
quite
##8
address
early
problems
distance
enough
bedrooms
weeks
electric
source
cities
share
takes
board
##in
started
availability
connection
friends
excellent
december
2010
least
article
m2
reservation
individual
2014
ve
reality
members
surface
cause
08
treatment
destination
sunday
mail
player
steel
soon
required
allowed
related
mother
italy
puerto
themselves
leave
error
thing
temperature
##ia
##9
says
ski
saint
text
collection
cost
hot
lines
sites
yourself
##an
28
2009
daily
numbers
applications
blood
2006
effects
beauty
although
square
hair
maintenance
highly
07
amount
tell
programs
pay
2013
groups
digital
images
unlimited
issue
quiet
nothing
##b
january
move
wine
written
river
safe
street
towards
class
university
wife
east
completely
button
weight
##ers
lake
american
supply
stop
practice
across
protection
active
season
amsterdam
meters
thy
million
got
gives
terms
stage
cm
increase
edition
star
option
ready
difficult
culture
china
meet
government
associated
west
bus
resort
though
points
himself
became
question
code
currently
guide
finally
ye
basic
news
average
exactly
fire
master
media
anal
christ
taking
quickly
infected
storage
rights
train
death
wish
grand
club
rate
tools
holy
phone
middle
winter
couple
believe
players
projects
africa
moment
usually
multiple
either
usa
includes
hands
traditional
hour
action
29
boat
stock
category
shop
member
persons
face
display
allow
dates
beginning
function
major
pass
##ic
eu
##z
variety
delivery
everyone
fun
friendly
entire
received
port
components
sent
plan
understand
fish
policy
physical
tiles
evening
31
direct
coming
told
till
route
##is
tuesday
cross
2008
thee
mm
piece
04
costs
levels
path
interesting
breeds
report
community
particular
rather
conditioning
capacity
playing
welcome
flowers
ones
solutions
cock
published
wood
##able
dark
official
republic
someone
operating
eyes
condition
wind
lower
items
doing
salvador
poker
stone
similar
society
reason
registration
06
enter
separate
complex
education
truth
##le
server
holidays
tax
dining
dry
landscape
six
brought
lead
throughout
interest
transfer
beds
matter
paris
mileage
saying
cut
shape
locations
commercial
##v
ad
gold
box
winds
final
costa
soul
cultural
automatic
rico
rates
brussels
sales
actual
offices
lost
##ness
bank
tile
subject
build
paper
##te
deleted
recommend
plus
attention
engine
functions
battery
layer
##ra
gas
60
ensure
books
visitors
machines
missing
trees
risk
heating
fine
situation
charge
le
trade
correct
pressure
peace
financial
gave
plant
offering
installation
brand
responsible
shopping
saw
global
idea
reviews
05
immediately
walking
instead
info
colour
race
length
ways
sex
leading
bike
interested
browser
shops
35
needed
animals
section
luxury
masturbation
term
properties
clean
seconds
meeting
press
devices
store
500
review
won
staff
efficiency
door
write
cleaning
watch
speak
stand
held
vehicle
200
combination
fresh
produced
thank
probably
basis
format
trip
growth
kingdom
capital
removed
premium
lives
silver
happy
asked
post
goes
##rs
warm
comfort
bad
connected
plants
limited
seven
cards
toilet
wonderful
base
opportunity
client
pattern
covered
previous
story
led
success
belgian
wrong
turned
spiritual
automatically
john
useful
crystal
payment
mountains
mosaic
loss
cd
starting
virtual
metal
ten
legal
powerful
mainly
spring
doesn
settings
steps
09
effective
hear
madrid
pick
scientific
tree
opened
sell
role
coast
##os
balcony
creative
italian
valley
stitches
forms
exam
shown
answer
pages
vacation
comprehensive
rentals
helps
plastic
golf
mature
reasons
student
faith
rich
largest
update
print
rock
improve
##ne
force
furniture
offered
eye
purpose
running
getting
film
remove
yes
edge
normal
favorite
##na
issues
bottom
weak
sign
apply
association
blowjob
exhibition
nor
32
anything
highest
floors
besides
memory
45
##ie
uses
fashion
register
forget
chinese
hope
canada
install
produce
milf
colombia
cover
names
status
bath
spacious
op
mouth
cable
straight
eat
guarantee
job
movement
advanced
begin
method
resources
mexico
cheapest
direction
experiences
classic
india
purchase
historical
load
taste
castle
sense
operation
district
advantages
recommended
bible
cold
64
du
placed
divine
structure
feet
radio
installed
hall
buildings
focus
friend
heat
huge
soft
america
certification
frequently
whom
beaches
atmosphere
parties
science
##th
hold
deep
menu
becomes
ancient
minute
experienced
austria
##as
background
requirements
massage
##ta
row
arrival
valencia
ability
australia
heaven
recent
##man
##w
existing
christian
entrance
opening
shared
release
santa
former
penetration
del
microsoft
considered
families
antivirus
80
remain
hidden
indeed
fill
typical
guest
extremely
70
union
languages
repair
euro
numerous
elements
fear
cumshot
closed
fix
consists
bars
compare
particularly
measures
accessories
necklace
texas
heard
russian
political
forest
height
festival
casino
western
heavy
sport
supplies
co
exchange
bargains
selected
links
aware
died
fruit
wanted
riding
david
##®
universe
foundation
platform
websites
approximately
learning
amazing
presence
recently
remember
activity
ii
creation
rotterdam
canary
species
late
track
analdin
guarantees
secure
regular
pdf
audio
yellow
credit
feature
recovery
##el
whose
monday
independent
theme
flower
babe
communication
buying
decided
satellite
pieces
alone
drink
oven
taxes
manufacturer
forward
partner
win
copy
connect
traffic
setting
strength
develop
external
talk
programme
tea
integrated
leader
seems
depending
perfectly
disease
orgasm
reports
foot
##or
quick
break
anti
rules
peru
established
involved
damage
title
motor
schools
historic
baby
approach
notice
chain
inner
articles
kinds
walls
greater
rica
temple
camera
seeking
paid
finish
essential
##um
impact
blonde
tip
patterns
processing
concept
planet
pro
healthy
turkey
successful
errors
dvd
2003
certainly
reading
foreign
protect
unit
worked
london
sin
berlin
serve
internal
maybe
animal
affordable
mode
registered
british
hostel
providing
difference
33
christmas
mentioned
##ch
played
generally
avoid
began
driver
employees
mean
manufacture
court
evil
multi
agreement
advantage
presented
translation
potential
braindumps
##ies
feeling
##re
touch
act
decide
log
voice
##la
fi
chance
washing
royal
electronic
formats
appearance
benefits
croatia
remains
sailing
##ity
2005
300
controlled
larger
cuisine
cute
looks
changed
discount
drop
character
indoor
supplier
department
respect
else
visited
growing
cloud
pump
2000
##ism
forth
dance
mostly
commission
worth
didn
patients
distribution
formula
spend
switzerland
processes
fields
prevent
telephone
positive
fall
conference
super
linux
90
owner
##ville
colors
exe
hath
lies
documents
appear
journey
lesbian
increased
stainless
signs
climate
objects
##ar
band
gets
command
package
bitcoin
mark
sky
lots
college
followed
organic
wi
giving
except
fat
nearby
sons
comments
goods
##ma
percent
painting
supports
practical
benefit
pure
paul
understanding
doctor
disk
##de
volume
scale
otherwise
corner
golden
villas
anyone
bright
tips
asian
gift
leaves
gate
courses
recover
heritage
caused
iron
record
providers
medicine
tower
##se
fit
microwave
fleet
organization
balance
colours
manual
ideas
characteristics
clients
bridge
mass
doors
carried
desktop
expected
deal
compared
detail
chosen
saving
possibility
hiking
bay
pre
finished
egypt
allah
catalonia
council
writing
preparation
architecture
prepared
36
likely
russia
privacy
wants
efficient
parents
solo
driving
flights
sold
electricity
hd
filled
consider
andalusia
refrigerator
palace
worldwide
dominican
farm
chemical
camp
reached
app
peter
messages
34
myself
artists
videos
achieve
beyond
rise
girl
tennis
facial
cafe
hundred
mediterranean
te
navigation
studio
balearic
interactive
metres
clearly
pain
factory
smoking
studies
homemade
trojan
malware
attractions
environmental
slot
relax
wooden
interior
les
brazil
pearl
values
surrounded
profile
kept
tickets
figure
reduce
housing
furnished
stars
religious
##ry
accept
carry
creating
indonesia
population
brunette
organisation
spot
upper
dishes
grow
dead
released
deposit
object
pleasant
methods
consciousness
lingerie
flow
metro
album
txxx
tests
starts
husband
inclusive
sector
manager
bought
vacuum
vehicles
##da
concerning
opportunities
handle
standards
applied
bracelet
smaller
combined
contain
partners
decision
speaking
rome
regarding
mini
moving
freedom
##ka
amarillaslatinas
records
eight
goal
renewed
greece
resistance
2018
lottery
catering
spread
uk
desire
minimum
alternative
remote
teacher
arrive
##ting
generation
advice
die
nations
incorrect
bathrooms
shoes
artist
max
##ation
frame
nas
constantly
relationship
electrical
easier
museums
television
birth
testing
wild
perhaps
pets
require
cast
cream
president
marketing
influence
fridge
cash
interface
solve
delivered
join
euros
holland
charter
document
bag
male
cannabis
chapter
competition
japan
waiting
director
fair
manage
engineering
possibilities
experts
helped
professionals
updated
mac
consumption
contract
dogging
border
flexible
sys
displayed
stockings
forecast
prix
owners
thousand
served
britain
kids
truly
ring
fixed
rain
##land
honduras
routes
innovative
protected
computers
demand
neither
oh
toys
detailed
police
cycle
plans
##ling
fishing
leather
et
seat
ice
appropriate
beings
cells
phase
wrote
accessible
described
planning
##ton
password
reserved
extensive
roof
waste
2017
letter
switch
hah
instructions
expect
instance
gallery
moon
##ion
##et
intelligence
ingredients
reception
units
forum
wait
38
custom
library
poor
sexual
ip
weekend
brown
sofa
suits
##sqm
degree
jerusalem
meat
48
express
fuel
reliable
filter
named
horse
founded
150
isn
met
czech
stored
37
changing
york
meaning
prayer
daughter
browse
economy
##ist
villages
clock
sleep
##ur
milk
southern
reference
female
##ts
bonus
institute
serious
leads
developing
visible
entry
ball
province
dumps
lift
wheel
happen
roman
tours
unfortunately
lovely
trying
lighting
permanent
despite
girls
fee
gardens
solar
item
northern
snow
sweet
sweden
overall
bread
##ted
core
42
vision
abroad
supported
boats
versions
movie
factor
cycling
overview
dr
techniques
markets
residence
streets
advance
surrounding
ticket
##less
flight
accepted
exercise
behold
adults
answers
beer
brother
##ine
centers
solid
attractive
moved
kit
edit
contemporary
perform
smooth
monitor
religion
elegant
examples
bow
database
passed
thinking
win32
birds
apart
follows
categories
##ge
pink
concrete
##ment
california
smart
advertising
furthermore
sand
hardware
sunny
afternoon
mission
prior
##j
universal
plate
actions
ship
##eth
mount
enable
feedback
supreme
purposes
loading
medium
completed
cooking
progress
desired
fitness
impressive
##ter
sustainable
warranty
convertible
detection
standing
39
spa
drivers
knew
farmhouse
felt
match
##ce
whatever
host
fitted
##tion
banks
outstanding
committee
vans
deliver
wireless
paradise
manner
dream
drug
hill
cup
default
mouse
earlier
response
lived
instruments
tourism
tags
clothes
older
comment
ocean
mix
workers
hospital
##ns
regional
slightly
cutting
55
approx
joy
mary
investment
grass
contents
wear
salt
onto
magazine
saved
branch
requires
sources
visual
tradition
tried
responsibility
song
cookies
youth
primary
sugar
rule
selling
sides
apple
las
nearest
panel
portugal
lounge
##to
delicious
fantastic
explore
runs
prize
challenge
output
##va
appears
##io
explain
##it
containing
forces
minister
biggest
agency
seem
aspects
blog
trust
institutions
military
cell
het
knows
shell
entertainment
stones
sts
posted
lady
plenty
cool
skills
trail
rose
authority
##at
importance
designs
neck
casa
printing
400
rear
arts
measure
##no
residential
##ble
significant
block
secret
di
pretty
participants
sitting
ride
souls
budapest
swallow
zone
raw
sizes
performed
faster
unless
nl
opinion
min
railway
symbol
dinner
marked
attack
increasing
charming
dress
jan
wifi
reduced
usb
primarily
##ca
causes
ireland
orange
##ro
##co
shipping
cancer
clothing
chairs
kilometers
der
annual
maintain
fight
origin
listen
mr
##ate
regularly
individuals
existence
diameter
muscle
towels
improved
gone
surely
assist
om
technologies
interracial
3d
barbecue
drawing
cooperation
relevant
drinking
brings
ahead
chief
musical
mom
44
lights
operations
##ke
##ng
ministry
football
adventure
gratis
hills
downtown
nearly
stands
sportive
channel
moses
facts
cleaner
thailand
cuba
statistics
prepare
specifically
frank
maria
determine
##berg
currency
##ian
enables
searching
seeing
ourselves
hearts
brands
##ve
greek
##nt
fixer
truck
##ive
spare
alcohol
teaching
winning
award
lose
definitely
lack
valid
announced
46
symbols
regions
equal
sedans
strategy
magnetic
exist
thoughts
notes
author
diving
reserve
negative
mechanical
sins
al
jews
returned
taxi
1st
twenty
yesterday
convert
normally
discovered
anchor
visiting
arrived
##st
##ha
administration
surroundings
quarter
jehovah
nights
vedabase
maps
tuscany
compact
presentation
flash
entered
humidity
encounter
target
packaging
centuries
magnificent
monitoring
sit
trial
laws
aid
anne
concert
effort
lessons
configuration
task
earrings
photography
59
tourists
factors
moreover
stories
thermal
gain
greatest
kg
precise
exit
context
tables
looked
skiing
consumer
girlfriend
creampie
formed
limit
decorated
facebook
becoming
introduced
manufacturers
##am
happens
41
aim
covers
handling
sacred
webcam
drag
calendar
circuit
hit
instantly
symptoms
pray
narrow
urban
opposite
sink
logo
continues
eur
happened
ex
flats
lunch
divided
filters
maker
printed
collect
##m2
occur
bet
eternal
sharing
holder
viewing
##ized
drugs
teeth
theatre
songs
wisdom
los
identity
peoples
indian
circle
showing
sounds
channels
managed
machinery
morocco
seeds
##do
civil
waters
connections
carefully
collaboration
sending
paint
assistance
impossible
surprise
depth
label
klik
shalt
meter
authorities
classes
programming
##ni
therapy
patient
pleasure
seek
principle
fourth
inspired
feed
sufficient
acts
transportation
mp3
riders
procedure
##ri
paths
relative
introduction
des
surgery
appeared
activate
supplement
battle
workshop
eastern
purchasing
organized
exciting
remaining
slow
android
innovation
expensive
obtain
poland
artificial
spaces
75
drives
extended
outlook
43
dishwasher
diseases
learned
calls
dynamic
yacht
stable
stress
scanning
intended
eventually
revolutionary
tasks
acid
printer
magic
beeg
mid
backup
proper
renovated
##ck
sets
educational
2002
glory
root
seed
african
width
immediate
enabling
dear
guaranteed
directions
army
cleaned
shaving
ages
allowing
sights
folder
networks
climb
orders
ensures
brain
updates
converter
freezer
absolutely
none
##est
priest
dish
participate
##ina
asia
billion
recipe
linen
defined
teachers
corporate
cum
extreme
resistant
tank
##il
fold
keeping
sandy
continued
agent
policies
constant
churches
compatible
diet
inhabitants
trips
comparison
empty
underlying
parks
draw
registry
pension
ts
affected
wedding
designer
spoken
bodies
ultimate
skinny
strip
bags
criteria
revolution
bear
simon
solved
65
soil
250
examkiller
noise
crisis
sight
keys
circumstances
artistic
income
guitar
olive
preparing
session
romantic
##ier
caught
jewelry
businesses
fireplace
52
expertise
anywhere
fastest
layers
prefer
partly
showed
argentina
##ga
inc
evidence
saith
audience
entirely
yachts
joint
2001
departure
capable
desk
answered
characters
begins
examination
refers
critical
dust
bungalows
concerned
relatively
apostle
cathedral
tube
majority
retrieve
upgrade
achieved
modify
organ
stores
47
spent
portal
evolution
assembly
mounted
teams
ends
auto
hardcore
infrastructure
statement
leisure
replaced
600
differences
cart
situations
knowing
mixed
linked
samples
een
tropical
toward
nine
dimensions
technique
jose
heels
instrument
sauna
threesome
wellness
relation
bilge
apps
54
depends
degrees
51
claim
latin
broken
indicator
relations
adjustable
delete
leaving
raised
tested
miss
personality
confirm
rubber
totally
grace
gospel
bungalow
theory
absolute
doubt
reservations
##li
module
christians
firm
era
jewish
turns
wet
teen
meant
worst
landscapes
nation
treated
crashing
pipe
adding
florence
lay
everywhere
downloads
shemale
laundry
sensitive
boy
terminal
garage
reduction
##ous
mine
softwares
coach
creates
2nd
count
england
leaders
56
convenient
justice
##tic
busy
fixing
sleeping
vce
##id
signal
wordpress
newsletter
rare
49
laid
objective
obtained
bird
household
disposal
glasses
miles
countryside
determined
shaped
victory
engines
drops
citizens
false
stages
legs
cotton
arms
ratio
tone
wines
ca
flesh
freezing
bc
previously
yarn
fly
vary
##go
accordingly
decoration
element
talking
emergency
pull
##burg
adult
efforts
scenes
##ki
nevertheless
uniform
attached
certificate
organizations
framework
sister
frequency
destinations
jobs
tournament
hob
##ize
initial
integration
license
indicated
variable
amenities
panama
hundreds
exceptional
logical
structures
slowly
dangerous
finding
sur
plays
1000
shift
specifications
hearing
marine
medieval
shore
jizzbunker
reflect
bottle
relaxing
humanity
roads
57
loved
shirt
clubs
suffering
recognized
steering
abnormal
blessed
goals
philosophy
autumn
liquid
optimal
breakfasts
aqua
creator
increases
failure
provider
transparent
chat
recording
division
properly
##sa
meal
##ja
marina
harbour
sensor
95
launched
manufacturing
stood
##tm
functional
profit
organisations
accurate
stylish
worship
porcelain
recorded
satisfied
agree
erasmus
stated
roll
recipes
regulations
career
trucks
monthly
plaza
letters
removal
fabric
severe
vista
worlds
##ba
expert
charged
convinced
hole
sheet
easiest
gifts
proof
push
charger
showers
mcqs
planned
photograph
stayed
substances
##les
thick
blocks
johannes
alarm
suddenly
cat
contribute
resolution
implementation
millions
passion
secretary
fans
handjob
##je
800
selecting
originally
publisher
heated
specialist
stations
vintage
##ally
exact
twice
supplied
fell
winner
michael
agents
facing
instant
casting
luxurious
ended
agreed
figures
clicking
naturally
replace
##me
crossing
belongs
flooring
indigenous
##men
usage
mental
promote
revealed
francisco
hungary
crashed
carbon
launch
unknown
charm
escape
gods
healing
paintings
collected
married
accordance
53
broad
raise
nostradamus
twelve
specially
usual
explained
movies
zoo
kilometres
valuable
meetings
temporary
bicycle
lock
chrome
antwerp
pov
salvation
taught
antique
expansion
opera
turkish
dial
##ite
java
disabled
export
restore
labour
identify
superior
amarillascolombia
cozy
confidence
proud
monastery
clouds
spoke
##au
panoramic
score
vegetables
sat
99
slopes
##ze
eating
treatments
regard
discovery
intense
campaign
researchers
58
gran
packages
austin
consequences
lists
composed
commons
certified
classical
pools
anymore
polish
applicable
pitch
chocolate
damaged
knit
spectacular
drinks
pack
tells
plane
vertical
hast
motion
sort
mention
wise
##age
multilingual
realize
input
fathers
tent
angle
gps
fan
inspiration
charles
imagine
grey
mining
expression
native
supermarket
bigger
luxembourg
##ization
wave
catholic
composition
literature
archive
crane
specified
treat
##ant
wallpaper
120
federal
teach
sheep
continuous
reported
provence
ordered
soleil
brothers
generator
infection
joined
trails
cheese
resorts
agriculture
displays
editor
kernel
logic
##ty
awareness
organised
virgin
maintained
pm
biodiversity
judah
wondering
collections
purple
guided
evenly
cloudy
dental
smoke
##wood
deepthroat
scene
galleries
joseph
scope
dating
zealand
prophet
possibly
publication
closer
servants
aluminium
seats
photographs
parliament
alpes
##line
panels
brisk
slots
falls
destroyed
fetish
discussion
towns
##ya
conditioned
plates
queen
swiss
licking
horses
resulting
cottage
opens
##ti
engaged
inches
iran
paste
directed
servant
overnight
represents
harmony
##ised
exposure
racing
presents
servers
travelling
##tor
priests
##ls
mercy
interests
principles
tight
improvement
driven
dec
yoga
binary
visitor
voyeur
xozilla
chile
matters
underground
widely
increasingly
applies
specify
##ful
buttons
agricultural
coins
peaceful
seller
operate
fruits
holding
referred
vast
oldest
judge
lakes
stove
##nd
twin
boxes
ships
wealth
occasion
xp
refer
helping
impression
warning
decisions
inn
invited
marriage
affect
everyday
jean
wheels
semi
aspect
outer
enjoyed
qualities
den
amongst
ferry
noon
believed
challenges
restored
partnership
##and
##led
gradually
micro
lie
ref
##ner
grown
##ps
watching
couldn
catalog
hydraulic
approved
da
schedule
sacrifice
lovers
palm
travels
stunning
burning
committed
contacts
texts
requested
copyright
combine
domestic
painted
solving
nipples
mirror
playground
intivar
swedish
shrimp
extract
remained
consumers
19th
familiar
lesson
rural
everybody
ear
permission
sec
signed
keeps
verify
evaluation
newly
heads
movements
tattoo
wash
##ists
cylinder
kings
contribution
cirque
shadow
successfully
pst
enterprise
accommodations
enabled
tap
trouble
##lo
accounts
cabin
titan
serves
tagged
##son
bestellen
1999
relaxation
measurement
brush
risks
##ee
terraces
stability
accompanied
controls
darkness
pitches
receiving
turning
extensions
installing
ok
powered
##q
demands
powder
clinical
cosy
boot
3rd
sample
studied
inquiry
developments
initiative
##00
jersey
pot
scientists
##ise
colored
cooling
tracks
##ent
drawn
affairs
watches
suppliers
thereof
functionality
borders
extent
translated
addresses
split
martin
ports
inform
happening
waves
premier
catch
combines
judgment
energies
killed
wc
entitled
stick
hosts
thin
exists
dealer
hungarian
##ping
haven
audi
belt
##que
reaction
repeat
effectively
##nce
muscles
##mm
explains
electronics
eggs
perspective
professor
sheets
conversion
rocks
periods
qnap
understood
dotted
boys
angel
survey
stops
optional
##ring
rice
seating
trading
forced
permitted
monuments
scans
afraid
chair
enjoying
meals
authentic
forests
hairy
##tte
claims
precious
##den
amounts
beside
fifth
enemies
facility
represent
strange
fees
lotto
##izing
attempt
focused
deze
import
passengers
contrast
separated
respective
awarded
styles
##he
##tes
adapted
informed
##per
cameras
pleased
connecting
denmark
wishes
cheating
hardly
hosting
positions
arab
intelligent
masters
strategic
discounts
interview
destroy
rider
distributed
flexibility
norway
index
modified
dual
aircraft
hitmalware
holes
unavoidably
steam
communicate
hague
surfaces
occurs
prove
suites
utility
springs
mobility
##ol
drying
spots
ethnic
workshops
##rd
austrian
ease
retail
wing
flood
org
ukraine
wire
apostles
symptom
boots
pair
purchased
yahweh
bringing
alanya
iii
stuff
##ux
topic
representative
laboratory
##ated
significantly
aires
speech
discuss
moderate
obviously
suffer
ab
protein
transmission
proven
specialized
stream
plug
monument
buenos
exclusively
##ll
prince
##10
magnets
excursions
chapel
copper
varied
##out
behavior
modification
somewhat
diverse
greatly
closely
icon
ebony
graphics
laptop
agencies
##isation
describe
payments
tablet
instantaneously
administrative
column
programmes
skip
toilets
establish
controller
concerns
filling
##za
australian
branches
cook
appointed
regulation
formation
##ial
hook
korea
promotion
disc
flemish
strongly
duty
git
unsure
fluid
holds
discussed
struggle
establishment
pop
suit
willing
checked
instruction
secondary
courtyard
bathing
funny
iphone
characteristic
surveillance
efficiently
managing
operator
favourite
vietnam
os
fort
putting
buffet
stays
contained
procedures
rivers
clasp
confirmation
diversity
##ana
cap
serving
attacks
representatives
##pe
hence
produces
uv
arm
witness
supporting
##ir
centres
immo
ms
gym
##ut
automation
gathered
charges
behaviour
bronze
turbo
keyboard
sought
communities
destruction
kill
mosaics
mounting
thread
humans
graphic
xxxdan
executive
passing
descriptions
measuring
coating
disciples
fundamental
chamber
proceed
deck
prime
observed
qualified
vitamin
zero
folders
initially
casinos
classification
thomas
utilizes
traditions
adjust
virility
##res
doctors
##ria
carrying
cancellation
cruise
exterior
pyrenees
##one
pcmag
communications
exercises
sub
##cm
kenya
mansion
explanation
signals
suggest
whenever
concentration
latter
700
visits
piano
cms
script
suited
covering
giant
fighting
canal
moments
obvious
replacement
breast
issued
vegetable
vienna
sword
hat
pregnant
basket
birthday
##ot
foods
hans
1998
practices
fund
walks
tissue
axis
happiness
personally
precision
setup
##ek
indahnesia
cinema
enormous
afterwards
arrow
loving
conducted
##ah
confirmed
righteousness
weekly
##°
apostolic
coral
jump
##ish
indicate
glock
senses
dirty
gravel
guidance
concerts
documentation
sharp
enhance
uninstall
pet
gentle
rating
assessment
thirty
academy
freebsd
rows
featuring
limits
crop
emotional
guides
atlantic
collective
dryer
massive
stronger
ordinary
herself
participation
santiago
unforgettable
feels
helpful
funds
parallel
transition
component
laser
pussy
dimension
horizontal
recognize
counter
layout
florida
operated
ascension
enemy
rustic
nowadays
##ging
quantity
welcomed
voltage
1z0
neighbourhood
beloved
essence
residents
stretch
exporter
climbing
improving
samsung
worry
animation
insight
playa
portuguese
synthetic
ha
celebrate
duration
jacob
conclusion
feelings
ipod
angels
calm
festivals
anniversary
savings
chose
##der
logistics
ears
themes
translate
motorhome
renowned
sail
domination
##°c
circles
finds
alive
buyer
##ler
indicates
sections
volvo
races
rapidly
expand
panties
reasonable
wouldn
iso
subjects
topics
##field
decorative
generated
careful
reliability
wonder
progressive
intensive
midst
stopped
blind
alps
remarkable
easter
cave
partition
stoop
amarillasdominicanas
beltoon
html
brake
preserved
gear
turquoise
yourselves
marks
abraham
picturesque
hell
mixture
transformation
wholesale
##way
tiny
trend
hospitals
coloured
excl
fellow
font
guiamedicasalud
prophets
gambling
luggage
summary
finance
moves
relationships
combell
aims
james
owned
rising
slip
typically
entering
yun
recognition
trained
architectural
calling
conflict
measurements
converted
diesel
parameters
films
oxygen
rio
vessels
asking
bound
violence
id
overlooking
texel
governments
gsm
hp
sciences
seemed
promise
shade
palette
shorter
##ide
exhibitions
supplements
vital
particuliers
cougar
woods
blend
wasn
orientation
verified
bacteria
bikes
precisely
additionally
ceiling
grounds
minor
opel
thereby
altar
donkers
housewife
kissing
belong
declared
eco
wallpapers
testament
tall
recommendations
dollars
forever
shoulder
breath
corruption
nurse
specialists
universities
concepts
exposed
flying
kong
environments
processed
aside
fail
mineral
performances
keywords
reader
worse
##ad
##ds
appreciate
speakers
adverteren
login
powers
venice
##ac
adam
choosing
##ff
conduct
particles
ranking
dried
loose
mill
##lla
xcafe
##ium
equally
pumps
tournaments
flanders
ideally
roots
##cy
##mo
anysex
definition
corresponding
substance
chips
county
labels
bold
matching
choices
competitive
identification
writer
bikini
represented
islam
lotteries
slide
constructed
abandoned
municipality
##ley
crew
zelf
chest
corners
##un
commerce
empire
lets
rapid
passenger
contrary
reducing
adds
##up
altitude
planets
utrecht
hong
planted
crown
mighty
colorful
pine
vice
##ea
analyzes
emissions
sized
##ities
generations
hairdryer
twitter
jazz
vote
staying
##ko
arranged
commonly
egg
##ey
gray
whilst
gap
beijing
gusts
midi
##di
fits
listening
oils
visa
commands
pipes
dealing
earn
measured
textile
biking
territory
scores
thai
tomorrow
85
buses
profiles
satan
sessions
archives
brazilian
ringtone
submit
un
##ten
depression
maintaining
employment
pensions
jackpot
romans
safely
bill
conscious
density
overcome
simultaneously
generate
sectors
bishop
interpretation
walked
##om
expanded
sant
container
shed
trends
unusual
accommodate
concern
##pa
consisting
oral
plot
vicinity
##ding
commitment
commit
desert
clay
liability
emotions
plugin
westerly
throw
customs
georgia
vat
20th
paying
thickness
regardless
##bo
glazed
considering
genuine
beautifully
charts
wearing
gates
correctly
newspaper
advise
attraction
dive
protective
burn
whereas
heading
ranging
conversation
cultivation
lifestyle
producing
somewhere
balanced
incredible
clothed
reduces
amarillaspuertorico
loire
operational
expressed
illegal
extraordinary
priority
sees
chubby
dc
invite
durable
institution
plain
##mi
noticed
nuclear
shapes
respond
modules
mystery
passage
revelation
diagnosis
granted
hostels
organize
1940
co2
soldiers
4th
clinics
yahushua
coastal
describes
faces
dos
valve
farmers
korean
##hi
##ica
lamp
municipal
weapons
kitchenette
carrier
diamond
##rt
officially
fairly
meanwhile
neighborhood
writes
malta
ml
brethren
encourage
santi
transferred
##wa
behalf
acids
chart
smell
booked
debate
intellectual
adjusted
define
aged
breed
developers
freely
gel
polished
coat
unlike
gaming
nose
69
personnel
insert
##che
designers
##house
eveytime
cafes
fucking
provision
coin
satisfaction
pope
difficulty
faithful
liver
realized
researched
catalogue
boards
rings
azur
ray
shortly
magnet
pond
proposed
detached
aren
installations
protocol
emperor
gather
wake
creatures
mar
cake
extend
failed
grew
portion
attitude
europa
muhammad
soap
grid
continuously
prison
sick
string
automotive
causing
identified
ceremony
baking
carpet
je
noted
##town
##work
honor
furnishings
prep
expectations
percentage
unable
founder
packed
speaks
photogallery
shot
manufactured
matthew
inch
downloaden
prague
spending
stitch
syria
antonio
protects
rail
1997
flag
righteous
tooltm
insulation
delivers
pan
accuracy
consultation
vineyards
belief
covenant
objectives
##32
18th
munich
literally
reputation
journal
performing
industries
mankind
payout
rocky
falling
urine
losing
seafood
1996
adhesive
enhanced
lying
roland
pays
tab
##ini
robust
loaded
delay
lamps
prevents
anyway
architect
decades
representation
tape
aluminum
smartphone
mask
buyers
cosmic
condado
interaction
mistakenly
ultra
scheduled
##mer
acoustic
circular
lucky
publications
apparently
conventional
restoration
##sen
imagination
manually
boost
saul
spray
consulting
relief
##nes
silence
jack
scenery
scooter
danger
radiation
banking
junior
jouw
voorbeeld
caribbean
www
beluisteren
dancing
##istic
##ura
colleagues
ashemaletube
commanded
elsewhere
1995
mechanism
redtube
theatres
basically
characterized
buddha
marble
observe
campsites
drawings
dreams
firefox
legislation
appliances
beat
phenomenon
pin
##ure
bravotube
membership
premiere
reply
balls
hide
seriously
wardrobe
accident
chicken
freshwater
zip
acquired
fascinating
continental
bbw
##ue
17th
alongside
cancel
lively
suspension
##port
juice
lowest
estimated
capsules
excess
towel
bands
berth
exception
transactions
minds
silent
loves
meditation
singapore
tanks
emails
##ay
beads
readers
rough
beginners
vincent
reaching
deeply
pocket
receives
robert
##ger
monte
compass
squares
##ors
combinations
illustration
gardena
desires
porto
preferred
separately
stadium
erotic
highway
arrange
overcast
resource
finishing
seal
speeds
academic
flour
leaf
guard
individually
passes
gravity
medicines
victims
washington
carolina
multimedia
peak
swim
von
##ped
deeper
debt
fitting
arise
functioning
superb
coconut
sensors
scan
grade
leadership
##ning
butter
derived
edges
exotic
jackets
pilot
rated
criminal
agenda
sisters
containers
dunes
spirits
traveling
dimensional
guidelines
younger
##ard
##ky
##ius
latina
olympic
cultures
rudder
wings
moisture
aimed
oriented
rolls
juan
portable
agreements
bell
transfers
lasting
batteries
blowing
brass
politics
##board
archaeological
crucial
returns
daniel
supposed
convenience
##ens
cape
technological
tend
underwater
refund
sole
tech
craft
difficulties
modes
praise
reveal
jordan
thine
72
challenging
moncler
trailer
gained
viewed
pole
celebrated
exceeding
opinions
seventh
shock
##ms
##ix
scheme
oak
quote
investigation
appeal
finland
loan
ratings
equivalent
loop
uninstallation
##ons
isolated
labor
anger
possessing
introduce
chemicals
gloves
intention
ultimately
platforms
reserves
awards
implement
console
infections
forbidden
surprised
luck
copies
frequent
piercing
refined
refine
radar
soviet
strategies
bone
throne
managers
##by
activated
dependent
stomach
approval
explorer
lifts
snack
amarillaselsalvador
depend
maxutilities
proved
virtually
fabrics
galaxy
merely
##sh
grant
involves
airline
gorgeous
improvements
trains
chip
corrupt
##lin
mild
execution
namely
authors
meets
preview
wars
attend
biological
lawn
rolling
nobody
survive
yours
statue
chassis
identical
studying
jacuzzi
vegas
brief
nylon
5th
gpupdate
moral
promised
adopted
poverty
dna
harmful
lifetime
punishment
##km
adriatic
iraq
calculated
champion
decrease
expenses
romania
storm
voor
##ham
admin
spectrum
bowl
congregation
aids
implemented
matches
reactions
##ability
licensed
arrangement
cables
ensuring
pour
protecting
fifty
proposal
breeding
dildo
phones
wherever
daughters
injection
tag
##20
diego
ink
airlines
consist
participating
reaches
tons
cf
courts
transformed
louis
muslim
capture
cube
recovered
bing
rays
strap
closing
executed
##hof
cats
highlights
pepper
seduced
motorcycle
creativity
sera
whitening
believers
pregnancy
senior
honest
##ford
accessory
fountain
sauce
##lle
taiwan
granny
possession
george
grows
##bly
leg
##ance
##em
mortal
whoever
stairs
chateau
occurred
appointment
catalunya
##ik
##ron
gangbang
pills
##ny
occupied
pierre
flowering
removing
shanghai
capabilities
lion
cinemas
solomon
associations
receiver
illness
cellar
cruz
unity
assigned
pollution
shares
threat
translations
clinic
lcd
stockholm
championship
composer
considerable
productivity
relaxed
reverse
sophisticated
sms
laboratories
invisible
couch
alan
consent
absorbed
frames
##back
manuals
prevention
chronic
##be
complicated
economical
placing
highlight
croatian
lips
sake
vibration
forgotten
clicks
democratic
feeding
##red
delicate
ongoing
towers
ladies
posts
prospering
##ary
ah
circulation
presently
##ible
cheaper
sustainability
360
belts
captain
gmt
princess
needles
homepage
portfolio
warehouse
bottles
christianity
crime
operators
optimum
immobilier
makers
robinson
ego
ran
breeze
checking
contracts
haute
lifting
bulgaria
screw
##ai
handy
consult
processor
minerals
publishing
countless
farmhouses
vessel
languedoc
fig
gothic
puts
tubes
glad
wool
adjustment
liked
meadow
15th
braindump
tracking
largely
submitted
bjbead
consistent
hike
fonts
guy
intervention
subscription
jerking
irish
steep
crazy
lightning
musicians
respectively
globe
canadian
mozilla
zones
survival
defense
immune
marie
wheat
convention
orchestra
365
assume
16th
1992
adapter
shrine
ecological
##ft
1990
smile
##50
winners
headquarters
##gs
##mann
inventory
pointed
ferries
congress
publish
##ries
prestigious
zoom
##ino
acting
cote
peninsula
focuses
##ites
commodore
heights
infinite
santo
ac
cuckold
hanging
180
funding
ceramics
##net
1994
statements
texture
cargo
experiment
##ating
aramean
devoted
hybrid
organizing
##ig
canaria
random
wins
reward
breaking
fiber
offerings
penis
relating
##ice
detector
elections
seaside
talent
muslims
terrain
baptism
pride
signature
singing
versatile
##hip
350
coverage
ladder
separation
whore
dew
slope
networking
sudden
agate
flows
honour
sd
##ung
dirt
federation
rack
au
maritime
victoria
gay
perusur
nord
tablets
##op
amarillascostarica
guys
translator
##ud
aquarium
strict
breathing
vendere
endless
honey
downloading
ecuador
suggestions
telling
toaster
buried
concluded
elevator
islamic
memories
foam
inspection
rented
bride
organs
salon
continuing
northwesterly
pasta
ruins
strengthen
reels
farms
graphical
hospitality
baroque
nuts
vitamins
ibm
maastricht
140
malaga
subsequent
yahuveh
##ical
manifest
recreation
amazon
trendy
##ss
gracia
bearing
likewise
dialogue
notify
heavens
travellers
editing
flashing
consideration
perfection
league
abundance
grain
patio
permit
restrictions
teachings
celebration
finger
theater
miguel
##ore
merge
particulier
regards
rhine
bbc
printers
illinois
lens
entries
employee
hclips
roussillon
invoice
fallen
hectares
fortunately
forty
suffered
66
barbie
compliance
engineers
needle
detect
adapt
audition
dolphin
likes
minimal
northerly
fulfilled
pixels
rescue
resulted
tough
butterfly
investments
necessarily
mercedes
colonial
ill
220v
ending
striking
abuse
chances
marrakech
weekends
##€
tobacco
68
bedding
bridges
comprises
sum
configure
rectangular
settlement
fox
##time
harm
neutral
heal
stem
67
transform
vivud
##pi
bones
incl
suggested
directors
feast
harvest
harbor
completion
flame
genetic
hack
navarre
resurrection
veterinarian
gmbh
mood
prayers
slovakia
colourful
cloth
dick
precipitation
libraries
62
arena
echo
handles
ram
tasty
tired
heavenly
sanitary
oem
varieties
spam
splendid
supermarkets
codes
enhancement
grip
psychological
saints
targets
tongue
aaron
hunting
newest
comply
lightweight
pen
##ks
roller
##ak
attempts
couples
moscow
##straat
obligations
##ano
grave
iceland
compression
squirt
surprising
champagne
##ker
hood
hose
investors
tribe
1944
assets
castles
shine
secured
##king
binding
cent
demanding
##ming
alexander
liberation
beneficial
partially
shoe
tries
##bach
##tal
currencies
wicked
sorts
singer
ups
drainage
floating
##jo
encryption
rounds
presenting
refuse
thoroughly
##sing
initiatives
motorway
sexy
caravan
flora
herbs
asphalt
steroids
tied
traces
##ned
treasure
##ho
##tone
variations
experiencing
officer
speaker
surgical
germans
lobby
knitting
actively
medication
sexu
switched
principal
applying
democracy
distances
staircase
talked
##im
130
indication
reporting
centrally
civilization
intermediate
hiv
ceo
combining
terrible
tooth
bicycles
considerably
intensity
improves
##ow
blessing
blockchain
##ul
##gen
boasts
compensation
herbal
youtube
bookings
coated
distributors
sphere
tunisia
shuttle
pharmaceutical
prescription
arabic
pacific
##ex
volumes
addressed
dollar
finishes
folding
gently
pharaoh
optical
tail
inland
subtle
##ver
requirement
tension
adjacent
900
serial
##her
##pm
believes
picked
anna
cattle
celebrity
lotus
proximity
tasting
admire
rom
gogh
steady
complaints
regarded
upload
contest
preparations
##ou
candidate
lisbon
seasons
bend
ftp
kettle
premises
rolled
sleeve
excel
reflection
tenerife
corporation
stroke
##bar
danish
plastics
shelf
tents
110
1993
cups
cure
dwell
surf
smallest
triple
wider
##ans
bv
settled
sqm
assistant
hello
sa
abilities
references
sunset
bangkok
hesitate
magazines
elite
partial
silk
tungsten
finest
independence
influences
ranges
sightseeing
bio
discharge
hi
linear
structural
deposits
sing
trainer
groningen
rely
acceptance
economics
fax
transaction
flavor
redhead
horizon
pennsylvania
sixth
devil
ph
operates
shoot
shut
oracle
jumping
bulk
goed
magical
missed
phrases
url
integrate
63
athinai
##30
forming
frozen
ghent
messenger
tub
tunnel
formal
mixing
occasionally
vastgoed
##ire
burnt
cam
opt
##box
permanently
prints
##ui
6th
injury
novel
surfing
tom
integrity
cabinet
infrared
culinary
distributor
sculpture
##ology
distress
perception
underneath
accounting
brochure
caves
portrait
scripture
vip
corrupted
cry
hiding
rid
##weg
calculate
loads
provisions
attract
credits
shirts
##iness
avenue
consequence
##ious
election
enterprises
bakery
collector
lifted
secrets
##ber
ch
effectiveness
granada
vegetarian
160
revenue
doctrine
repeated
vegetation
brick
inflammation
outcome
triangle
invest
##si
milan
realm
damages
refugees
wheelchair
automated
pencil
balconies
emphasis
cemetery
downloaded
##park
candidates
planetary
welfare
arriving
papers
preferences
pace
architects
masses
promises
enjoys
excessive
bondage
chairman
lecture
migration
convince
debian
washed
1945
forgive
omega
polar
horn
sequence
shooting
trace
##heim
aroma
healthcare
mere
worn
joshua
orgy
basketball
defend
spin
loud
repairs
##lia
emerging
facilitate
renaissance
folk
bluetooth
dose
grill
photographer
tuscan
amusement
roses
shepherd
fifteen
gateway
urantia
##des
hang
solely
ventilation
intake
males
biblical
brilliant
disorders
multitude
2020
crash
segment
dragon
poles
releases
popularity
val
##nia
##ster
absence
internationally
realistic
subsequently
assembled
certificates
chains
qualifying
bathtub
hamburg
elastic
array
unexpected
havana
##ification
alliance
antenna
bets
mahler
possess
soccer
departments
raid
recreational
sentence
tractor
basics
prizes
spy
delight
phases
nederland
##ged
61
athletes
reign
trusted
venue
eaten
evenings
intimate
dealers
listing
refused
thruster
##ising
##ov
consequently
nijmegen
yield
##ings
bunk
naked
##lt
calculation
develops
domains
marker
screens
1991
courage
talks
differ
richard
8th
collar
motors
babylon
cooked
prominent
soup
prosperity
tram
compassion
barrier
descent
scenario
##ese
arrangements
fake
mutual
slim
therein
campus
crowd
ramblas
skill
bass
forgiveness
opposition
dublin
dynamics
unesco
acceptable
lid
origami
promotional
siena
succeed
98
pvc
##ara
##ified
exploring
handed
illusion
rehabilitation
continually
marketplace
##ken
mistakes
scatter
curve
wrath
connector
limburg
mars
browsing
ark
strictly
alpine
liable
sliding
volunteers
satisfy
appreciated
fingering
onroerend
returning
welcoming
##ita
albert
demonstrate
eve
frankfurt
##od
1989
7th
lighter
metallic
joints
facade
attributes
seminar
##ct
shiny
trials
imperial
##ang
bingo
goodness
nathan
obey
seasonal
blade
brittany
miracle
physics
shelter
##ok
##cs
cord
featured
memorial
pizzerias
quartz
wilderness
auction
breathtaking
hate
sperm
virginia
decline
garlic
gulf
painful
scriptures
tvs
spite
##40
armed
authorized
confusion
valves
ben
staten
surcharge
##ves
directive
studios
tears
checks
pedestrian
personalized
##ins
hygiene
integral
renting
##ys
extends
carries
swing
##ane
baths
examine
strand
sunshine
temporarily
##tors
quantities
strike
collectibles
participated
advised
chalet
lodging
mega
volleyball
lodge
organise
##dy
cutlery
dolphins
foreground
##60
influenced
legendary
sculptures
titles
consultancy
fiestaza
preserve
suggests
beta
delivering
financing
passport
##12
conjunction
developer
dominate
newspapers
presentations
toyota
defence
disappear
scar
baptized
gradient
regime
##ap
14th
broadcast
connects
estimate
findings
pendant
religions
alta
plugs
profitable
rarely
counts
decor
lab
sporting
breaks
receipt
rp
thorough
axle
reminded
jet
licence
pressing
routine
sierra
##ira
dough
locking
13th
landing
stereo
jacket
static
administrator
expanding
welding
tones
vatican
noble
fed
nicely
representing
sad
disappeared
followers
poetry
proteins
affects
combat
ciudad
##bs
flags
worthy
employed
thinks
unix
##the
canvas
rod
##ld
template
##ram
dimples
iv
medussa
mistake
babies
cookie
literary
aging
cried
mer
verily
obstacles
rejected
sandals
whereby
durability
attended
bach
continent
piazza
vibrations
ample
deny
duo
potatoes
switching
columns
lemon
verenigde
liege
backdoor
fortune
nervous
th
burden
marijuana
symantec
asks
dubai
embroidery
inheritance
##era
annonce
assured
pizza
minibar
norwegian
tribes
begun
capability
ohio
drtuber
gluten
landscaped
##ses
legend
mexican
raising
calcium
demonstrated
enjoyable
obligation
watering
xtreme
bowling
cab
ton
troops
dictionary
nutrients
verse
curious
em
consultants
fewer
nutrition
##len
paved
stack
summit
renovation
dg
fortress
anxiety
ban
femdom
apparent
broke
camps
congo
1942
beam
expense
fr
monster
##ile
differently
hub
socks
angeles
descend
transported
sao
belonging
comfortably
experiments
spins
activation
bin
citizen
ceilings
slave
trim
restricted
supervision
##pers
adequate
attachment
sanctuary
sorry
stolen
##rate
athens
guardian
fatty
potentially
uncensored
yard
factories
realization
##book
charity
viruses
##well
generous
heavily
recommendation
sol
##of
delta
odds
pub
##ola
##ros
focusing
packing
scratch
toxic
coordination
lamb
mt
privat
sabbath
habana
joining
mayor
vs
exhaust
lands
meterials
orbit
##rie
amarillashonduras
eliminate
hop
insects
earned
ec
vibrant
boss
##tz
acquire
dan
immobilienanzeigen
##ien
customized
dropped
metals
nest
uncommon
glue
hebrew
ipad
ironing
producers
arrows
compounds
environs
extendable
##ably
74
abstract
beans
dressed
entity
geneva
fingers
grapes
apparatus
discussions
espresso
favorites
riviera
##mp
78
configured
dealt
nevada
trademark
designated
responses
alert
drunk
fibre
promoting
3000
cuts
reform
duties
burned
og
quatrain
##bi
attach
panorama
parent
rhythm
router
collecting
colon
contributions
scenarios
disorder
ensemble
plotter
reproduction
spreading
switches
treasures
whatsoever
1980
seals
##ec
##sed
annonces
catalan
demo
es
goddess
krishna
limitations
loans
accessed
ownership
stamp
communal
engage
ne
trader
##so
distinctive
invitation
targeted
camper
fats
intuitive
locally
luke
physically
zurich
##zing
galactic
scattered
##han
detected
knitted
rotation
unwanted
watt
12th
bogota
sprint
dairy
rs
##zer
farming
saves
treaty
childhood
disaster
nova
reveals
sagrada
trojandownloader
theoretical
alike
californie
compressed
discipline
guess
var
##zo
emirates
popping
transmitted
upcoming
voucher
anonymous
strips
structured
bordeaux
commandments
imported
toscana
airports
idol
argument
distinct
nepal
practically
aesthetic
journalist
outdoors
corn
eleven
rama
blocked
foil
preventive
producer
screws
depart
diary
involving
philippines
sends
sewing
beneath
genesis
snacks
##cc
avi
females
waterproof
pulled
tastes
observation
##dale
mechanisms
visibility
##ving
familia
overseas
safari
sterling
##ert
analytics
innovations
mysterious
sunlight
##room
##ua
alternatives
bmw
cows
polyester
banker
claimed
ford
greenhouse
morazan
wadden
##ji
##po
alloy
necessity
realise
##lon
650
andre
angry
concentrate
encrypted
flavour
mallorca
samuel
shy
1986
fuck
shaft
agios
##tis
cockpit
wives
##lan
##ments
##tra
puzzle
evolutionary
invites
ordering
occasions
thc
valleys
bless
blow
mb
sardinia
bug
habits
outskirts
productive
##ess
1500
alpha
divide
##ku
arizona
demonstration
grande
purely
skyteam
friendship
jury
71
chaos
cholesterol
dominant
parish
contributed
evaluate
consumed
dressing
1939
barely
c64
elderly
hitler
phenomena
travelers
##tel
gender
reflected
usd
bare
modular
princes
elegance
lace
penalty
curtains
gardening
locks
approaches
campers
distribute
indicators
pa
sew
asset
attic
celestial
harder
matrix
charging
clip
excited
laying
workout
arc
innocent
profits
beers
beliefs
collapse
formatted
gathering
hr
insights
implementing
ma
##bed
1985
alpelino
##ator
championships
glazing
victim
##sm
450
77
documentary
prohibited
recognised
##bury
brewery
testimony
involve
oclc
wonders
closest
incorporated
ost
promotions
teaches
mont
patch
##ille
21st
acquisition
brabant
concentrated
creature
gross
salad
sensitivity
stroll
##dorf
campaigns
lan
genre
michel
patent
##head
cisco
ethernet
substantial
##ras
inspiring
patience
refreshing
##ative
browsers
opposed
politicians
pressed
cluster
curse
halls
malaysia
meadows
meantime
updating
venezuela
aggressive
candle
foundations
ltd
deeds
promenade
cherry
extracted
siedle
##art
##fish
handmade
##tt
ana
annunci
devotion
obliged
reel
##ics
##vo
amarillastexas
succeeded
##card
##view
locked
treasury
buddhist
carriers
casual
finnish
heater
aquitaine
reinforced
scales
stimulate
##ters
enthusiastic
##llo
dam
determination
faced
cycles
fantasy
istanbul
tender
tokyo
counted
excellence
ghost
governance
sap
delft
abbey
celebrations
conferences
preventing
sicily
##logy
##01
conveniently
fraud
##ere
##med
boutique
shades
threats
##ets
##tation
facets
faculty
10th
exceed
existed
horny
specialised
sydney
vulnerable
analyses
boarding
compartment
cursor
renewal
shame
##ular
96
abu
controlling
enlargement
swinger
weighing
communist
junction
pedal
testosterone
worker
batch
socket
beams
prisoners
bond
evident
lectures
maison
michigan
proposals
pushed
rotating
spatial
oasis
vhf
grab
lo
outlet
societies
trinity
weddings
entre
leuven
allies
ruler
seduction
stuck
##ties
##tive
amarillasmexico
evolved
fauna
fulfill
losses
prevail
puppies
varies
73
clash
cooker
flip
grams
react
touched
wax
fluke
significance
##ach
correction
dot
firmly
streams
actors
cakes
painter
performer
tabernacle
awesome
comparable
mirrors
sturdy
und
alternatively
encouraged
utensils
writers
125
airconditioning
egyptian
locals
##ias
##ily
##urs
valle
##bank
diabetes
frequencies
shaping
socialist
##ware
91
drain
indonesian
ministers
sheshaft
beast
cheerful
jungle
##80
arose
fabulous
placement
adobe
experimental
hormone
logos
positioned
roughly
variation
assignment
uncomfortable
earthly
propaganda
shells
##sis
denominated
occupation
removable
realms
admission
paypal
toy
vineyard
cala
complaint
enthusiasts
fate
achieving
chef
conflicts
declaration
farmer
pisa
sincere
##16
##tta
1988
basin
drove
gustav
inhabited
killing
competent
##24
##ney
conservation
incredibly
nudist
riad
affiliate
execute
ibis
litter
skype
woven
1984
lithuania
##car
logs
navy
repaired
##ort
robot
favor
knife
se
genes
trousers
vocabulary
volkswagen
independently
##my
competitions
burner
freight
gases
officers
astronomical
attracted
icons
relatives
##und
pots
transit
volunteer
crossed
witnesses
##oo
chambers
colorado
elected
pillars
yodot
engineer
1987
formerly
productions
sim
cleansing
crocheted
fault
hooks
powerball
quest
sleeves
##ole
ios
liberty
phoenix
strive
eixample
##rum
1941
bali
fog
hurt
ir
##dos
##ory
adventures
basilica
directories
interviews
marc
pairs
plots
struck
wizard
classe
subscribe
cot
fibres
lined
metre
mushrooms
pandora
della
dense
markers
parc
vb
warsaw
william
##ris
##rk
diagram
paragraph
tray
81
amiga
lagoon
patented
84
elisabeth
pins
slovenia
variables
##ula
deity
remedy
streaming
flowing
mrs
reflects
accidents
enclosed
favour
praying
acrylic
bonuses
ingredient
plated
1970
acquainted
sits
##ren
belly
holders
isaiah
moroccan
porn
thrown
##zed
##70
##ions
violet
parasols
repository
sony
cyber
hero
retain
captured
pedro
replied
rises
rue
##ong
bead
bush
contributes
generic
mailing
registering
##gate
cranes
destiny
fails
varying
##15
enters
officials
##nic
assess
delhi
barbara
dramatic
foursome
11th
carnival
ought
sri
accomplished
companion
compound
pieter
##ifies
76
feminine
guesthouse
motivation
umbrella
creations
lasts
metabolism
##bility
arguments
pad
preferably
pupils
talents
announcement
cosmetic
edinburgh
fc
keyword
locate
##ick
boulevard
caps
classified
crockery
loyalty
lung
planting
profession
##ded
descriptionhouse
fought
steroid
bears
gene
pulse
86
assumed
eindhoven
fever
firms
immobilien
shield
##ians
determines
oriental
pants
##fs
achievement
vibrator
compete
na
replacing
ruled
##11
absorption
blanket
kwr
purchases
seas
environmentally
nursing
distinguish
##sville
arabia
attain
dordogne
midnight
verses
welcomes
yeast
##bel
bitter
investigate
photographers
simplicity
##ci
doggystyle
embedded
gun
spiral
venus
databases
din
##point
leon
pcs
220
mg
renewable
sealed
dns
piston
temples
##let
crashes
ile
mov
regulatory
administrators
avatar
backed
miracles
admit
interpret
lining
scanner
##cal
announce
associate
chicago
excursion
gratuite
tissues
bench
glance
personalities
span
sweat
##pur
alex
betting
competitors
consultant
cyclists
passwords
columbia
copied
nightlife
quarters
theft
##64
engagement
recruitment
replica
therapeutic
dome
monaco
compatibility
involvement
sensation
audit
confident
declare
magnifying
numbered
donation
ignorance
mandatory
chevrolet
enthusiasm
entities
harry
tires
disks
excluding
fragrance
jeremiah
nr
skirt
tailored
anabolic
believing
corrosion
distant
jewellery
matt
reset
94
copenhagen
drew
iniquity
lebanon
partitions
sunbeds
cologne
draws
gaulle
livescore
lover
punta
1943
geographical
notification
rope
gbp
stamps
ai
heroes
letting
ridge
elders
organisms
plateau
rulers
79
birmingham
primitive
tie
##ven
dated
dubrovnik
il
impressed
recordings
scotland
voices
americans
arrives
cricket
legacy
constitute
energetic
warned
burgundy
decade
malicious
swap
transparency
warmth
92
daylight
henry
luminous
minivan
origins
ssl
undoubtedly
a4
clips
connectivity
duckduckgo
gb
telecommunications
warming
accessibility
circuits
eternity
melbourne
mud
promotes
mills
autopilot
fork
invented
privileged
recorder
sells
##vi
excluded
albums
alicante
basement
breathe
compositions
footage
##ral
dying
organizational
viewer
##ova
buitenland
geography
governor
violent
votes
accomplish
bob
classroom
combustion
designing
firmware
psychology
referring
settle
5000
binoculars
comunidad
medicinal
regulated
southerly
traditionally
weapon
##ada
conceived
confused
gm
vagina
ag
cow
decease
optimized
pyramid
rides
miwe
tune
##ala
corinthians
districts
irrigation
mercury
oval
peaks
kilometer
rhone
1950
glorious
threshold
##water
profound
resolve
shipped
slight
##mia
examined
isaac
wildlife
##fa
counting
grateful
legally
mare
palma
southeast
verde
worm
essentially
minded
promising
willem
##iah
##ual
decorations
offline
refuge
travelled
api
crete
drum
wisconsin
##cing
accurately
strings
##ique
##tas
89
drilling
hier
hydrogen
sainte
zuid
##13
lane
longest
reject
slides
veranda
boom
communion
riches
stir
83
blackjack
elizabeth
incident
##ette
bases
deluxe
distinguished
lunar
navigate
responded
rounded
umbria
bits
cabins
fame
filed
headed
predictions
prompt
tailor
vaginal
distinction
##ito
##mans
93
dominated
fusion
rob
skilled
somebody
southwesterly
bull
disable
drama
floral
medications
treating
acknowledge
decree
easterly
elephant
maid
realty
reconstruction
recycling
##mar
domingo
menus
researcher
shoulders
spices
timing
calculations
emission
initiated
inquiries
manages
monetary
planes
scripts
##cia
##ied
assurance
horseback
housed
marking
retro
implants
reads
shining
specialities
##ena
##ivity
##oon
confectioner
cylinders
hunger
hungry
rss
##ery
bubble
debut
glaze
remind
##tan
extraction
fled
garments
hopes
tricks
101
cyprus
radius
roulette
sq
appreciation
cabal
preference
prescribed
##ines
##maker
kidney
lima
manchester
ps
saudi
simulation
crafts
idyllic
campanile
fence
membrane
nike
750
injuries
jeans
lit
transferring
dell
tutorial
##ata
88
blades
inter
poet
roles
tel
ambitious
brightness
builder
contacted
exchanges
hilton
##com
1983
judges
solidarity
stripes
9th
accepts
commissioned
computing
cryptocurrency
hits
hosted
rejoice
excitement
inserted
liter
mat
sticks
syrian
tabs
##con
explicitly
arising
martial
fears
institutional
passionate
revised
##ox
calculator
monks
opacity
stoves
wherefore
almighty
buddhism
venues
##gon
##our
arnhem
editions
kitchenware
seeks
variant
eclipse
fur
missions
petrol
sinners
exquisite
fashionable
illustrations
lean
lest
motivated
##iz
animated
boeken
tonnes
verkopen
##hr
##oc
realised
wolf
##chi
82
cancelled
cushion
kid
wanting
winding
constructions
opponents
rev
vender
##nie
delf
dice
owe
prestige
rainbow
rugged
skis
somehow
##table
mothers
selections
accompany
associates
canon
herb
philistines
syndrome
watched
boundaries
ed
handled
lanka
pas
torque
attacked
hobby
ict
puntarenas
tremendous
virtualization
cottages
elevated
granite
limitation
warn
##tie
approximate
propose
stems
benjamin
curved
implies
jupiter
radical
resin
specialties
specification
bosnia
consume
departed
gastronomy
onwards
pit
prayed
spake
briefly
coal
dorm
warnings
##ward
determining
responsibilities
##ress
blessings
immense
vi
baltic
fishermen
ritual
yearly
extracts
luis
rotary
ties
97
accompanying
conscience
heredia
##cht
mails
respected
coastline
constitutes
johan
opponent
##gi
dynasty
hats
hip
hunt
intent
intentions
quietly
anuncios
atlanta
patches
php
banner
thereafter
compiled
massachusetts
removes
rush
sacrifices
1200
breach
chemistry
picnic
resist
tenants
tiger
222
bureau
carlos
decreased
foreigners
gaudi
lip
molecular
peloton
quinta
dryers
miami
potato
voting
##ao
##ration
grove
tear
cds
conf
ignore
lush
##over
duality
italia
lesser
tomb
formatting
philips
ss
storey
##link
ardennes
hollow
sebastian
eden
liters
remarks
remembered
blossom
charms
coupled
leiden
sint
workplace
##eur
cpu
dare
defects
discrimination
fatigue
safer
saturn
similarly
trick
##ab
##zi
ignition
nails
normandy
##zen
defeat
habit
lengths
pavilion
spark
baggage
manifestation
pillar
ringtones
veterinary
andrew
approaching
conversations
pissing
utilities
##ene
wikipedia
##are
clit
karma
modifications
converting
interact
messengers
methodology
modem
survived
upright
astrology
dialog
suppose
##fe
fsbo
messiah
##list
chianti
earthquake
ruling
##tein
faq
hebrews
nutritional
participant
smith
##bus
##nal
charentes
istria
passages
##gy
##ute
conveyor
monitors
observations
offspring
##mont
hormones
intend
prof
quoted
sponsor
alter
crosses
dispute
guatemala
provinces
smoothly
##ball
1981
bunch
noord
pakistan
1982
amino
bishops
cardboard
criticism
##ella
##graphy
##light
consuming
delighted
perceive
afford
dancers
ie
repent
searches
tolerance
abundant
analyse
candles
melody
tr
denied
loyal
madeira
##mon
drill
gains
humble
parade
quotes
utmost
venture
arch
inevitable
miniature
proportion
publishers
threatened
##ell
##ico
bourgeois
ordained
saver
weights
##hs
##mate
funeral
garment
minnesota
##ight
##uring
arrested
connectors
enjoyment
roma
adoption
bamboo
consisted
eligible
episode
ginger
newer
palaces
playback
guinea
signing
decides
embrace
nail
reasonably
scientist
##itis
complexity
levites
ni
sufficiently
wherein
##cha
##ches
##nda
##ock
lenses
molecules
username
##mal
balancing
conditioner
cosmetics
exploitation
gourmet
lee
##ence
adopt
afghanistan
appetite
bandwidth
blankets
dusseldorf
ergonomic
kick
unnecessary
1975
artwork
automobile
clarity
inspire
obedience
shipment
1960
corrections
foremost
psp
shampoo
strain
wholesalers
##ida
##ip
##use
170
1978
bbq
completing
divisions
establishing
tightening
attracts
monumental
noah
##huis
##if
allergic
bdsm
cardiovascular
cocktail
exhibited
holiness
imaging
permits
qur
terminals
ukrainian
accidentally
eg
maintains
stranieri
##90
a1
aruba
particle
trailers
windlass
##works
ate
sounder
statistical
technically
##ingen
lucia
predicted
protest
accepting
impressions
investigated
nerve
pricing
tumor
unemployment
##band
assure
gratitude
mould
pounds
##yn
brakes
creamy
dies
kb
occurring
taurus
atmospheric
breasts
draft
incoming
pockets
romanian
shouldn
terra
tilt
twist
##af
appearing
interactions
collectors
conclude
doth
dt
plugins
symbolic
##ations
##ulate
crystals
habitat
imposed
vain
##ii
capsule
gratuit
##ening
mesh
sync
105
boil
dances
fairs
han
indirect
perceived
phrase
admitted
autonomous
cambodia
discs
lenovo
sorrow
disclosure
nowhere
sleeps
##sy
adaptation
fa
1900
blocking
jam
cliffs
physician
##don
##ona
corresponds
merciful
modest
everlasting
firewall
recycled
##bit
decisive
festive
gasoline
grinding
lime
lyon
murder
neighbouring
strengthening
wholly
##pen
##rus
closure
controllers
motorcycles
trinidad
bouquet
complement
desirable
ours
strands
extinguisher
fittings
traders
##ants
cement
enlightenment
exhibit
francis
lungs
marche
seminars
##val
commander
deployment
graduated
header
minimize
monitored
purity
reservoir
southwest
##all
donations
folded
resident
wrapped
delightful
##aal
##ran
latex
monkey
posters
silicone
stretched
textiles
carved
compromise
mosque
scuba
dozens
flock
missouri
offset
sants
##traat
14°c
approached
immobiliari
kun
tranquility
creek
pig
relate
trekking
widespread
windscreen
adverse
algae
bells
grammar
guiaconstruccion
immobiliare
lely
puppy
retirement
estonia
rally
toiletries
alignment
barriers
marco
notified
##bad
##rn
dusty
edward
giro
230
clara
laura
pillows
prophecy
requiring
shallow
wilt
enclosure
grape
hopefully
provincial
smartphones
##uk
dakar
disposable
sclerosis
specialty
voluntary
##ges
##oft
87
float
negotiations
raspberry
reviewed
tapas
1979
anthony
dawn
caravans
diagnostic
oneself
##eria
##wn
eagle
fenced
fiction
fountains
genocide
introducing
millennium
styling
touching
##ora
annually
assisted
chapters
lawyer
pulling
##ome
accessing
adbrite
crops
domaine
introduces
nitrogen
priced
segments
##cher
##hl
arthritis
blinds
insertion
keen
lap
comforts
risen
storing
##ag
carriage
centrum
elevation
fucked
gauge
gyno
illuminated
positioning
proletariat
quantum
subway
terror
whales
##down
gibraltar
interference
optimize
pokerstars
upwards
wrap
aan
avoided
biology
definite
fare
resting
truths
##rian
##ser
advertisements
destructive
dwelling
expressions
gastronomic
judged
rewards
theories
translators
traveler
altogether
hoover
programmed
salzburg
surround
col
hut
nordic
##ich
analyze
decent
discovering
inflammatory
mall
napoleon
revitol
alto
diagonal
parameter
sunrise
tyrol
##nas
##og
clamp
fertility
ins
lease
payline
poitou
##nen
acute
asleep
capitalist
disney
expedition
monkeys
spheres
##fer
explosion
illustrated
maximinum
passive
pile
##ht
chauffeur
ebay
lenin
sundays
zagreb
##we
bind
familial
photoshop
rovinj
trigger
vanilla
anytime
dip
enlarge
geometry
occupational
par
piet
##14
##iest
plata
recognise
suspended
##02
##las
builds
hasn
honda
merchandise
remark
respiratory
cellular
chakra
displaying
extending
lucca
platinum
tens
trademarks
##ben
aromatic
authentication
diamonds
leap
prostitute
valentine
ce
foto
hollywood
jacques
seamless
##hed
##rant
##rated
barometer
encountered
generating
rank
reef
templates
uncle
voted
bonds
ibiza
25th
colony
demonstrates
jamaica
poured
quatrains
sailbaots
satellites
guilty
mama
unclean
volcano
baked
composers
confidential
depths
mario
otto
pushing
tomatoes
ancestors
belonged
curves
flies
stopping
cartoon
coaching
creators
deletion
deserve
matched
originated
grants
isle
listings
preservation
quit
valenciana
carpets
cataluna
cometh
crayon
rha
##una
absorb
lever
ons
overwhelming
seated
wav
awakening
cease
contractors
intact
ion
johann
paints
phd
pill
alle
bareback
constitution
forums
marathon
withdrawal
##jan
##pt
dcf
embassy
fulfil
leo
rv
cabrio
catching
preliminary
stake
substitute
##gal
##mic
bacterial
mile
upward
1972
arameans
buffer
customize
ethical
fragments
placa
turf
urge
##nne
bugs
cultivated
eenmalig
litres
makeup
medina
##off
chalets
chris
evolving
fairy
rosary
xcomputer
##lis
bosch
catalogues
emotion
feeds
irregular
ri
##can
angles
carte
chic
interfaces
jonathan
mauritius
protocols
scholars
victor
weakness
##sky
garda
refurbished
throat
1977
das
dei
fossil
hoping
repertoire
##bes
##top
banquet
calais
cordoba
deer
eric
poster
sas
bushes
consecutive
danube
drums
exceptionally
abdominal
aquatic
armhole
finder
liguria
luckily
porch
sparkling
volt
youngest
##ave
##hotel
##ose
brava
hdmi
solarium
cache
contributing
harmonious
healed
provoke
seventy
tendency
##end
importantly
majestic
promoted
synthesis
tenth
##ama
##ates
##lar
amanprana
booth
coil
congratulations
ecosystem
indicating
municipalities
northeasterly
plague
pork
startup
turnover
baskets
bloom
israeli
justified
powerpoint
proves
vvv
wallet
128
benelux
closet
doubts
flares
intel
intervals
photographic
respects
useless
doll
formulated
invasion
neo
persistent
pity
##ids
capacities
contamination
enforcement
flush
incomplete
laptops
memorable
onion
suriname
adjustments
barn
blouse
grocery
shake
zinc
##most
##ological
0031
15°c
avoiding
entrepreneurs
gaining
motto
retreat
##sia
commandment
krk
portraits
royale
fancy
im
##hood
advertisement
companions
pointing
stimulating
twentieth
1973
baptist
cabinets
curtain
disciplines
lonely
sentences
utilize
vera
educated
generates
lawyers
noisy
obtaining
pneumatic
savior
slaves
tyre
dedication
fried
kits
obligatory
pursue
rafting
assortment
calories
damaging
downhill
nodes
kw
exploration
gnu
inviting
journalists
pearls
##25
##kes
awaits
clever
prevented
specializing
waterfalls
xml
##del
##graphic
##meter
mathematical
peer
steve
variants
##ude
appealing
conclusions
launches
pads
posting
projection
serbia
titanium
##tar
balloon
barrel
capitalism
craps
goats
guards
inferior
performs
revision
specialize
universes
versus
waterfall
withdraw
bolivia
isolation
mattress
upstairs
wound
##ru
archipelago
dietary
nazi
ontario
straps
trunk
##fully
bergen
milky
publicly
dock
goat
rc
cope
plasma
##gb
boiling
cocoa
highlands
incidents
jurisdiction
marseille
pi
rooted
searchlight
tribute
vedic
virtue
##45
##aries
##ye
corps
crowded
currents
jewel
licenses
abdomen
quilt
##bre
cage
dozen
grasp
invested
pale
petersburg
teens
arezzo
bite
enriched
pilgrimage
##wald
cooperative
penguins
pornstar
publicity
ribbon
##ika
attending
coats
facesitting
illumination
palau
philippe
picking
populations
tyres
dhabi
equality
goose
legitimate
lg
pronounced
repeatedly
stimulates
stocks
thumb
validity
##bridge
divers
highlighted
orthodox
spotted
consulted
hardened
reminds
##stone
bruges
timber
##tus
affecting
brochures
globally
sporty
beige
caring
hikes
taxis
electromagnetic
jewels
oneness
pp
socio
uniglobe
##kg
candy
indispensable
maya
rods
sicilia
windsurfing
attachments
favorable
invoke
sponsors
tops
apples
harsh
launching
madagascar
rigid
sir
##mas
##ule
eighth
immobiliere
investing
panic
passeig
rainy
veneto
##mine
##ric
##tions
##tto
##ved
musician
talented
##17
##bin
answering
atom
conception
corridor
fertile
violin
wells
advisable
beaded
emerged
limousin
mice
microphone
odd
trio
##inated
##kin
##nts
boquete
continents
invention
void
##sk
astra
comic
dessert
karl
tomato
vertically
wages
##gas
delayed
disabilities
europeans
johanna
ordination
prostate
tease
verification
##sson
enhances
expo
gram
instances
kitchens
validation
##fort
1976
edited
ft
masks
okay
retailers
steal
##ein
##iano
blanca
linking
conservatory
grains
insufficient
jul
peel
predict
screening
volcanic
##ari
allowance
bean
bentley
construct
cubits
dosage
endurance
latvia
mint
proprietary
si
spine
urgent
##iers
backing
builders
constellation
counsel
dalmatia
expressly
identifying
knees
northwest
sinned
bent
exhibits
salmon
versa
##cus
##eo
001
consistently
erected
impacts
inherent
ornaments
outdated
stables
beverage
bra
crimea
modelling
neighbours
raises
romance
soldier
tale
##ibility
13°c
acceleration
como
francois
frost
glacier
lacking
legends
parcel
playstation
reigned
strengthened
##atic
ageing
ponds
prey
representations
securely
314741
arrest
flamenco
megatube
mmi
deemed
employer
inaccessible
lions
pizzeria
sooner
spinning
##gh
##master
1800
advisory
atoms
logging
mad
projector
strongest
##az
##fi
botanical
enzymes
friction
glow
stretches
surrender
abba
mpeg
privilege
rectangle
severely
annex
asturias
bays
evaluated
gabriel
heel
immigration
quran
rollers
toll
##ei
##ele
##like
##rin
##tti
1968
brahma
dioxide
entrepreneur
node
pigs
spontaneous
1969
ann
kiss
mainland
muscular
packs
permissions
seine
uci
alerts
blank
dj
rebuilt
scroll
successor
suicide
##away
##zes
beg
choir
explanations
laugh
psalm
verb
##play
##tre
nut
##inate
##mus
##sburg
240
beef
coordinates
copying
crimes
libertad
uganda
##18
##rio
indiana
paraguay
pubs
teenagers
territories
##lie
badly
bi
cad
coldwell
considers
evolve
infinity
paddling
qatar
rosa
visions
##sion
brushes
campingsonline
casas
complimentary
logged
preaching
shutters
stakeholders
stern
vocational
##for
accelerate
alcoholic
amplifier
cliff
dots
hairs
hrs
lorraine
programmer
refresh
tide
aviation
founding
geometric
paz
crying
discretion
grief
missionary
prototype
quebec
statues
allergy
clearing
clutch
deserves
halfway
interpreted
itm
niche
overhead
sage
stepmom
##nk
concentrations
remedies
snake
transmit
worldlingo
##ened
contenta
gelderland
hockey
mortgage
philosophical
quicker
spinal
##21
##zation
disappointed
ensuite
hoorn
retention
tog
ham
optimization
remembrance
remotely
worldcat
##mers
##orn
bulbs
composite
defines
foster
henk
pentecost
preach
slippers
tibet
##hes
accord
acne
incorporate
insulated
rar
vinyl
wage
##see
##ub
bernard
classics
confirming
dangers
ji
loader
medal
notion
shorts
##ake
##ways
employers
relevance
scenic
stocking
achievements
gearbox
htc
kettler
mas
pharmacy
rambla
##03
##tec
arctic
diagrams
feared
neighbour
preceding
ranks
spirituality
washer
wishing
##itz
boobs
earnings
helmet
kindness
postal
##chen
##els
##lu
brave
lasted
nv
philip
satin
surprisingly
tuning
##aro
##oe
115
antibiotics
broader
itinera
massages
barcode
dad
magnesium
oceans
odour
technicians
warmer
wished
actor
await
bracelets
celebrating
continuation
correspond
priorities
shores
spiritually
worried
yea
burst
hammer
mechanics
milling
nineteenth
robots
smoked
##more
##sel
fellowship
flee
hung
proclaimed
roofs
##kel
30th
blame
bucket
fiscal
governmental
handbooks
hardness
saddle
subsidiary
upornia
##vin
amazed
beaten
bulb
canals
decorate
disco
practicing
responsive
sealing
touring
##ify
complications
gt
loops
mortals
oregon
rewarded
outcomes
renault
render
starter
whale
attributed
beware
indoors
nonetheless
purification
stranger
ultrasound
##mos
##oy
duplex
hatred
luc
marcel
solvent
uploaded
wires
##jes
guns
occupy
skating
tiled
tim
zeeland
##ade
##ax
blarcom
hamilton
infant
litre
openly
unlikely
##lation
##via
characterised
freshly
garonne
hampshire
javascript
melt
neighbor
painters
subjected
termination
##ph
##yo
earliest
girona
quartet
sixty
##ering
bake
boating
confronted
imposing
institutes
pr
temptation
tire
transmitter
hired
incense
tonight
##pro
ash
awake
cairo
herzegovina
recall
evoke
knee
patron
stretching
yahoo
entertaining
vitiligo
bid
dirk
e20
glucose
marbella
mike
nets
qualify
timely
zondag
##ees
enlightened
nickel
threatening
borne
flashlight
funded
praha
rotate
schedules
slept
supervisory
tennessee
##dra
1974
abs
amber
bolt
cesar
cradle
ethics
fortified
perfume
photographed
wounded
boundary
lobster
loses
mathematics
meaningful
pallet
possesses
relay
simultaneous
substrate
1920
booklet
breaker
cutter
minority
refugee
skiers
##ces
##ij
##plein
##ques
1930
complementary
digestive
encod
footwear
intrigued
organising
philosopher
rebellion
shelves
wiper
##har
ballet
tin
torre
vector
warehouses
##lic
dosing
tijdschrift
timeless
##hop
##los
bomb
bsod
conquered
margin
mastercard
reminder
rendering
schemes
tcp
##its
enhancing
holm
li
mate
rene
unpleasant
arises
boiler
indications
patrick
realities
shots
shrubs
sided
sovereign
##bal
asylum
dignity
handful
investigations
thesis
wilhelm
##feld
ambition
auvergne
berries
competence
sailors
##ched
##ght
##instantbooking
##ops
anybody
berg
duck
liquids
readily
210
backgrounds
climbs
colonies
consciously
nominated
##ail
addiction
beverages
nac
occasional
optimally
protector
reforms
resolved
sam
sensual
seoul
sleeved
surprises
symphony
tiling
traveller
deltaweb
descendants
disability
duplicate
encouraging
illnesses
pier
tends
typing
vila
folks
guanacaste
rinse
slavery
vendre
##sp
chariot
folds
mercure
salesforce
skies
stimulation
tackle
##ink
##lock
landed
pastry
sapphire
##19
##jk
ascending
barceloneta
donated
informatie
penguin
ugly
valued
wand
##ado
##ulation
##vel
bee
engraved
extensively
graduate
intersection
outputs
surveys
usable
##cast
##haus
alice
beoordelingen
cusco
emilia
hawaii
intestinal
notifications
onions
rib
rituals
tract
##ima
accumulated
explicit
loungers
misery
praised
sponsored
womb
cooler
dashboard
editorial
erik
interval
kleinanzeigen
seo
##een
abonnement
champions
commissioner
corsica
hazardous
meta
pastoral
timer
##urg
bernina
corporations
explaining
exports
hereafter
informative
macro
resume
unified
##hon
altered
bore
coatings
coupling
exercising
interiors
marne
pickup
recensies
##lli
##van
chronograph
deliveries
eager
esther
hdzog
lightly
montreal
posture
rabbit
scent
threads
##lly
alien
gladly
loft
marvellous
perspectives
submission
##pin
##uro
filtering
flavors
lust
manifested
persian
annuncio
bat
discounted
gratuites
households
toolbar
##ace
##outs
dart
estimates
greet
hull
inputs
montana
montenegro
offshore
plumbing
resize
sellers
##ale
##lands
aachen
establishments
fireworks
mc
meningen
myth
roboform
souvenir
upholstery
##air
##jn
enlarged
gentiles
misc
strangers
traveled
##dor
acted
bavaria
boobless
darts
lonsdale
##makers
##ncy
banana
cleared
governed
insured
nou
slain
soy
stormy
wounds
##ders
##py
informal
roundabout
themed
##eta
##ische
bearings
gp
hedge
pantyhose
parked
qts
shaded
survivors
twins
uncertainty
##cion
135
almond
alt
differs
essentials
perish
portals
santander
singers
tranquil
##base
102
1967
av
campground
observatory
proposes
tights
##22
ambassador
bricks
burns
crossdresser
electr
fighter
greeks
toro
##worth
4000
favourites
hunter
jew
johnson
##44
##code
##ill
armies
arrivals
barley
cassette
kite
kyoto
retained
swelling
unclear
campingplace
commits
consistency
customizable
documented
dresses
heavier
maarten
matcha
nigeria
notably
sp
warfare
whirlpool
abode
bending
egyptians
iowa
naughty
packet
personalised
sk
unlock
##hausen
attained
authenticity
cookers
m3
maryland
oxford
polo
searched
writings
##craft
##yl
broadband
cortes
huis
radiant
sarah
screensaver
suspect
swift
##gt
##non
##pel
550
beforehand
civilizations
enclosures
mazda
nursery
olives
straw
weigh
wrinkles
##une
ace
campings
centimeters
conquer
describing
fry
murcia
soluble
tapes
touristic
##gue
bracket
configurations
diana
dramatically
goodbye
guia
kuiper
qualification
ruin
##late
boyfriend
deliberately
doubles
moulding
pottery
sickness
surgeon
understands
##ase
##borg
alternate
behave
bodied
calibration
canyon
elementary
picasso
cafetiere
ceremonies
emerge
exploit
maximize
planners
playful
scarf
starch
touches
##gram
aa
amidst
atlas
cruises
forgot
mysteries
probe
sailboat
trojanspy
utterly
vendors
waited
##bing
##rf
##tory
ascend
assign
boring
erection
firstly
jackson
jumped
redemption
snapshot
##days
##ple
##try
bodily
coaches
costumes
depicted
divorce
electro
groves
lateral
pose
unprecedented
##bert
defining
dossier
palestinian
receptor
restoring
sandwich
##nica
190
gemstone
outlets
##ching
bubbles
condom
continuity
inexpensive
journeys
organizes
##ack
advisor
diagnosed
favourable
fourteen
readings
scottish
wrist
##06
##ug
bleeding
conviction
exclusion
implant
lorenzo
nicolas
pont
terrorism
##gel
boxing
canopy
catherine
hoses
kindly
pula
settlements
slices
transcendental
##ages
##fied
##lus
##tle
accused
claus
confirms
enhancer
impulse
naples
probability
rhinestone
rowing
ssh
benz
blown
immersed
palazzo
performers
slate
suction
toe
bis
exceptions
finite
fool
iconic
judicial
occupies
raft
renew
sodium
##ain
##oke
certainty
disputes
eyck
kaspersky
payable
strengths
1965
accelerated
assyrians
celebrities
fragile
ignored
immigrants
malaria
stud
throwing
vinegar
weren
worries
##05
##war
##ws
flew
plains
salary
##stein
##tin
104
beginner
demons
dwelt
finances
itinerary
lyrics
mailbox
practiced
spyware
vines
ward
wealthy
wim
1971
delays
er
fes
fibers
humid
keylogger
listened
mapping
marry
mosquito
proceeds
socialism
withstand
##osis
##win
battles
bees
checkout
coloring
finely
pe
recycle
tales
##uous
acres
breakdown
butterflies
footprint
woe
youngsters
##kers
ambient
announcements
possessed
##world
annoying
blogs
blues
divinity
inflation
puffy
##ban
abide
cigarette
collaborate
comprising
compulsory
hostal
noticeable
polyurethane
recipient
tongues
upgrades
##gan
accumulation
analysts
equity
isla
kittens
larvae
poison
##rc
allied
ascended
boston
colleague
deepest
enchanting
gaia
jpg
systematic
##ction
##oli
##uw
##wijk
antilles
blanc
coca
db
floppy
obesity
owns
passover
rewarding
washbasin
womens
##cio
##ston
antigua
eliminated
equilibrium
greenery
quotation
troubled
vitality
##ord
##pot
##stic
##uch
guiding
mali
occurrence
progression
theology
therapies
##city
##polis
anointed
bourgeoisie
bulgarian
campo
foolish
nazareth
ninth
rational
wales
##day
##olo
106
abruzzo
captive
celsius
exalted
exodus
fisheries
functionalities
gem
improper
poems
reproductive
seville
workflow
##hz
applicants
chooses
deco
exchanged
metabolic
mushroom
puglia
reflective
releasing
securities
unauthorized
##als
123
ashamed
bolts
cicero
clause
demanded
formulas
koh
nicaragua
novotel
pleasing
undertake
##31
##jet
##plate
##ther
collects
conductor
dar
gong
lombardia
mess
##illo
bocas
cooled
galilee
graph
nozzle
nuvid
shareholders
southeasterly
vase
##bling
animations
atrium
barrels
competing
induced
kinshasa
spreads
stefan
suggestion
##din
accidental
appliance
caution
dissolved
hygienic
leds
rails
simplified
suspected
trash
wsop
xl
##ani
##ents
affiliates
allocated
cc
collaborative
elaborate
fixes
fulfilling
multiply
poppy
sc
screaming
theo
zmovs
##sta
##ste
2500
amp
circus
fm
henri
rpm
smoker
sonja
synchronization
vine
##nan
ardeche
ensured
monastir
tastefully
trainers
vacations
##mes
invoices
neat
tu
wander
arthur
cosmos
defect
grandfather
kms
prognosis
prophecies
skipper
vague
##ination
1914
cooperate
crest
donkervoort
seemingly
spicy
##row
bahia
breeders
con
damp
hilly
ideals
jos
regulate
stationary
substantially
aerial
cauca
disturbed
filtration
hikers
monofone
smokers
soothing
tilburg
##max
broadcasting
costly
expects
guitarist
mo
ping
reflector
retired
algorithm
freed
paseo
sunbathing
##86
##ean
fluorescent
joyful
merged
priesthood
skull
wink
zion
##04
##enberg
acknowledged
analytical
brotherhood
dune
obama
agriturismo
employ
gmail
hid
organises
trumpet
visually
##ski
##ues
centro
chopped
grades
hoped
interfere
merchant
montjuic
northeast
pers
saffron
##bu
##hole
1918
ashes
condemned
injured
kentucky
pigment
polypropylene
proceedings
processors
recovering
##dies
24th
backwards
catholics
devotees
distortion
fisting
flute
motives
optionally
organism
resonance
undertaken
upgraded
winery
##rad
analog
cartridge
deadly
doc
ethiopia
ing
manipulation
mezzanine
pharmaceuticals
sinful
terme
##dog
##ency
alabama
judging
neighboring
pastor
sardegna
spoil
##ml
##tics
centered
dame
equipments
fraction
gratuiti
pioneer
clearance
generators
pause
prohibition
usr
vishnu
##100
##ered
##lier
##logical
elephants
judas
meiji
poem
##core
defeated
encourages
erp
petition
pie
rip
shortage
visualize
witnessed
adjusting
bladder
doses
explored
gears
innsbruck
phen375
revenues
vanity
##rm
bills
damascus
discoveries
extractor
fermentation
gen
horns
mentions
nick
pod
queue
reasoning
bred
gems
gr
parquet
pic
pixwords
regulator
roasted
singles
sitges
solids
trap
##ez
##nis
12°c
boiled
gradual
mines
rendered
supporters
##dal
##mb
##nberg
##osa
320
coordinator
elijah
enzyme
gloss
oslo
prolonged
psd
shadows
symposium
traction
wooded
##ela
carmen
cult
deputy
donate
finals
hint
relieve
shoots
slower
stepped
strikes
1963
cocktails
correspondence
elliptical
fired
grease
leopard
mentally
newsletters
partnerships
privato
wrought
##ils
##oa
##oi
##pan
103
assignments
athlete
destined
exceeds
graves
inherited
marx
wholesaler
256
alsace
andreas
bachelor
banners
cursed
festivities
invalid
liverpool
lords
obstacle
persecution
racks
seams
trauma
violation
wma
worthwhile
xls
##ars
##has
exported
liberated
outward
breakthrough
captivity
convincing
facilitates
pcb
peruvian
polishing
prediction
slider
teak
tracing
venetian
voyage
weakened
worms
wow
ar
chun
coincidence
comprehend
electronically
fuels
gigantic
inclined
inflatable
lazio
lighthouse
prehistoric
surplus
tidal
cedar
crucified
deaths
deleting
fluids
footsteps
ions
lisa
mp4
pantry
reflecting
reunion
silicon
taylor
##ijn
##lines
##tine
##xi
additions
collision
fe
gilead
jail
porta
shifts
surinam
turks
##gers
##host
believer
braun
compile
corridors
expecting
gotten
mausoleum
thyself
##ures
1948
convent
counterpart
eifel
manor
plaster
query
restart
salads
shepherds
simpler
##ices
##shi
##vas
280
bang
boutiques
limiting
succession
tuna
basque
canoeing
chestnut
critics
fortunate
garbage
imitation
quantitative
reed
thirst
##pad
billing
billions
comparing
conservative
dolls
forex
forgiven
hemp
preached
showroom
tri
##ila
##metric
differential
giovanni
governing
secondly
slovak
##gio
##ington
centralized
conducting
contractor
despair
friesland
ppp
sofia
vile
ware
16°c
atm
carillon
dallas
implications
kim
notebook
verona
webshop
##isch
bobcat
crushed
epoxy
flavours
haarlem
livestock
modeling
onset
pebble
sixteen
steak
tarn
terminate
##ati
##dia
##hn
aiming
editors
guardians
idols
mammals
neighbors
##berry
##therapy
1600
ali
banned
calle
hermitage
journals
lacquer
palmas
professors
sorted
suburbs
thematic
weighed
##gle
cnb
communicated
inbox
iscsi
tarragona
torn
viking
##ae
gigabit
hectare
pilgrims
potency
qualitative
sages
utah
##side
1917
c2090
detectors
glasgow
goedkope
integrating
jib
legislative
liberal
relates
1938
adventurous
beasts
colombian
consortium
ephesians
geographic
joins
nato
restrict
roger
scientifically
synagogue
costume
duke
falun
paulo
skins
trough
##tter
802
cartridges
criminals
digestion
purified
rests
specializes
##51
##gne
albania
coordinate
georges
honored
humanitarian
linguistic
postcards
redirect
airplane
americas
bas
famine
gent
responding
samaria
##ished
##wall
canoe
derivatives
disappears
edmonton
greetings
sl
spider
terrier
toronto
##acy
contractual
exclude
helpers
mains
mainstream
munster
premature
revealing
waist
wastewater
zadar
##onic
andorra
citrus
confess
flops
projected
raster
statutes
##cd
##ides
##werk
authorised
crocheting
fires
joab
openings
2019
assumption
budgets
crowds
deadline
demonstrations
expose
formations
fulfillment
instructor
kingdoms
moab
stalls
xbabe
##izes
buffets
chronicles
dvds
notable
trotsky
announces
anzeigen
baker
helicopter
humor
indians
minus
nude
supplementary
telescopic
trump
##genic
##nik
bunker
bustling
employs
fatal
hierarchy
lambs
lowering
mi
proudly
seawater
veil
vis
##fies
##laan
bowls
pest
transforming
unite
##28
##ef
##fy
##min
##ska
braking
clearer
exhausted
hitting
inverter
lithium
portions
securing
seized
shave
sql
tuned
##23
##27
##ssen
1966
2d
adhesives
anticipated
atomic
celebrates
comprised
curator
filtered
oklahoma
puno
shifting
sprinkle
syntax
toxins
##ero
##hin
##hing
##rol
##veld
attitudes
creams
internationaal
outfit
pharisees
rocket
schiphol
scott
sovereignty
tuition
112
compliant
hadn
penthouse
puzzles
vietnamese
##case
buds
dike
ecc
forecasts
insurances
merchants
rooftop
unbelievers
##cat
##eren
brackets
deburen
equation
jointly
laminate
limestone
lymphoma
predominantly
signposted
stressed
upgrading
vion
wonderfully
##horn
algorithms
assessments
attempted
cereals
curiosity
elder
http
metallurgical
veins
venezia
##ib
108
119
ardenne
arequipa
corrected
escaped
lettertype
mozart
outgoing
r2
tavern
treadmill
upset
wipe
##cos
##oth
addressing
cheerleader
claiming
hamlet
hertogenbosch
joke
kansas
nt
stead
tractors
##iel
##wing
adjuster
chios
cowgirl
heijmans
jeep
julian
prospect
rugby
sevilla
snowboard
wording
##fo
##illa
##ios
calf
cnbp
converts
ecology
galaxies
godly
intercom
leak
oxidation
poorly
reproduce
##boro
##logists
airsuspension
assemble
curriculum
expands
happily
inclusion
indirectly
landmark
mixer
prefecture
problematic
repentance
telescope
thong
weird
##hout
1953
benches
disasters
lavazza
nespresso
para
pianist
pursuit
vendor
##hu
darker
jade
melting
safeguard
wat
##35
##lay
##mond
##san
ambience
assyrian
clusters
confidentiality
louise
moist
monk
recognizable
sirius
toulouse
vega
##hos
##ises
##ography
asthma
chaotic
coordinated
magnitude
manufactures
mattresses
planner
poultry
practitioners
reside
segway
sous
stupid
##lated
chocolates
jpeg
mandala
mendoza
pixel
professionally
rotor
struggling
tempo
undergo
##cies
23rd
erase
failing
incorporating
maine
moselle
observing
possessions
pound
socially
tibetan
##99
##iation
##ove
abortion
cuban
cured
earning
electron
ephraim
grandmother
interrupted
justify
slew
striving
turin
welded
##eck
##ige
cameroon
columbus
excuse
mio
sang
seldom
##burn
##tje
controversial
krafft
moss
notre
secluded
token
transports
##ath
delegation
eurotrotter
guitars
handicap
interventions
irritation
manuel
piemonte
restriction
strapon
troubles
vicente
##db
##ern
##logist
affection
ambitions
failures
faults
intuition
sheer
sockets
##53
basel
bitdefender
impose
physicians
supplying
##elle
analogue
astronomers
bodybuilding
etsy
horrible
macedonia
mast
proxy
##55
affair
fashioned
hurry
knight
populated
shortest
steinel
stephen
ville
accent
aunt
bal
deficiency
definitive
engineered
flyer
fruity
pillow
regret
rolex
storms
validated
weighs
chord
debit
decay
engcon
fishes
meer
revelations
romagna
sheltered
unions
##api
##eau
##hard
##mark
1958
260
commented
disciple
hey
sponge
strains
supermagnete
##mel
##zar
analysed
carlo
cognitive
disadvantage
fleece
horizontally
louisiana
nationality
postscript
prone
sow
verbs
##fen
##gar
##ographic
additives
agrees
concludes
confusing
cubic
dull
imports
lido
penetrate
saturated
##41
3m
convey
cubes
ecofys
eva
farewell
guru
illustrate
infectious
membranes
norm
offensive
pressures
proportions
sleek
straightforward
teenager
##42
##49
##beek
##hen
##lio
##rates
##rial
aligned
attribute
bezel
dafa
dissolve
elimination
freeze
realisation
souvenirs
terrorist
trans
##making
communicating
gare
instrumental
lettertypes
ornamental
ozone
radicals
sibenik
smote
tango
threw
tokens
weaving
whosoever
##33
##dt
##iac
daddy
eliminating
entrusted
feathers
horror
jo
narrative
nk
recommends
wiring
##ture
1933
absent
bordered
engaging
extras
interim
internally
localization
mixtures
organisational
privati
prospects
rebuild
remainder
showcase
solitary
strengthens
turtles
twisted
##43
##eus
109
1964
airborne
collectively
judgments
mats
nerves
procession
vm
##museum
20°c
argue
discussing
facades
freshness
jules
sunflower
timothy
turing
turtle
##ologist
##ured
100m
28th
assumes
biodegradable
daytime
imaginary
kostenlos
lava
programmers
punished
tempted
winters
##48
##nte
alajuela
beats
cushions
departures
greeting
indigo
pilots
potassium
slaughter
sorting
allergies
bidet
cleaners
coalition
decreases
dianabol
economically
embraced
encounters
glued
motif
neptune
pharmacies
shutdown
##85
##ement
##press
##var
22nd
audiovisual
bikers
dyed
herman
ivory
optimised
palms
peculiar
proclaim
pumping
rats
receptors
tanzania
utilized
##pass
backs
calendars
conform
flakes
houston
meuse
mylust
residual
salsa
slovenian
spanking
vulnerability
##ais
##uf
adolescents
antioxidant
atlantis
busty
cancellations
carbohydrates
drank
internationale
lac
morontia
sampling
spoon
tyrrhenian
ubuntu
vpn
##form
26th
apt
aux
ether
exceeded
glorified
merry
patents
ripe
seam
stating
svb
wondered
##with
1956
1961
anointing
auschwitz
authorization
avant
backdrop
baja
bart
bud
ep
exposition
genius
lily
linda
norms
purse
quad
translating
168
chora
closes
emerald
gland
gorge
grilled
iot
iris
kidneys
mississippi
outline
polyethylene
severity
sneakers
zodiac
1962
29th
accents
caesar
cleanse
contaminated
correctness
dominates
luxe
porte
pyramids
rival
schunck
stichting
sweater
viptube
##iva
##oni
##ulated
##uri
1954
administered
affiliated
ankara
auctions
bh
comparative
erased
ffm
harvesting
krakow
longing
reconciliation
rust
stained
carl
endure
fascinated
fills
greed
helsinki
lately
maturity
mold
packets
regeneration
##vc
1959
1970s
640
belize
chin
cigarettes
gite
residues
rm
scooters
unjust
winnings
##aw
##ew
##rating
1936
5km
cia
fiumicino
healthier
multilingue
tearoom
tumors
##logic
1947
assuming
axles
cents
constitutional
crm
deutschland
expectation
fierce
halloween
majesty
notices
organizer
orlando
santos
swimsuit
zen
##ament
##gia
##ically
##nde
##ulating
branding
dalmatian
dancer
deceased
downstairs
emergence
fasting
glimpse
gorges
intercourse
moonlight
namibia
nokia
pete
registers
thyroid
unchanged
untouched
widow
##dam
##ju
##rch
##tree
appearances
competitiveness
complain
contours
crack
discomfort
episodes
lowered
permaculture
sung
tan
wagon
##boat
##mail
##ont
armor
bark
bnp
bookmark
bremen
bruno
fda
hapimag
induction
landlord
originates
purchaser
saturdays
stalin
stuttgart
syrup
walter
wired
##fit
##ifier
##itude
##izer
dharma
electrons
glen
historically
incurred
jar
mistaken
parliamentary
queries
roomskitchen
slogan
thirteen
virtues
##power
##sch
climbed
dig
holocaust
hooker
immortal
infinitely
joe
killer
pursued
triumph
advances
autonomy
blast
cavity
cork
franz
headlines
hydro
presses
remembering
stiff
uka
##boards
##group
##guard
##tant
angelic
assessed
backward
beetle
boast
coding
decorating
delights
diploma
greenland
intends
maldonado
nikon
nm
thunder
vancouver
##52
##rat
arnold
cardinal
compensate
customised
dictatorship
frans
juices
nelson
nestled
repairing
routing
sinner
trek
uncertain
##95
##bon
bologna
byzantine
connecticut
doubled
emc
florist
fragrant
insect
petroleum
wandering
applicant
backpack
courtesy
helper
inca
marino
razor
recovers
sands
secretly
snap
##drive
##uan
111
bombs
caffe
chase
educacion
guangzhou
ignorant
luxemburg
math
mura
potent
slice
taller
##how
andrea
antioxidants
bliss
cookware
ctrl
disclose
economies
fights
folklore
genus
podium
prejudice
russell
##pp
27th
belarus
dentistry
expresses
gdp
historian
lavender
mentioning
naval
phentermine
sexually
##eer
##nation
##sar
ecosystems
excavators
garmin
huts
interruption
preserving
rhodes
uncover
##eke
##ked
##nus
ap
casing
digits
meanings
paribas
remnant
stamina
supposedly
tenant
##ovo
councils
demon
dentist
dispenser
equestrian
financed
hereby
inevitably
inks
momentum
petit
scalp
snowboards
spice
tactics
thrust
transporting
##lers
##ret
##sc
##ult
1955
cans
formulation
inmobiliarios
positively
shawl
sustained
triggered
zandvoort
##zy
academies
arches
attendance
burial
caliber
cardiac
conventions
emphasize
haag
swallowing
wondrous
##piece
##uer
adorned
colouring
dev
influential
kiev
kyriad
md
miscellaneous
palermo
petite
treats
##ep
##gem
##hand
##proof
175
advertise
armenian
assorted
crowns
indaver
investor
metropolis
motive
mysql
outs
ranked
ransomware
romanesque
splash
supper
##ev
##sche
31st
cnc
compartments
monasteries
orchard
palate
privileges
surrounds
tee
thule
truncated
warns
##ifying
##zone
astray
clocks
considerations
cracks
definitions
dit
explosive
forwarding
inequality
jong
leonardo
mastery
reinforce
royce
viewpoint
worldly
yang
##free
##iss
cinnamon
donald
flop
groundwater
informations
instructed
jelly
lotion
mechelen
residences
shines
su
vault
vivid
walloon
workouts
##cating
##cation
##dc
##hy
##iana
##oning
adjoining
anton
attempting
dressage
ethereum
feasibility
fin
lazy
leopold
pros
rub
sarajevo
seamonkey
tasted
##26
##75
##tech
bangle
desperate
feasible
palestine
ronald
ropes
sailboats
unused
##tia
##yan
atonement
biography
bristol
contour
denial
drift
flex
heathen
honesty
ladyboy
masterpiece
metropolitan
optimisation
paragliding
prisoner
robin
seattle
serbian
undesirable
unseen
vocal
##page
##uit
auxiliary
balloons
buchot
dysfunction
ecliptic
est
fujifilm
gard
harley
inscription
noorderlicht
notwithstanding
predecessor
sojourn
steadily
yemen
##gated
deposited
leber
motifs
radiator
rafael
respecting
sticky
strasbourg
swear
thief
williams
##bc
a6
alarms
allocation
delicacies
deployed
desolate
dinners
diver
effortlessly
este
hem
jumps
knights
masculine
ornament
pirates
punch
regain
terraced
##bra
11°c
144
alphabet
andalucaa
appointments
balances
beating
chess
designation
fulfilment
hassle
hezekiah
initiation
kilometre
learnt
sandwiches
turnkey
wardrobes
xbox
##nch
amarillascalifornia
chimney
clans
consensus
geological
homosexual
imagined
installer
jordaan
landscaping
mocaic
motel
playgrounds
potter
publishes
tick
tryboobs
##eu
##lde
##rine
clone
dentists
descending
disclaimer
pavement
salts
spectacle
sweatshirt
unconscious
versailles
yields
##lk
bangladesh
banknotes
elect
glossy
incorporates
suspicious
##uation
##wo
brigade
ceased
fade
rightly
savoie
shrub
staged
yin
bois
deaf
hvar
mustard
myanmar
resembles
trolley
vomiting
##aa
##ural
##watch
000m2
10°c
advent
bumper
digit
envelope
identifiable
joystick
revenge
riem
shooter
statutory
swarovski
testify
toshiba
verbal
##lies
##tch
austerity
destroying
maestro
nickname
refrigeration
thicker
vr
##bles
##nc
crystalline
decreasing
distributions
dreamstime
eliminates
formally
lego
peripheral
politically
rainforest
selective
spell
suffers
##cam
##dle
##graph
##lles
1949
alley
bestowal
guarded
originating
panda
practitioner
signage
wickedness
##fire
##nds
airways
conformity
franklin
garde
howto
lourdes
mai
moaning
respectful
understandable
##ime
##rable
bios
bonding
bytes
caffeine
cleanliness
dreamed
fungi
melchizedek
merger
neglected
nieuwe
oath
oct
pristine
professionalism
railroad
repetition
simplest
tribulation
vw
##anda
9001
charlotte
glands
gum
hiring
meats
pu
reliably
##du
##ony
##web
absorbing
admired
armolia
azure
brushed
contacting
similarities
strawberry
sudan
sugars
terrorists
trenbolone
##mmer
##test
backsplash
dat
debts
deceived
edible
fabricated
framed
hendrik
identifies
instructors
knock
ovens
stains
##ester
1952
ammonia
brutal
cruel
deed
graduates
luka
nazca
parental
rwanda
sweets
terminology
volcanoes
##lings
##ode
##tour
117
6000
cambridge
cove
detects
earthquakes
initiate
multifunctional
nutrient
penzion
sesame
##eon
##ett
##inating
##ray
##rest
accustomed
andaluca
biscuits
charente
dash
fender
masterpieces
oman
refunded
titled
uneven
unfortunate
bella
bored
cultivate
humour
illuminati
knots
madonna
mortar
motorboats
motorola
oscar
rejection
serpent
spectators
symmetric
tendencies
tony
unstable
##iating
##name
##oma
abc
bethlehem
bureaucracy
cher
envy
flap
founders
ghana
guilt
jaw
melodies
molecule
rachel
runner
sailed
sinks
stickers
stuffed
surge
temporal
torture
weaknesses
##66
##rator
##ulin
buoy
clarify
fasten
ica
ide
med
paving
pleasures
sensory
spelling
vibrational
##71
##sse
buttocks
compressor
conquest
furnace
herault
lubrication
mandate
parasites
recipients
reuse
seamlessly
subsidiaries
tangible
tot
uniforms
utilizing
assisi
embroidered
gfdl
lanes
lille
mistress
sails
stench
stony
therapist
vocation
##37
blends
descended
fetishshrine
fighters
importers
numerical
sauces
slut
sour
##000
##fc
baseball
cares
elba
gerard
internacional
itunes
lays
pains
polyfone
porsche
pouring
singular
throughput
tunnels
##fication
1957
abandon
algeria
alleged
breadth
confined
deserved
int
liberia
migrants
ngo
nucleus
packaged
pamplona
prepares
rage
retains
shady
sixties
supernatural
telecom
versatility
vol
willingness
107
aboard
bloody
dearest
elevators
hackers
hart
hindu
joan
muller
pulp
scsi
seventeenth
successive
voters
zijn
##72
##print
##vable
adorable
coasts
comedy
dhl
financially
haut
labs
laminated
pisco
pluto
redeemed
spouse
widget
##54
##arm
##cap
amen
attracting
awaiting
declined
electrically
fences
psychologists
smiling
underway
v2
ya
##mis
##uma
acquiring
contacto
dropping
eighteenth
exo
growers
hardwood
ilo
pointer
ps4
spontaneously
stepping
##08
##fold
##ited
##lf
##ois
1929
almonds
bacon
ballast
brunstad
devolo
flames
hearken
irrespective
lighted
nouveau
referendum
resides
sanitation
sex3
sometime
sore
unconditional
viral
##ema
##sha
118
1946
270
arad
buffalo
headache
idle
incentives
indra
leipzig
morality
susceptible
tolerate
zipper
##gie
##tric
adware
airway
bari
ciampino
commercially
eurozone
importer
lawful
manifestations
nissan
pendants
scotia
stallion
standardized
##29
##haven
##mba
##nburg
adaptive
artery
branded
colleges
commentary
genoa
hormonal
humility
lend
marvelous
pending
pleasantly
que
sura
tm
trainings
upside
##cin
##fall
##plan
1a
cannes
deventer
expressive
mobiles
pirate
replaces
reptiles
shortcut
stain
stroom
swiftly
tolerated
##log
bundle
coco
groove
moldova
newton
nis
periodic
scissors
speciality
struggles
zambia
##enburg
##posed
##shire
##wear
17°c
backpacks
bavarian
boar
defective
harvested
heed
ideology
integrates
lagos
nausea
organizers
spraying
swan
trades
uniquely
##eld
##pies
##rent
1934
antoni
cabbage
completes
hilversum
novels
registrations
retaining
sanding
satisfying
sensible
simplify
timetable
velvet
##36
##ams
##center
##enne
aegean
anxious
astronomy
canaan
cbd
crude
dependence
ds
giants
homeland
immersion
instagram
jorge
libido
peasant
sustain
unloading
yoke
##position
adidas
arkansas
ascent
caddy
confession
crossroads
deciding
inability
inward
jones
locker
oppression
parker
sailer
scandinavian
serum
td
triangular
veer
warriors
##hore
1960s
blending
brian
cameron
cannabinoid
chincha
engraving
epic
isp
preceded
saloon
technician
##uded
##vic
##wan
antarctic
bonn
campania
crust
inappropriate
knives
laurent
minimalist
nobel
relies
wmv
##die
##illy
##uel
awaken
bains
crafted
cv
declares
felco
intestine
investigating
jim
mountainous
originate
pastures
pis
poses
qualifications
regulators
velocity
##47
##ades
##gus
##yle
1915
accommodates
bouquets
cosmopolitan
exams
injected
juliaca
kuwait
myths
poble
privately
rabbits
rat
scars
sid
vic
wore
25°c
850
choreographer
communism
debates
hides
manipulate
maple
margaret
ro
specifies
tense
##65
##kins
##vision
impress
landmarks
maltese
pakistani
shaking
upskirt
waterfront
##hal
##matic
##rey
alaska
appeals
belle
brewing
commitments
contrasts
flagship
gui
heaters
luna
milano
orleans
realizing
sober
suck
traded
urinary
##ssa
##uin
1937
2x
avenida
blender
dives
dost
drip
excavations
feminized
lanzarote
snorkeling
soils
specimen
taboo
##int
##lls
##oid
##sten
arcade
denis
discreet
faceted
harmless
headphones
laughing
orion
pastries
petals
pipeline
sophie
sosua
theological
thessaloniki
vermeer
##amo
##bt
##iere
##key
##ores
360°
antalya
apache
appetizer
b2b
captains
chords
equator
frog
geese
nautical
neatly
periodically
punish
resemble
sharply
zimbabwe
##cas
1559
aviv
bancos
encouragement
fetch
knoweth
malt
practise
sadness
sausage
shaved
subjective
tarma
tasteful
vmware
watts
##tones
24h
als
diy
executives
hyper
miraculous
norte
omaha
residing
secular
sha
##eration
##lift
ancients
assemblies
assists
hatch
holidayhomes
immaculate
incentive
macbook
miller
overwhelmed
refundable
shutter
##elen
##heid
##vers
##wise
axes
bahn
cousin
darwin
frying
humankind
lacks
pans
plage
pursuant
submitting
tutorials
##ash
##ond
##oux
archaeology
cabine
chickens
chronology
esteem
hints
liechtenstein
perfected
regulating
sublime
sucking
webpage
yeah
##jah
1928
abbreviation
acidity
avignon
brook
bukkake
catalyst
chang
digging
equals
gif
guell
labelling
macintosh
oysters
prospective
sandra
sensing
silhouette
strokes
thence
timeline
xxl
##82
##eco
##sco
##vis
1912
1935
420
accomodation
benidorm
blackberry
boosting
challenged
crowned
descends
disturbing
endowed
enhancements
greatness
havona
inaugurated
martina
needing
nonsense
nora
pag
polluted
roy
##asa
##cut
##lein
##tro
1890
ambiance
astrological
bohemian
explores
expressing
intriguing
maurice
mmf
moulin
newcastle
pups
seekers
tribal
yale
zee
##get
##keeper
192
archangel
cones
expat
ferrari
kevin
limbs
longitudinal
markings
pilate
pressurized
queens
reversed
serra
suitcases
unemployed
warrior
worshiped
##cards
##strasse
##uts
bother
canarias
celtic
css
flu
forestry
judgement
ko
lingual
literal
nurses
papua
runway
separating
stakes
tobago
trays
tricky
umbrellas
wellbeing
##color
##nova
##vy
adhere
beard
committees
congregations
corrective
dlan
ebook
fond
hemisphere
jaguar
kees
oppressed
orly
owing
sanskrit
scored
sofas
sounded
stevia
tragic
viable
##98
##eed
##su
##veen
1951
aesthetics
antarctica
asparagus
cheeses
claude
entrepreneurship
fragment
helmets
ho
jericho
merging
overlooks
precautions
programmable
racer
shew
signatures
soak
ter
vegan
vulnerabilities
##eg
##nta
##zzo
aggression
attentive
blooms
eucharist
fixtures
flooded
focal
gallo
iva
lewis
nano
parable
parasite
petra
rainfall
scheveningen
snowell
stool
unbeatable
widened
withdrawn
##lor
1921
alain
astonishing
bustle
consoles
degradation
incarnation
observer
opted
perpetual
rab
recurring
remodeling
swords
thankful
transforms
##bergen
##low
##onia
##set
##uck
1905
balaton
bb
brac
electrolux
franco
ghetto
haiti
morrow
multiplied
ore
prompted
readable
sadly
studs
##ares
##life
1923
adapters
albeit
allen
assyria
bco
brighter
cadiz
camel
dominion
handicapped
humorous
illustrates
latitude
metric
nay
paradigm
railways
remarkably
responds
t1
terrific
##34
##gent
##xx
aloe
arteries
burkina
internship
masonry
mecca
minecraft
pai
renee
shifted
washable
##cent
##dis
##isk
##lina
##rst
agli
argues
christopher
citizenship
devote
disadvantages
fernando
injustice
isa
kayak
nationals
nectar
optimise
rechargeable
recognizes
remnants
steven
wolfgang
yalta
##jon
114
aforementioned
argued
assisting
backside
brunswick
cartago
config
constraints
deutsche
douglas
ga
hated
immerse
ivan
janeiro
laps
mystical
subsidies
uruguay
##par
armenia
corniche
craftsmanship
devastating
downwards
eighty
emphasized
espana
implied
interviewed
leaseweb
likeness
lux
nfs
poetic
postcard
protestant
puy
scholar
sewage
##tad
amarillasbuenosaires
amid
chariots
coverings
cryptocurrencies
distorted
eighteen
essay
horoscope
murdered
pigeons
reap
replies
respondents
scratches
subscribers
supple
vendee
##09
##aria
1300
absalom
anchored
aragon
athletic
bowed
critic
deux
f1
handbag
honestly
juicy
metadata
pce
prophesy
reachable
reflections
solstice
strait
thoughtful
utter
##ali
##cco
##hill
aura
bowel
cabo
caterpillar
enamelled
essaouira
hz
infants
iranian
mashiach
nikwax
safest
scalable
tightly
##ast
##ats
##cious
antioquia
bizarre
cartoons
cited
crem
daisy
forehead
gaps
medals
mist
presidential
supplemented
translates
trophy
witch
yarns
##61
##ald
##rah
##rl
##stad
1850
alexandria
aliens
aws
blows
chemotherapy
filler
fullness
garcinia
keeper
networking4all
scania
sculptor
sketch
supervised
textures
toes
wp
##81
##92
##pas
activists
amarillascuba
aow
arburg
bo
bordering
capitals
cellars
concierge
cuenca
didst
disappointment
fares
flocks
gadgets
heap
herd
hips
inexperienced
machining
madness
occupancy
operative
routines
systemic
warner
webmaster
##markt
andy
desserts
dug
faso
hallway
hoop
mamut
messaging
oaks
paso
penance
##fix
##text
belo
brightly
entrances
epoch
gated
hardy
illustrator
lodgings
manhattan
norton
tc
toggle
##qm
attainment
bahrain
commodity
dividing
forte
gregorian
hostile
meditate
mentality
outsourcing
peasants
prefers
rf
unaware
undergoing
##lite
##rative
brahmins
cor
discourse
eml
etruscan
gagging
huancavelica
inherit
laos
mk
obstruction
qsync
seventies
sloping
softer
##96
##bet
##fying
1932
audiences
complexion
gesture
gracious
helena
intolerance
jasper
lago
levi
libya
misuse
nationwide
normandie
profitability
revolutions
spamfighter
traits
vinci
workbook
##eville
##jas
##lat
##stra
23°c
5mm
careers
chloride
criterium
downward
fred
hedges
jr
jubilee
leverage
lincoln
milestone
pollutants
shocked
vengeance
##77
##ieu
amarillasespana
atos
brahmin
bust
chanchamayo
conceptual
debris
eiffel
embodied
erosion
exploited
garter
lesbians
lovingly
missionaries
outreach
reddish
smells
tactical
walled
waterways
##46
##67
##erland
##rp
##sation
##ust
1910
1911
ahab
alas
alberta
authorisation
bourget
cane
cleansed
cloudless
comet
forcing
individuality
jn0
madison
manasseh
niger
perl
procurement
residency
sexuality
willemstad
willingly
##gging
##unt
1925
archiving
berry
butt
charlie
dye
elcometer
enamel
fruitful
ginseng
inmobiliario
journalism
q5
rents
sacrificed
shark
shemalez
transposh
##ison
##nder
##ost
advocate
aromas
asbestos
clan
dreaming
fl
forks
gimignano
knot
promolux
pronouns
redeem
shellfish
snowy
substrates
targeting
toboggan
uber
unspoilt
unwind
##ister
##oll
##rice
algarve
assault
birthdays
consecrated
crush
majorca
melted
probable
pruning
questioned
realtones
rim
strategically
weed
wit
##ass
##ido
##iv
##kan
##lessly
##nse
archbishop
cruising
espanya
lng
manuscript
mono
reminiscent
skeleton
spotlight
##bee
##mous
##rium
1700
airy
bypass
cod
conveniences
fluctuations
hears
imagery
jollyville
nicholas
particulares
scrap
syrians
##ob
aramaic
borrowed
cared
cone
coves
enchanted
frisian
imply
liquidity
lockers
magdalena
marvel
moto
olympics
pigments
pike
repeating
rode
##tb
##tp
##uda
##uis
1927
accredited
ba
bs
elasticity
electrodes
endeavor
filmed
invasive
originality
prophetic
quay
reconstructed
traced
##iro
##uni
adhesion
adultery
chefs
comprise
daemon
dazzling
denominations
ernst
nbn
notation
prototypes
rebel
refuses
ron
sm
specimens
sticker
taxation
##aire
##eres
##holder
##ote
##ught
cabling
carving
cereal
combo
dresden
huawei
intestines
menten
orient
poets
presidency
samba
stimulated
summers
tote
##38
##78
##ncia
116
af
arbitration
attorney
auditorium
awakened
compelling
drawer
drawers
enforce
examining
fisherman
honoured
hottest
intimacy
kate
landes
parsley
peppers
pl
residue
sausages
senegal
serenity
windsor
##63
##dd
##plus
##ury
122
165
artworks
dams
fresco
gothenburg
holistic
indulge
mixes
oude
promptly
restructuring
sans
selector
valuation
veterans
##usa
330
align
belgrade
commissions
deprived
eldest
harness
lodged
mussels
obsolete
principally
superenalotto
teapot
truffle
unfold
##tail
1919
booster
claire
coronary
encoding
forgiving
openness
polymer
rains
shipments
silky
tranquillity
##aar
##cology
##gau
##inal
1980s
catania
cfnm
dali
deploy
encyclopedia
filesystem
freestyle
intermediary
israelites
macau
namur
nasty
perth
preset
protests
reboot
ruach
scaffolding
shafts
torch
trujillo
tulip
workmanship
##bia
##kt
alternating
blur
brussel
cr
diner
electrode
feather
flooding
gal
informs
lucas
repression
rouge
superficial
testimonies
trapped
txt
vind
weidemann
xxx
##lingen
121
aft
brains
calculating
cheques
compose
craftsmen
diarrhea
discern
dusk
herein
inlet
inserts
interpretations
malaysian
millennia
radioactive
sequences
unbelievable
weaker
##56
##any
##ators
##hot
##sts
10mm
18°c
chalatenango
distributing
emancipation
filming
forgetting
forsaken
infringement
karaoke
oyster
sacrament
successes
versilia
##ados
##ards
##dad
##dorp
##ient
##meer
##zan
demigods
drastically
executable
foliage
grouped
hail
hangs
koopwoningen
lesions
ministries
ostend
prins
systematically
vienne
washers
zanders
##cript
##js
##yer
backups
battlefield
breathable
bucharest
competitor
emulator
enquiry
gironde
iraqi
maggiore
pesticides
rams
refinement
satisfactory
stall
terrestrial
thinner
##arily
##gg
##rra
1926
analyzed
deserted
disinfection
exhibitors
headaches
kiosk
leakage
maximizes
phil
psychiatric
rita
saviour
submissive
tar
webroot
xx
yugoslavia
##ijs
##rose
##tu
adjusters
bends
chiang
chlorine
classrooms
complexes
drinkers
emma
ergometer
farther
foodstuffs
fungal
kayaking
naar
outlined
paddle
philadelphia
remission
retailer
seychelles
teresa
tif
##500
22°c
304
approve
grote
nigh
skirts
testimonials
trapani
##amp
##brook
##platz
##ption
##σ
139
21°c
advancement
advantageous
chop
drc
frustration
issuing
kazakhstan
kvarner
licensing
limon
motorbike
persecuted
plantation
superfast
surviving
veronica
waking
workforce
##07
##cci
##hor
##ppe
baden
belfast
clinton
friendliness
goebbels
goodies
harmonic
improvisation
kde
learns
nazis
parque
pens
perugia
pupil
qigong
questionnaire
roundup
sonata
suburb
survivor
swivel
whence
##club
##kar
##ried
##tial
1400
bhutan
blu
bulletin
dedicate
dortmund
eighties
escort
evaluating
frogs
glorify
identities
marriages
sdl
tighten
twilight
vcs
vos
worshipped
wrapping
##cence
##gation
##gra
##hat
132
combi
flea
frescoes
highland
hoist
isabel
oppose
owl
picks
randomly
scandinavia
sixteenth
smiles
smoother
turbine
vdl
##58
##igo
##ija
##rea
134
ain
aix
avail
bargain
billiards
chastisement
coarse
estates
inspections
itineraries
junk
mortality
neighbourhoods
nests
pellets
proving
resolutions
richness
shrink
spoiled
127
380
cannabinoids
capstan
charcoal
constructive
coupon
dominicana
instrumentation
jeroen
mariguitar
massif
maze
michelangelo
mts
plural
racism
scared
stunts
styled
tangier
tb
tirol
transformers
##fl
##quin
andres
autodesk
descriptionurgent
fury
ge
herod
inspect
insulin
mhz
pathway
peacefully
selves
thanksgiving
theirs
tombs
##fr
##hus
##nel
480
abnormalities
agia
angela
beethoven
burma
burners
chanel
ducks
faculties
finca
forged
geared
incidentally
kunst
labeled
lactose
msc
palais
rabobank
soles
stringent
trustworthy
##69
##nge
##uga
##vd
alba
angola
clasificados
cybersecurity
deficit
dryness
glowing
gouda
hobs
hunters
interpreter
kodesh
mortgages
proportional
racial
rijeka
scanned
viewers
##gger
##gno
##iti
##ptic
afflicted
beech
bert
campingguide
crater
hay
katestube
lymph
overlooked
reacts
tragedy
tropez
unsubscribe
wager
##ingly
##nto
5htp
accompaniment
beatrix
beginnings
blossoms
bury
expats
genres
gerrit
ies
lactating
morningstar
nominal
opposing
oxen
perforated
rsm
sr
unavailable
volatile
##books
##control
##dm
##het
##mat
##uta
alfred
amateurs
archery
delegates
departing
ea
galvanized
homework
indicative
interdisciplinary
johannesburg
multinational
ntfs
outbreak
overlook
playlist
smes
stalks
##court
##kov
##oria
1924
5m
bruxelles
confrontation
contradiction
counterfeit
diplomatic
divx
fearful
firenze
graphs
hurricane
impulses
louvre
malmo
mechanically
mercuri
pau
powders
primer
proposition
selfish
simulator
whey
##bro
##rina
##you
124
8mm
aram
augustus
bedded
coherent
complies
dour
germain
hazard
intervene
julia
kathmandu
kelly
kitty
maitreya
prov
proverbs
robe
tunes
urval
vii
vows
wasted
##esis
##front
##iter
##lab
##sin
156
5g
9°c
aquariums
coils
cola
desingel
faro
gaze
geert
manuscripts
ponte
provisional
pseudo
rainwater
rochelle
societal
steer
vouchers
##cial
##lah
##mie
##ones
##ums
aes
bookmarks
brasserie
clientele
climatic
compromised
donkey
enrich
exile
floods
iodine
jackpots
lun
mock
python
rankings
refrain
reviewing
ta
teenage
transitional
##hair
##iling
##lessness
1931
advisors
attacker
baal
customization
dump
dwarf
expired
flair
gentlemen
hugo
malignant
revival
sketches
suffice
tacna
thorns
##97
##check
##force
155
24°c
castilla
daring
deminor
elegantly
examines
fries
leaks
merit
plaque
receivers
reproduced
##bers
##ifiers
##ridge
##uate
##wd
113
145
abundantly
awning
blaricum
cords
coupe
defender
demographic
demonstrating
disclosed
itching
limousine
makarska
morbihan
quiz
thinkcentre
vow
##cted
##flex
##hel
##ibly
##pace
1922
4k
925
andes
bestowed
cp
criterion
defensive
einstein
graffiti
incidence
manu
negligence
nu
patriarch
philosophers
poll
ral
reefs
rhythms
sanctions
truetones
##boy
##gn
##ided
##lav
##nos
##org
##ulus
##writing
##zz
actress
arabs
benin
correspondent
depressed
derivative
eea
galicia
gras
kilograms
moulded
overlap
padded
plywood
purses
quan
reinforcement
shortcuts
specialising
storeroom
sympathy
whichever
##aus
##bos
##cross
antennas
assumptions
bilingual
bitcoins
chemically
chihuahua
dim
ehouse
ergonomics
forwarded
mandarin
onboard
propulsion
remembers
rye
slay
tubular
violations
voluntarily
##erg
##tore
##ulator
##uze
abrasive
acclaimed
anemia
greens
hypothesis
mechanic
mountainbike
prevailing
projections
reductions
researching
scarce
torah
transformer
venlo
##3d
##62
##gic
##gr
##pal
agadir
apollo
blended
breda
cloths
dean
dennis
devotional
efficacy
establishes
introductory
inventions
kamila
mares
pal
richest
roche
visibly
##hagen
##sl
200m
alfa
amarillaschile
caldas
commodities
configuring
continual
dave
directives
drought
forsake
handheld
miners
overgrown
pliers
schneider
shortened
siemens
striped
stripped
vermont
##dijk
##lit
activating
advises
ashore
aurora
bathe
captures
goeth
irritated
lifespan
mansions
modifying
multidisciplinary
terribly
veteran
walnut
wrestling
€1
##tex
##ups
bagle
barbados
bartender
bistro
blueprint
carrots
clues
detention
dikes
dinosaurs
embark
embracing
excavator
glamour
grazing
mans
minorities
moons
pledge
superuniverse
suspend
trout
ultrasonic
undertaking
##2000
##fat
##fly
##load
##ori
##ots
##ship
136
backroom
bradley
cheeks
decoder
examinations
halt
intensively
milking
pallets
restless
victorious
vu
##39
##home
##lm
##road
##tron
4g
4x4
adsl
amethyst
arbitrary
chalk
chi
cj
dd
defended
encoder
forefront
forge
homosexuality
maiden
mayest
mins
neglect
psychologist
ruined
sanchez
ssd
ste
##74
##bone
##building
##etic
##under
amstelveen
antiquity
apparel
appoint
chill
cupboard
custody
elvis
foundin
funchal
inadequate
infra
nad
oxide
radiance
ramp
reputable
thiel
tuberculosis
##ark
##berries
audible
bahamas
br
collapsed
commonwealth
commune
ct
deliberate
executing
fira
gilles
nvidia
occupying
rename
retrieved
scaling
scarlet
spokesperson
strives
troubleshooting
willow
##dan
##imo
##ometer
##store
##tum
atlantico
bilateral
conductivity
contrasting
deviation
fastening
fertilizers
freelance
freeroll
gilded
glove
johnny
ka
ken
multicultural
perceptions
pictured
salinas
seize
subscriptions
thrilling
vecchio
warms
weeping
wept
##boom
##heads
##jer
##nza
##oz
00h
1x
a2
birch
bosnian
deception
defending
digitally
fiat
leeuwarden
medjugorje
ming
mohammed
nile
novice
plantations
retractable
thirds
unparalleled
##ancy
##bio
##care
##dr
##tters
antiques
bij
burg
comte
crucifixion
digest
eats
enschede
historians
hof
lending
lithuanian
loog
migrate
monsters
richer
shout
textured
topical
##88
##ato
##cess
##ener
##sman
amend
anek
appendix
bakeries
begotten
catamaran
completeness
drenthe
impaired
importing
jessica
mutations
myspace
overload
playtech
poisoning
ra
radiate
telephones
##duct
##ented
##lton
##mation
##oka
##pes
##rous
##wich
1990s
bitch
dispose
ecstasy
encompasses
eos
expenditure
fertilizer
halogen
hospitable
ottoman
plum
promoter
restores
sata
senate
shenzhen
shinto
stripe
trampoline
tyrolean
wolves
##91
##atory
##bat
##bble
##hic
##houses
##hoven
##phone
##star
##this
##tos
anticipate
carefree
complemented
contracted
contracting
demolition
freedoms
graduation
homage
inventor
kuala
lookout
martha
mouths
nederlands
overthrow
participates
redundant
roaming
seraphim
snowboarders
spends
vaccination
victorian
##aka
##flower
##inus
##lem
##pc
##tv
##worthy
abancay
ascendant
comprehension
crab
denomination
immunity
kedy
mickey
pathways
polder
psychotherapy
rested
runners
sensations
wan
##76
##bird
##shed
##sie
##wart
bathrobe
burton
corvette
courier
discusses
dodge
guyana
hacking
hasselt
kennel
laughter
livorno
maas
obeisances
pedals
politician
recharge
seaweed
shields
validate
woody
youthful
##last
##oise
##oker
##quet
##wire
180°
ave
awful
grasses
lastly
mens
orbits
prosperous
roast
skyline
softness
suzuki
terminated
throws
v1
##94
##uet
buena
cafeteria
decorators
foldable
friedrich
leasing
minoan
moquegua
museo
nuraghi
nuremberg
pines
pioneers
rebellious
sharks
snakes
submarine
transporter
urn
##ined
##wi
##xy
1908
alzheimer
compares
duomo
flyers
genetically
godhead
kristin
midoun
mp
ny
picardie
salons
seniors
serene
sewerage
urinalysis
##flow
##lion
##oes
##uses
affinity
andahuaylas
awaited
controversy
ensembles
fingertips
glaciers
heirs
highlighting
ic
jams
leaning
missiles
psychic
reporter
sip
sounding
strawberries
turbines
twelfth
vuelta
##sd
##tag
195
19°c
alexandra
badge
cater
crisp
cutters
disturbances
doorstep
faint
gangway
hazards
kitten
maize
phuket
robotic
subheading
theaters
transformations
unveiled
vladimir
wlan
##usion
##yed
accommodated
adore
afar
blaricom
cohesion
colder
diode
dogma
donor
firing
greeted
hanover
ldap
mx
negotiate
newborn
oeuvre
optics
pedrera
pertaining
polycarbonate
sal
thieves
tread
walkers
yuan
##57
##dian
##him
##market
1100
cayo
classy
crib
curing
facilitating
preserves
refrigerators
tableware
tidings
warrant
zune
##68
##cle
##eve
1907
balm
borrow
cellulose
concealed
fascination
imprisoned
koophuizen
koran
maxi
monty
nb
obedient
optimistic
reformed
risky
synergy
terracotta
tester
unhappy
wineroom
yo
##89
##ame
##cts
##eller
alkaline
chasing
christina
edwards
endangered
experiential
fifa
jeff
loneliness
lure
marsh
nozzles
pb
physiological
remover
sac
sticking
sufferings
swallowed
temperate
tempered
uncovered
underwear
valet
veneer
##erd
##holm
##lco
##ttes
##ugh
abner
astonished
cairns
concentrates
counseling
credentials
ejaculation
estonian
flux
formulate
gamble
hammam
intensely
minors
pigeon
quilting
relieved
rembrandt
scary
uptime
##dom
##met
##pit
##pos
##roll
##run
##sberg
##type
950
abomination
assistants
castrol
cyclone
devised
disconnect
fellows
georgian
groceries
hadith
lumia
misleading
mourning
sludge
stance
staple
tier
tweet
watson
##aya
##dition
accelerates
awe
boeing
calves
classifications
detective
faithfully
filename
fundamentally
imperative
indies
karen
marketed
nasa
ninety
odm
olympus
orchestras
psalms
ranch
salamanca
salerno
sanliv
stealing
stirring
suppression
tonic
##ache
##file
##hem
##nice
##rse
129
225
255
additive
anderson
cubicle
diocese
duchy
eleventh
evergreen
genova
hearted
immobilieres
jealousy
mirage
quito
radial
recognizing
requesting
supportive
towing
varnish
viscosity
wilson
##59
##aan
##uated
accountable
achieves
belgians
blooming
cognac
doctrines
fokker
gerona
hebron
microgaming
nov
nun
phosphate
premise
prophesied
reactive
republica
rfid
unhealthy
vein
victories
yogurt
##ann
##nn
##tr
133
blaza
breakaway
compassionate
detroit
dine
dyes
etching
firstborn
forefathers
medici
roadsigns
serie
taps
transitions
##tina
##walk
1950s
anew
ankle
aparthotel
benchmark
bolivar
displacement
entirety
genital
hurghada
mandalas
mediation
nebadon
nuns
portrayed
praia
pursuing
richmond
ruby
scoring
separates
sermon
sterile
sweep
vegetarians
visualization
weep
yards
##79
##84
##iens
##ologists
##vb
##zu
1909
196
absorbs
adequately
amarillasgeorgia
announcing
camellia
cayman
clue
contaminants
correze
customary
declining
deodorizing
emotionally
equinox
feat
feudal
highways
hubert
illusions
interchangeable
plc
pong
sanctified
soldering
threaten
traps
ussr
zh
##bn
##iff
##rre
##wind
1916
bos
bunkers
calorie
capturing
catharina
composes
conspiracy
counterparts
crocodile
deodoriser
downtime
embossed
felix
fiery
garages
icann
impeccable
korcula
malawi
margins
megapixel
mystic
needless
olbia
sacrificial
seedlings
soda
speedy
swell
xvi
##cky
##erving
##iles
##ories
##persons
##zza
00€
advancing
antibiotic
automate
awnings
aximas
buggy
buys
desktops
discharges
geo
gums
jura
onderwijs
providence
pulls
rake
restitution
scribes
selectable
spas
toner
ultraviolet
vocals
widths
##bian
##das
##gues
##isse
##kens
##pol
131
admiration
bermuda
bijouteria
biomass
boosts
devour
disturbance
dwellings
entails
gamma
infusion
kilos
klein
lecturer
leone
monica
nesting
overland
peach
qi
sinai
stressful
sucre
tensions
womo
yamaha
##mme
##rca
apis
artillery
attacking
beauties
brink
cagliari
chilled
cocaine
condemn
injections
jane
joost
manipulated
marshes
nasal
portfolios
quota
santorini
stipulated
sulphur
teaspoon
unification
weary
weekday
whites
yachting
##ith
##mouth
##ngen
##rick
2°c
annecy
bananas
batllo
bohemia
broth
bsd
deliverance
exhibitionist
eyebrows
fungus
grooves
hillside
indre
induce
insist
knob
kosovo
manure
nearer
ridiculous
sender
sworn
tallest
trusting
winsol
wisely
woodland
worrying
yoro
##borough
##chem
##ech
##right
##ulates
1880
2050
amendment
asf
basins
behavioral
cubo
devotee
furnaces
neon
parcels
perigord
playitalianlotto
punk
raymond
seafront
slippery
sweaters
wizards
##lux
8°c
ancona
bridal
caturine
catwee
compressors
derive
emptying
encoded
enormously
heir
herring
hoe
homeless
husbands
jeroboam
magicians
milffox
mozambique
nineties
plunge
reckoned
refreshner
salusa
sown
tolerant
undergone
weakening
##gos
201
50m
accession
adapts
agility
alleys
andalucia
birthplace
carpenter
chaldeans
commemoration
crises
diligently
dom
dorado
highs
huancayo
infantry
mongolia
nightmare
noun
objection
pietro
prairie
primont
salty
terroir
toledo
ventilated
wallonia
##adt
##body
##now
##rv
acquisitions
airplanes
ant
bounce
brisbane
castello
entertain
fingerprint
guestrooms
imminent
jakarta
kuen
liking
liner
mango
notary
orchid
payouts
petty
suitcase
taipei
uphill
vest
vitro
##3u
##ggio
##oping
##tical
##tube
b1
bacio
butcher
byte
consultations
cruiser
deterioration
felching
immogo
insulating
lent
leprosy
lp
notorious
posed
pumpkin
sendmail
solemn
wd
workstation
##73
##mg
##yard
4mm
533
academics
affliction
altars
axel
biopsy
cpr
deceive
exemplary
fixation
fronts
generously
grids
gut
intricate
invaluable
jason
labyrinth
laughed
nh
percussion
porec
rapids
speeches
t2
uranus
##birds
##gling
##holes
##rera
adaptations
altos
azerbaijan
beth
buckle
centgraf
circumstance
contradictions
groomed
headset
heroic
hyfoma
lm
malls
monopoly
ngos
overlay
proletarian
pronunciation
quaint
slender
tracked
urls
##83
##iden
arabian
catechism
clamps
emerges
essays
eventual
fins
gad
gala
grips
guideline
inclination
interpreting
nara
owes
pasture
ruth
salted
spur
swept
toxicity
underside
##ature
##hell
##lc
##rily
##stadt
##teth
10gbe
aberdeen
ambulance
coded
cornelis
detachment
diagnostics
edpnet
elaboration
environmentpanoramic
estacio
furnishing
genetics
hardest
nationalities
pablo
peers
polynesia
prisons
sincerely
slideshow
spirulina
squeeze
sums
trafficking
warranties
##bis
##cape
##nna
##ocation
##olis
##recht
##woman
##zel
amstel
antibodies
burger
casablanca
cetera
cs
diagnose
habitation
ian
inglesi
interruptions
locomotive
maori
microbial
nagasaki
nightclubs
novelty
passports
registrar
screenshot
spaced
specialises
stacks
staging
sweeping
tec
toast
trunks
watermark
wears
##93
##cker
##ctor
##gny
##isa
##nies
##oda
##ume
abused
alleviate
bellevue
bruce
civilian
conductors
differentiate
dove
dumb
ecb
gentleman
harris
insignia
longitude
lounges
machu
mon
mons
nvr
obeyed
ogg
prosper
retina
rigorous
rug
salem
sheikh
shocking
snowfall
stamped
thunderbolt
widest
##block
##builder
##hit
##soft
##tium
1888
bankruptcy
barracks
betrayed
briefing
cana
citadel
constituted
eli
exceedingly
fermented
gebhardt
ghosts
hieronder
hinder
hound
jimmy
manifold
mastered
moulds
mythology
penalties
psychotherapists
rape
relics
restraint
rosemary
sailor
sieve
solvents
spans
tiedje
##aki
##iate
##ijk
##info
##post
##rail
##thesis
1902
acupuncture
carbonate
communists
croix
davidson
diminished
drummer
fiji
flak
forensic
melexis
notions
ox
phosphorus
placebo
plato
poisonous
pores
predictive
resilience
sud
thrive
warmly
##ffs
##ield
##ign
##ying
ammon
analyst
catches
collagen
emulation
epistle
garciniaextra
ik
ine
opium
organisers
proceeding
promo
suv
terrarium
unborn
vaccine
vapour
waterloo
zebra
##born
##chat
##cho
##erate
##gu
accumulate
acrobat
activates
aprons
armchairs
beauvais
choking
clockwise
creme
diets
disturb
economist
extinct
florentine
gifted
giveth
indefinite
maketh
ryan
ryanair
simulate
synonymous
uit
vet
##ires
##sity
absurd
accelerating
amd
angular
barbour
bodrum
checklist
choreography
corp
credited
cristina
dries
etheric
follicular
frightened
fuerteventura
guadeloupe
hardening
helen
ix
kornati
loudly
marriott
michelin
peas
rover
rum
supervisor
synchronized
tumble
unexpectedly
##cator
##chio
##gged
##long
##rants
##rel
##vina
antwerpen
beachfront
boasting
charleroi
consolidation
contexts
disruption
enduring
falsehood
gemini
handball
hpe
hs
icemaker
implements
inquire
jets
kills
laguna
lees
mondays
png
rey
spreadsheet
stresses
topped
viii
webmasters
##wers
adopting
broker
calculates
caste
clowns
disobedience
etienne
expelled
flexibly
graphite
intellect
invitations
kostenlose
lighten
linkedin
metatrader
modernist
nicest
nintendo
octave
pious
quieter
renovations
riverside
scheduling
sept
snowboarding
spectator
subtitles
swollen
thermometer
togo
unlawful
wil
##gens
##omy
##ouw
##pay
##rade
##rden
##rich
circumference
compost
deities
deported
drawstring
extermination
faulty
helicopters
hooked
masturbating
mutation
paros
piles
ppt
regimes
rescued
siege
somme
sonic
stacked
truthful
vita
vlaanderen
xi
##iable
##rite
##sos
##word
137
27°c
acoustics
closets
counters
curly
dakota
diff
disconnected
dissemination
edom
ellen
ethanol
existent
feb
fractions
haan
handbags
infertility
kopen
lite
owning
phnom
refusal
repeats
reproach
suggesting
thighs
wouter
##date
##fier
##nac
##nate
##ono
##tana
##urt
720
adjectives
allfont
bookshop
canton
cautious
cm3
crustaceans
densely
distinguishes
graceful
grosseto
hectic
histories
icelandic
logistic
manchioneal
mora
pagan
pascal
payed
peat
subversion
suppress
swinging
synchronize
unacceptable
utilization
##ition
##lice
##nier
##oir
##oot
##pic
##urne
alias
basil
brandenburg
esau
heinrich
licences
liquor
magne
mcafee
motorways
pat
preservatives
refreshed
rotates
sheffield
sme
vilnius
wherewith
##cular
##hir
##iot
##mbo
##rda
##screen
138
1904
bathrobes
belongings
blew
congestion
doom
eau
euromillions
fortification
gites
insofar
ladders
maremma
neodymium
norman
nuraghe
opengl
pharma
piping
regulates
renamed
ribs
roofing
ru
stiffness
stubborn
terry
##inator
##trasse
auberge
brunei
drilled
embraces
evaluations
fools
gestures
handicrafts
impurities
judaism
l1
lengthy
microscope
po
serviced
trier
whither
##ania
##cca
##game
##iner
##irs
ambassadors
attackers
backrest
danced
downloadable
educate
fifties
guaranteeing
haste
homogeneous
inspires
labeling
mariana
nexus
prima
reversible
ribbons
richly
rosario
semen
smarter
speculation
sprinkler
tariff
tides
transcend
turbulent
uninterrupted
unpredictable
##bell
##cept
##eous
##hare
##osing
##pped
##uff
##vre
185
alberto
alentejo
compress
desiring
devils
dhcp
discerning
embryo
gang
lucifer
nationally
padding
picchu
propagation
tapping
teas
tubing
typed
valkenburg
wirelessly
##mmel
##nics
anticipation
conducts
diameters
disappearance
donors
ecomare
feeder
pastel
pastors
peanuts
pioneering
reich
revolt
roomsfully
schoolgirl
sliced
terre
urged
violate
##anza
##ello
##fin
##games
##mates
##mount
##vs
##week
##yi
abstraction
amended
appropriately
cactus
clergy
crikvenica
decimal
finale
gerco
haze
horticulture
janssen
jennifer
justification
lubricants
mahmutlar
mdf
murano
notch
progressively
radiators
rugs
sandstone
suppressed
travertine
unfair
##iba
##iza
##ske
147
1913
advising
ancestor
crazybulk
dbalmax
earthenware
exporters
eyed
forwards
fritz
gliding
grenada
honorary
microscopic
miserable
morris
pius
raphael
tremendously
verne
##200
##zee
340
amarillasarizona
bundled
carmel
christine
christophe
collaborating
disappointing
disposed
grandchildren
irreversible
madame
marries
necklaces
needy
oppressive
pollen
rt
spacecraft
timetables
tnaflix
widgets
##ami
##eri
##ione
##lot
1885
1906
ag2r
apeldoorn
barren
brew
camels
cello
codec
exercised
gastrointestinal
habitats
ibn
iss
jomy
judith
lightness
lilo
midway
mimesis
minibus
naive
paired
pushes
sara
saxony
tiller
typeface
##abad
##cu
##eim
##enstein
##iya
##lling
##tadt
##ths
a3
afterward
bleaching
bulls
carinthia
childbirth
cough
dolce
elaborated
enforced
estimation
fifteenth
forthcoming
hesse
hirado
lang
lifetimes
meteorological
mornings
nacional
onward
renfe
roi
romana
s3
savona
seater
snapshots
toddler
##bot
##ffe
##lda
##tall
126
534
buzz
calamus
chromium
comb
emptied
fines
floats
indwelling
juniper
leaflets
localized
salou
shi
triangles
urbanization
##bahn
##fx
##kit
##mith
##rth
##using
##utation
16mm
430
adrenaline
analyzing
aug
avenues
capacitor
champs
civic
coffeemaker
comfortmains
contemplation
demolished
detergent
duct
forbid
hobbies
intercession
js
justin
kacaby
maldives
paragraphs
portland
proceeded
qing
redesigned
relocation
screenshots
storeys
treaties
vent
##bas
##ect
##itating
##tling
##zia
adapting
advertisers
advocates
auckland
backpackers
calvary
cannon
cardio
dauphine
deducted
disposes
esperanto
exploits
flores
frontera
galileo
hesitation
ingenious
interconnected
kiln
kindergarten
multiplier
mumbai
olds
overcoming
perennial
ripple
saas
sacraments
saunas
shone
slightest
smite
spared
specifying
thrill
##active
##aid
##ives
##lining
##nian
##team
almere
amazingly
baron
commissioning
cuttings
davis
decks
deuteronomy
elbe
emptiness
fourteenth
gathers
hannover
jogging
longevity
mesopotamia
neurological
nobility
overweight
regina
rubbish
selects
therefor
tulips
urgently
vasco
ypagescalifornia
##dge
##gard
##station
1903
1°c
abominations
accreditation
assessing
axe
chronological
clicked
dared
decker
detour
disastrous
disposition
docs
engels
erectile
extender
flashes
flatscreen
fore
gnome
grandpa
handhold
isis
jerry
jinja
motherboard
passions
piedmont
purify
reseller
ridges
soaked
truetype
vascular
##cated
##pping
##used
999
afghan
aggregate
anatomy
concerto
departs
directs
doha
emitted
expiry
flourish
frameworks
infallible
infamous
kurds
manifests
outbuildings
pos
schindler
##ced
##eb
##gl
##hoek
##oral
##oud
##roy
##types
activist
archeological
arenas
assures
camaguey
cn
diffusion
directional
eagles
els
emule
esprit
fatima
frustrated
gaza
grievous
habla
honeymoon
impotence
invoicing
mates
movable
naxos
paylines
powerline
purest
refill
retrieval
scouts
silo
tablespoons
telephony
walker
werner
##aud
##backs
##bb
##camp
##eries
##nz
##rop
##tha
12mm
30°c
3g
arsenal
bon
cons
cypress
dealership
depot
dilemma
directing
drained
drier
ergonomically
galatians
gatherings
guestbook
istrian
lazarus
molybdenum
nicole
oliver
preparatory
pretend
routers
sings
sonsonate
striptease
sv
swings
tas
threaded
thriving
universally
volunteering
##eter
##gren
##jen
##lp
##uge
##ules
148
aerospace
auditory
ccnr
cervical
excavation
explorers
gambia
ideological
ionian
karmic
lettuce
limitless
linksys
luz
millet
moisturizing
mountaineering
nourishing
outlines
overflow
radically
recumbent
spinach
tiff
vario
woke
wreck
##dus
##erie
##wer
altea
bats
civilisation
confront
cyclades
exchanger
fascism
futures
govern
grind
headlights
imbalance
kingston
mantra
melanie
motorsport
pellet
pendulum
pilgrim
pony
reiki
smb
stanley
territorial
trimmed
ufo
##here
##ilo
##inger
##itive
##nor
##ols
##rte
##tract
aloud
arranging
breastfeeding
clark
coupons
degeneration
differentiation
endeavour
endpoint
eternally
howard
ingles
ingrid
inserting
judo
kse
layered
majeure
marrow
minimise
neckline
negativity
patrol
scholarship
sophia
soya
toa
usability
wagons
winch
##chs
##config
1895
bouches
calming
dissolution
duvet
epidemic
extinction
frontier
humiliation
incline
jealous
malfunction
massa
negotiation
nuisance
penetrating
pistes
repetitive
schengen
silly
sunglasses
surfers
thereupon
##ava
##grad
##manager
##nit
##skin
##uela
acquaintances
apres
assembler
burdens
cardigan
committing
conditioners
cortona
couplings
darby
embodiment
erect
eruption
eyelids
flawless
hash
hyperlinks
ignatius
inconvenience
lawns
mbps
myriad
nemesis
oily
quarterly
ransom
readiness
replication
reverence
settling
seventeen
statute
tow
uniqueness
wageningen
##3a
##ales
##eken
##lization
##oles
##rde
##static
##uy
##wb
belkin
buck
contributors
correlation
courageous
delle
emit
florianopolis
globalisation
grandson
incision
laden
listeners
monochrome
pierced
prevalent
questioning
researches
rogue
samana
sweetness
thanked
tidy
trajectory
##ground
##mu
##pper
##uil
##vos
3km
440
allegedly
avoids
benlee
chicks
cries
dehydration
displaced
driveway
figs
impregnated
invaded
necessities
noises
petanque
rebirth
recession
revive
rijksmuseum
sherman
sisley
symbolism
##aging
##hall
##ln
##nga
##rod
##rooms
##vert
5°c
accompanies
analysing
auspicious
coordinating
desks
diabetic
drowned
equations
exchanging
flourishing
hf
latvian
multiplayer
nico
rims
rubbing
saga
seriousness
terrasse
windy
xanadu
##bby
##eda
##gor
##kade
##rix
##wave
chiefly
compiling
consolidated
crawl
effortless
fdi
grassy
gtlds
holdings
institut
km2
moderation
motivate
naturist
prado
provencal
putin
radisson
sprinkled
stella
tarifa
tinnitus
tolima
trillion
zaragoza
##300
##ank
##arian
##dic
##ience
##lby
##rr
##sus
##tain
##wash
142
230v
460
angelo
biochemistry
buddy
chili
compensated
destroys
excavated
helpless
hotspot
irresistible
loaders
mower
piste
quickest
rebuilding
sympathetic
tempting
theatrical
workings
##eira
##ifiable
##ind
##kon
##lip
##rier
##uth
1886
administer
adversaries
asa
associating
atlantique
comodo
converters
deviations
discrete
dispersed
eagerly
falcon
granting
hepatitis
iq
jesse
kleine
logistical
lubricant
outriggers
phantom
physiotherapy
prelude
rebuke
relational
roasting
scam
sh
soundtrack
surname
thermostat
yielded
zonealarm
##berger
##icular
##lide
##pie
##pl
##tead
151
abimelech
addictive
aerobics
alteration
annie
colombo
constructing
crevice
deceit
depicting
ezekiel
francesco
fuse
hourly
kennedy
meridian
noting
oversized
peeled
posing
refreshments
restrictive
saws
scarves
squash
subsidy
teddy
theologians
vosges
wasting
##bag
##corn
##kker
##lee
##ogy
1898
1km
abram
adaptable
battalion
broadcasts
caroline
exempt
expires
formwork
handbook
horsemen
insider
instinct
intentionally
interrupt
joris
joyeux
keepers
listener
loggia
nederlandse
null
pancakes
paolo
parachute
riga
roomsvery
semiconductor
sodom
softly
splendor
threatens
thumbnail
unreliable
voc
westphalia
##lash
##media
##people
##rter
141
addicted
adjusts
alcudia
csr
diners
emphasizes
garcia
hdd
hustle
likelihood
llc
loosely
mondiale
noir
onestat
predictable
pushbutton
seasoned
shaken
tandem
triggers
turmoil
upholstered
##87
##hua
##pable
##uite
aquarius
ayacucho
belgique
bitterness
booting
briefcases
brokers
brooklyn
bullet
cappuccino
comics
condensation
decreed
elbow
exporting
featuresvery
focussed
glories
gospels
hairdresser
incomparable
jacobs
jd
linguistics
luminaire
mentor
motorhomes
neighborhoods
pedestal
pleases
rash
roosevelt
silently
snail
vms
wellington
€2
##800
##dating
##wt
28°c
arlington
badges
belvedere
bern
bottled
chapels
choluteca
cucumber
gig
gratification
kliniek
margot
miraflores
newfoundland
parasol
persia
pueblo
reina
shipyard
sprinter
standpoint
stumble
suspicion
undo
workload
##elli
##festival
##hops
##ior
##lara
##lateral
##lets
##poker
##track
##°f
1870
aosta
automobiles
benedict
cb1
chakras
cupboards
envision
figured
fonds
frederick
garland
invent
jun
killarney
kritzinger
mariachi
maximal
optic
p2p
splitting
surgeons
unspoiled
wavelength
waytostay
workstations
##asy
##dine
##frame
##his
##mere
##nell
##nist
##pool
146
2km
adopts
albany
blogger
charlemagne
cheats
clad
cleans
commemorate
cylindrical
decrees
descriptionsuperb
fluent
hereditary
imf
immaterial
imprisonment
kissed
magdalene
nancy
oz
prevailed
propeller
pt
royalty
sita
stately
strolling
zal
##graphical
##h00
##iled
##lex
##nka
##rage
##rias
##shop
##vac
##xia
149
80s
abyss
alm
babysitting
cherries
congenital
curators
discovers
flowed
gary
grounded
informing
jumbo
koninkrijk
ludwig
matanzas
mucus
nero
pods
reinforcing
speeding
subconscious
tempio
uterus
velcro
verdon
villaggio
weave
wraps
##aux
##iated
##igh
##llen
##ube
##uc
1887
26°c
abound
ascii
backyard
barcodes
blond
centrifugal
chiefs
chunky
credibility
denying
insane
linens
louvain
nouns
penny
pergola
polymers
porous
poucet
sagittarius
sensational
shocks
torres
tracker
transcendence
wagner
westminster
##fest
##ffer
##nco
##scopy
##wick
##ym
1899
251
analogy
auslands
bumps
casualties
concurrent
electromechanical
evans
evaporation
hinges
leeds
materialism
montpellier
morini
ols
pear
prescribe
rafti
receipts
russians
scandal
sinking
torrent
truffles
windmill
yoghurt
##act
##ilde
##lator
##ndi
##nical
##np
##oro
##quo
accounted
aperture
argos
audits
bash
cams
circumcision
cyclist
doorway
dutchman
elongated
employing
foreseen
fu
isolate
kwh
lars
loir
lt
narada
nebuchadnezzar
nefkens
nutritious
perpendicular
punching
rex
schiermonnikoog
sparks
troc
unsafe
##hips
##orm
##rta
##tland
##torm
##version
1860
410
auditt
captivating
castro
census
certifications
cheer
contests
conveying
differing
dolomites
elias
empirical
eurologos
externally
filing
heath
hermann
jars
jokes
labelled
mailboxes
naming
parrot
perfumes
perseverance
playroom
provoked
pvda
reseau
roubaix
servicing
skunk
supremacy
translucent
unsuitable
uta
uzbekistan
weeds
##df
##dium
##ego
##enen
##mosa
##note
##nsee
##tens
##yte
1830
500m2
antichrist
arno
aude
belgocontrol
bluff
budgetary
configurable
dale
deactivate
derives
discouraged
dispatch
dominance
eib
enthusiastically
estuary
expectancy
fading
gratisonroerendgoedadverteren
grille
gymnastics
homo
illes
inauguration
inge
mara
mum
narconon
navigator
odessa
omitted
pere
pisces
rajasthan
ringing
sentenced
septic
smit
sowing
starters
trembling
trophies
ulcers
unfolding
volterra
wang
##bic
##dock
##evo
##lery
##lmer
##oom
##ulators
##vik
152
1882
accorhotels
acquaintance
booths
boris
branched
caption
centimetres
circulating
clamping
clipboard
conceive
democrats
deportation
detachable
extremes
henceforth
icebox
ida
idaho
ligurian
marion
mediated
nhtv
polak
prerequisite
redness
seizures
sep
spill
stib
streamlined
thirteenth
thither
torment
weld
##001
##ante
##bie
##cate
##culture
##hara
##lts
##rams
##system
##tly
##zon
050
370
abolished
acropolis
alterations
barbuda
bazaar
beak
chunks
composing
descendant
diluted
dwells
ems
equip
exhaustion
fibrosis
finistere
folly
governors
hitch
hubs
innate
joao
lodges
mounts
originals
particularities
pitched
pumped
quotations
realizes
shareholder
spherical
sponsoring
sultan
sundial
swimwear
tariffs
timbers
trimming
underfloor
##aba
##arms
##cke
##dit
##lage
##oin
##tai
162
adelaide
ahuachapan
alessandria
ceremonial
confuse
economists
fixture
fossils
hk
kicks
klm
layouts
linuxfocus
manila
modernity
nantes
obscure
pedigree
perimeter
plymouth
predecessors
protectors
rhin
rudolf
sahara
springfield
stocked
stole
transgression
wankoz
wiped
##chy
##izers
##lish
##loader
##pis
##ppa
##rica
143
290
500m
adverts
bankroll
bearer
breeder
childcare
dinosaur
discharged
extracting
faithfulness
gaston
gastric
guesto
happier
hdtv
hopper
lantern
lawrence
motorized
mutually
networked
omis
patiently
peeling
postage
raval
resemblance
rick
shrimps
sprayed
tube8
valuables
##anca
##chel
##fulness
##layer
##onal
##tops
##villa
accelerator
albanian
bol
cdrom
chrysler
dragons
erwin
fragrances
grenoble
imitate
installs
ischgl
kali
ls
luigi
lunches
magician
mancha
metaphor
mob
multitudes
packings
pinch
pineapple
presumably
professions
rai
ravelry
stitched
tao
virtuoso
vvd
zeal
##ede
##fm
##hine
##jana
##liet
##pane
##size
##til
##urable
aθηva
bathed
boilers
cairn
centraal
chorus
comparatively
compelled
condemnation
detecting
dialect
downs
experimenting
groot
hex
hinge
hydraulically
instruct
jardin
lowers
muddy
oorlog
opentype
puree
relying
residenz
secrecy
stirred
stranded
thrilled
vc
##aine
##iek
##kas
##lino
##rts
##tab
adventurers
agile
alexis
artifacts
bounty
emblematic
expiration
expire
favors
franche
gs
hgh
kolff
mit
netscape
observers
paramount
poorest
prosecutor
pulmonary
riyadh
secureanywhere
spear
totality
uncertainties
vending
visionary
volatility
##esa
##nden
##rland
##tile
##vie
acidic
amersfoort
baltimore
boulders
buckets
carcassonne
copyrights
corals
damme
dans
elisha
embassies
fridays
grandparents
incomes
insisted
makeover
msg
okinawa
peculiarities
powershell
simmer
t10
thermo
unfamiliar
unfinished
wm
##ional
##ologies
##omo
##rows
##yen
310
7000
alloys
behaviors
bonnet
bt
cheque
chopin
concentrating
diminish
doping
evacuation
feasts
frisomat
hammock
haus
hawk
immensely
immoanzeigen
javier
kos
larva
marksix
missile
moth
mtr
ned
outfits
panagia
pits
regiment
saggy
succeeds
therapists
##coat
##ept
##grade
##hold
##lysis
##rom
##rton
##was
90°
ammunition
anchors
bmp
bratislava
cabarete
coimbra
dismissed
dorada
facilitated
handset
handsome
heaps
hg
hotplates
infrastructures
inspected
intrinsic
jezek
kan
khz
melodic
miro
nebraska
organiser
paradox
reimbursement
rejuvenation
retire
scoop
sevastopol
sincerity
stitching
tapestry
testers
thigh
tuv
uranium
ver
weblettertype
weblettertypes
worldline
##horst
##lag
##mara
##news
##place
##rac
##tat
##trip
##writer
50th
520
540
abrupt
adviser
amendments
anesthesia
argentine
bookstore
bulking
chatting
comparisons
constipation
copyrighted
corfu
critically
ecg
einen
felicien
fiesta
hacker
indica
inkjet
liveth
logically
manmade
nieuws
polarity
proactive
prologue
px
segovia
shareware
shelters
sushi
terrenas
topography
withdrew
witnessing
€5
##chemical
##dar
##due
##ief
##ieth
##ller
##mill
##ogists
##rome
##sat
##tton
##ump
##unded
ancestral
bankers
brace
caramel
carol
castellon
cima
curry
deadlines
delaware
descriptionvery
dinghy
drastic
extinguishers
fidelity
harp
janitorial
jehoshaphat
knokke
lump
lumpur
marian
oasa
pact
padi
primal
roadmap
schoolwork
sheds
similarity
summarized
tenders
thirsty
tourer
tt
verenigd
workroom
##cl
##dag
##hra
##mber
##uss
1750
6mm
advertenties
arroyo
balkans
baska
bethany
bonded
bookable
c3
carrot
commercialization
conversions
crispy
crossings
directorate
encompassing
engel
eyelid
foyer
furious
halle
houseboat
insignificant
jasmine
jeremy
kicked
mayan
moore
nineteen
paintball
patricia
proclamation
ronda
standardisation
suns
throttle
tomas
vries
##adverteren
##edge
##hetic
##iving
##stat
##tard
##umble
166
2mm
6m
accor
agro
claudia
coruna
denies
downloader
duvets
evidently
falsely
frantiska
gadget
hen
impairment
insure
menorca
raining
reus
scents
sequel
shakespeare
sharon
temperament
therewith
villagers
winkler
witte
##fighter
##jiang
##mobile
##stones
264
accountants
airberlin
annuncieuropa
atelier
barrio
civilians
concise
creeping
d8
deckchairs
despised
doomed
downside
dukla
dynamically
eec
emblem
expandable
fastened
flik
gameplay
hexagonal
illuminate
inactive
jaipur
methane
orchids
organist
platz
praises
progressing
puppets
reservoirs
snorkel
symmetrical
telstra
vaccines
ventures
vernon
vilcabamba
vitroceramic
windmills
zwolle
##afil
##cb
##encies
##gat
##imeter
##physical
##rky
##sive
##vm
affectionate
batman
bei
boules
churchill
climax
dm
flown
glaucoma
hereunder
incompatible
isles
knowledgeable
marinas
mythical
parquetry
perished
pouch
railings
reclaim
scented
sunroom
tl
unavoidable
unnoticed
##ense
##food
##hman
##inous
##kamp
##ree
##unting
##zano
##⁄2
003
172
325
adriagate
allocate
audrey
ayahuasca
bauer
bye
channeling
confectionery
desperately
eurovision
extranjeros
fullest
hampton
harvokse
hitherto
iacm
internacionales
irene
kent
lag
mania
mgr
mischief
morten
osaka
rabbi
reptile
rivals
shorten
slabs
smoothing
stacking
titus
tsunami
verdict
wayne
€10
##400
##afe
##bier
##blue
##bound
##etta
##hai
##llah
##soever
##tek
1889
constellations
cornerstone
descriptionflat
detox
eleazar
enforex
flamingo
ghpc
inscribed
khan
leisurely
leonard
lilies
musica
nap
orchards
ozlotto
pane
polyamide
rebels
ripper
sacberk
solitude
spezia
underwent
zdnet
##aat
##beck
##belt
##ffle
##gna
##icus
##md
##rain
##sec
##stand
##yr
andalusian
bale
bias
caching
camcorder
caucasian
chamonix
clauses
conductive
disagree
epirb
fbi
finer
fjord
getaway
glamorous
goodyear
heroin
hooded
hydration
inorganic
io
lublin
lufthansa
newcomers
ounce
sofabed
soups
starry
suitability
superuniverses
telescopes
toolbox
tunis
wyoming
yellowish
##0m
##arn
##ccio
##class
##electric
##eng
##ggins
##ival
##lyn
##mite
##office
1893
1y0
amarillasaustin
aspiration
ayurveda
bonaire
campgrounds
depicts
gamblers
headings
innocence
jellyfish
manageable
mating
mol
occult
pancreas
pedestrians
pipelines
polystyrene
preface
removals
rieu
safescan
savage
sek
sena
shears
spaghetti
stare
susan
swine
trench
upstream
varadero
waits
##mig
##oco
##old
##rg
##rro
##sters
##ulent
agenzieimmobiliaristranieri
armour
ascertain
benefited
cartilage
cite
conversely
corpus
encrypt
foothills
glide
guido
hu
jerome
kilo
knowest
kurdish
mantle
markus
minahasa
mod
monde
navigon®
objections
opaque
prepaid
schizophrenia
sofitel
subsurface
ui
vaucluse
vbs
vortex
##ettes
##hc
##imate
##nx
##path
##rai
##riation
##sio
##utz
##wp
##zhou
1901
apparitions
arcadia
capo
crabs
declarations
dvb
facet
flavored
generosity
glider
greedy
immortality
inspirational
kaiser
kr
overly
pci
permissible
rehearsal
rentacar
ribbing
rtg
seduce
serotonin
shimano
tian
vivaldi
wheelchairs
##cp
##ext
##fair
##icate
##nium
##points
##tology
##uwen
163
4d
abnormally
aftertaste
aries
artefacts
assembling
awkward
behavioural
bespoke
bottoms
brighton
climates
coolant
discarded
electrolyte
honorable
joel
keyboards
manifesting
marianne
meyer
mister
noticeably
opulence
permalink
piso
pistoia
skincare
tallinn
transponder
vasudeva
vedas
waving
zell
##cams
##gnes
##inates
##may
##nant
##oil
##sley
##sport
##stop
##worm
climbers
conceal
cumulative
epiphany
erfdeel
evangelical
exits
expeditions
exposing
fairness
fucks
hohe
horta
hue
lama
letterbox
marcus
maritimes
methodologies
paperwork
progressed
psychiatry
recalls
remy
renal
samoa
seizure
simplifies
slowing
softening
unholy
unmatched
v3
zombie
##bread
##eh
##ility
##lana
##lch
##machine
##outh
##phy
##qua
##rit
acre
amusing
assert
brp
camargue
canned
chapelle
ditch
doctoral
dominating
dormitory
equatorial
fabrication
foz
hermes
impakt
impersonal
inhabitant
lame
loins
lpg
mapped
mehrsprachige
motogp
nostalgic
poe
predators
realism
repellent
sacrificing
##ared
##hone
##hurst
##iko
##ista
##itas
##ndo
##rds
##read
##ril
##tol
##uminous
##wl
adams
armchair
astrid
bisexual
botswana
cancers
carpeted
checkpoint
colonel
comforted
consulate
copan
diskette
downfall
eminent
entertained
finden
heraklion
https
identifier
lacked
liaison
maha
martens
mitchell
noodles
penh
refreshment
relativity
rhythmic
roam
rockets
slogans
smtp
stationed
touchscreen
transgressions
va
velvety
whiteboard
youths
##atie
##blad
##citation
##ente
##icism
##lene
7°c
8000
8x4
almeria
amarillasnuevomexico
autism
betray
buda
cardiff
charitable
clubbing
cobalt
disbelieve
heightened
holidaymakers
hypertension
immobilienanzeigenkostenlos
inspector
integer
lightworkers
martinique
moreno
nikolaos
pagoda
recruit
res
respectable
russelsheim
samson
scarring
snails
spokesman
stats
walt
wilders
##anse
##dent
##esta
##fare
##lium
##lled
##systems
##uria
##xe
153
1930s
215
3gp
amarillasnevada
amphibians
anchoring
antioch
balkan
batter
beacon
beloveds
benign
boels
bureaucratic
civilized
cracked
deciduous
enrolled
forklift
fragmented
gall
gis
globalization
initiator
innumerable
jansen
jihad
knocked
lc
leviticus
marshall
mesothelioma
midday
moorish
mosel
motta
optimizer
pointe
refunds
rodriguez
screwed
sewn
spit
traverse
twisting
vapor
vibrating
westerbork
##cological
##entation
##ete
##gang
##gua
##hana
##hd
##icated
##ild
##mania
##oen
##pf
##range
##rb
##rust
##tand
##tled
##uid
1896
630
asses
avon
bourg
bundesliga
communicates
conical
distinctly
essen
fascist
flaws
fuller
guadalajara
herberge
hoc
ivy
kurt
libre
memo
modernization
osa
paemel
permitting
prat
purifying
rebecca
receptions
relied
resistor
rockmelt
sedan
simonsvoss
summertime
sumptuous
thierry
uploading
uprising
vibe
zombies
##eman
##oss
##udes
##uur
##varo
##vent
##zip
4°c
actuators
adamantine
advertised
anomalies
apr
bundles
bunny
ciutadella
congresses
constance
conveyors
detailing
eps
freeestatead
headquartered
indignation
inhabit
jonah
kecskemet
merkel
mig
misunderstanding
monarchy
navel
olivier
personalize
ralph
recital
reliance
scarcity
shook
squad
subtropical
suffix
township
trams
viareggio
##ables
##arium
##elia
##emia
##hia
##inen
##ogie
##onet
##ota
##overs
##sma
antibacterial
augustine
backbone
balears
blazing
bombing
carts
competences
continuum
crocheters
demonic
distributes
fortresses
franceses
heather
hindi
inmobiliarioparticulares
ipi
leafy
lightening
losinj
morgan
negotiated
novi
peters
powdered
pronounce
sect
seer
spiders
standardised
testified
thumbnails
transmitting
vitkova
welsh
yves
##etto
##fu
##furt
##gin
##gratuitentreparticuliers
##live
##ntino
##rators
##rley
##root
##tet
##trol
aquila
artisans
attendees
axled
banknote
benevolent
betrayal
boer
compiler
compromising
concluding
cordless
cyclic
discos
djerba
ecorider
emmanuel
enso
envelopes
holstein
hype
imperialist
montgomery
mooring
negotiating
nipple
nourishes
oiled
orphans
packard
persist
referral
sacks
safeguards
salvia
seahelp
strauss
tanker
termini
thicknesses
transverse
wheelbase
##acle
##amped
##bath
##col
##deck
##face
##nya
##ogical
##oh
##particuliers
##rology
##some
##stown
##trant
##uto
1881
1891
451
aero
anuncioseuropa
broadly
chiriqui
cloves
doubleclick
fir
futuristic
gasthauser
genealogy
headline
iniquities
jaws
lloyd
lofty
mocked
monroe
negatively
nourish
occupants
penthouses
preisgunstig
receptive
stardoll
testogen
thereto
tummy
unites
vallee
volts
warmed
##chip
##eis
##forms
##human
##ici
##iger
##lam
##liers
##please
##ride
10m
3°c
acknowledges
adwords
augsburg
b2
breton
cz
dordrecht
franc
fringe
gregory
happenings
helium
hops
imperfections
jerez
julien
koule
lipid
lusts
mauro
molten
oktober
ou
postponed
preacher
recessed
relais
renown
reuben
rites
rytirsko
scalability
sideways
theoretically
unusually
vcd
wikifun
##app
##break
##enau
##gnan
##hp
##jar
##kr
##mma
##plant
##ulous
18mm
235
administrations
advisers
anaesthetic
anguish
annuals
arjuna
astana
attaching
auditing
badoo
beijen
billiard
bleached
cages
calabria
cherish
chester
cl
cling
conditional
consecration
culturally
djs
emanating
esa
ferdinand
gonna
gordon
haul
keypad
miriam
plainly
porter
sicilian
simeon
spaniards
ted
unrest
voip
w97m
wu
##ager
##ential
##ibo
##nted
##pier
##tom
##trix
70s
arched
arrondissement
aspirations
biz
brescia
bulky
casts
croce
curl
edgar
edith
elysees
encamped
fraudulent
highchair
hometown
huila
ja
julie
lends
lopez
michiel
montserrat
nos
observance
parisian
pathology
pics
shechem
sleepy
specials
transcoding
unaffected
##balls
##dized
##mix
##new
##onisation
##tures
##ytic
##yu
##zio
aka
ambato
bernhard
bobby
bounds
c1
cas
creatine
diaphragm
dismantling
estrogen
eucalyptus
greasy
greenwich
halves
hanfparade
headers
heathrow
hranaty
icy
josiah
marginal
moderator
nobles
proton
relays
reluctant
resignation
resilient
rhein
saxon
screened
stairway
swimmers
trumpets
##bard
##eak
##erated
##fd
##hoff
##ively
##lence
1897
375
accomplishment
airflow
arenal
asp
caledonia
carton
collaborations
cures
diagonally
doo
dorsal
dragged
earl
edwin
empowered
fairytale
fulfills
investigates
queues
ratios
reactor
regression
scrub
shielded
shortcomings
simulations
stopover
submerged
substitutes
supervisors
surrendered
tighter
valverde
wildflowers
##agent
##bled
##cina
##enter
##euse
##eux
##ncing
##tian
##trate
alhambra
andrews
andros
beirut
boomerang
bridegroom
carpentry
cascade
cladding
commence
contemplate
contraction
contradictory
disneyland
duarte
ev
expulsion
georgetown
johnstone
lance
lifelong
ninja
olympia
poly
rink
rotated
selva
situ
spines
squadron
swipe
tendering
textbooks
traumatic
upscale
vga
waffles
##ape
##banks
##enic
##gler
##gracht
##ifications
##itic
##mc
##nding
##nger
##oto
##xt
##zzi
157
179
560
academie
alma
altering
aveyron
avila
baleares
beaver
bullock
cgi
chick
cohen
deficiencies
dermatitis
disappearing
distracted
eczema
explode
extraordinarily
guild
hare
imperialism
imprint
init
lessen
lte
musee
neural
offs
orphanage
probes
reborn
robbed
shear
softener
subdued
successors
swatch
symbolizes
techno
thereon
tres
tribunal
veritable
vicious
vogue
votre
##ays
##ently
##ioned
##rails
##rer
##rita
1558
applause
auslandimmobilienportal
characterize
condensed
divides
exemption
gilbert
golfers
gtld
hither
homely
ids
influencing
irregularities
ist
italians
lecturers
lifestyles
losers
managua
manners
marek
nicer
outboard
paced
paralysis
prevalence
profoundly
prosecution
pws
sank
shoppers
sos
staves
stuart
tanning
tgv
tille
transmitters
ws
##ception
##chau
##cks
##glia
##hol
##iser
##isto
##jp
##kerk
##lique
##oped
1805
1848
265
androidtm
busiest
canceled
cochlear
commenced
coolbox
dragging
esoteric
franciscan
fused
gaelic
graz
herds
illicit
indifferent
kyrgyzstan
largo
lettering
lu
maspalomas
measurable
milenium
moorings
numeric
penal
pizzas
rumors
savoy
sdk
secretariat
shortages
signifies
sociology
squid
stabilized
tesla
timpone
unlocked
vacances
vito
##amar
##cino
##course
##ection
##eners
##gro
##mt
##ssie
##sto
abruptly
alternately
antoine
anus
astral
bins
capricorn
catastrophe
cherished
discontinued
distrito
empress
exert
flange
flattened
handing
hydraulics
icing
illusory
isere
jostovka
jumper
juvenile
komarkova
laval
mixers
mona
netflix
odor
orthopedic
oud
paramaribo
pears
provincie
rapture
sponsorship
tit
unsuccessful
vanished
waterway
youda
##600
##ange
##fried
##liest
##ners
##ntes
##oop
##opic
##rva
##vana
##weight
##zin
airfield
ally
attorneys
batches
bethel
chede
cooper
corrugated
cyrillic
developmental
doings
fro
grieve
guaviare
jay
lineage
lumber
marin
menopause
pebbles
polls
puppet
rumours
sarria
sg
skateboard
superfluous
superiority
uva
zedekiah
zeitung
##dong
##garten
##hoeve
##lib
##map
##model
##ook
##orp
##oslotto
##paper
##plankton
##ringen
##stre
##urn
##zas
171
1⁄2
316
620
adria
aerobus
alessandro
anguilla
babes
baseline
bothered
brownish
cabanas
chandelier
deedat
diligence
djibouti
ecommerce
fist
fortuna
gabon
hybrids
incorrectly
inflamed
kindled
lbs
marti
prolong
rector
rimini
sheraton
silos
sling
snelverkopen
soothes
subscribed
venerable
whisper
##anes
##ango
##around
##crat
##drop
##four
##ntly
##ocytes
##pack
##qui
1892
244
470
888
adoration
allrounder
arisen
asterix
avg
brindisi
cacao
carina
cava
chlorella
curvature
docking
dremel
eclipses
factual
fortifications
gdansk
ghz
grandeur
grandma
granules
hamburger
iec
instability
kilogram
levante
menstrual
microorganisms
orbital
otjiwarongo
overheating
phi
plexus
samurai
sediment
threefold
tunisian
volkskrant
vowel
zeus
##eet
##itor
##plug
##that
acetate
alkmaar
annoncesimmobilieresgratuites
ay
bloodstream
blower
brewed
cac
canoes
chant
chen
cherubim
conflicting
congolese
cores
crypto
damper
defiled
environmentexceptional
ericsson
excessively
flushing
foundry
gideon
grouping
hearkened
illegally
johns
kerry
ki
kinky
lilac
locality
marketers
marres
mauritania
methyl
moderately
mundane
nakedness
oaxaca
opus
oranges
paraiso
podcast
renunciation
shrinking
thorn
thyme
toughest
townhouse
tubewolf
uptrends
##ago
##ever
##gre
##hart
##igny
##nitz
##put
##rint
##tica
##tronic
augmentation
berber
biogas
booty
breaches
cayenne
consolidate
corona
drawback
eclectic
existential
gauguin
germ
grabs
harvard
hymer
invade
journeyed
linden
lottoplus
melancholy
mindful
niagara
nirvana
nourishment
n°1
opatija
palacio
pinterest
rd
ripped
rushed
scare
slamova
tended
tropics
vanguard
wa
willy
xii
##gm
##itt
##ivate
##keeping
##mini
##nology
##proxy
##rdo
##rico
##rilla
##tery
##uru
##yon
002
205
242
300m
530
580
accountability
agustin
ants
applicator
archeology
attendant
brittle
broom
brushing
catcher
centred
chez
crushing
ect
escondido
filament
frustrating
gervasi
giulia
hearty
horizons
implantation
incur
interestingly
interxion
manicure
offended
pur
rig
rioja
salute
sanctify
slipping
stools
strife
swellendam
unleavened
unreal
vanuatu
zirconia
##bilities
##burgh
##chap
##foil
##gres
##llon
##oned
##retta
##sex
##ssy
##vil
amplification
clickcasa
comfy
concession
dipped
dp
ducts
enthusiast
ese
fabre
frontal
funnel
geesa
gotland
insecurity
marinha
marxist
mesto
notebooks
oba
ointment
peugeot
phenomenal
pico
pivot
priestly
producten
ramon
thru
utopia
viterbo
xiv
##cope
##doc
##gali
##graphs
##heet
##hya
##ike
##lai
##metry
##ndra
##nm
##oire
##plasty
##rios
##vera
2200
275
30pm
backlight
cobra
complaining
construed
convictions
cristobal
cultivating
delicacy
devoured
drafting
eccentric
embody
endemic
enviable
expatriates
fabian
fencing
gauges
genuinely
gto
harbours
harden
karel
learners
martyrs
moor
mosquitoes
outing
pavel
phishing
rejoiced
resins
restroom
stratford
subscriber
tang
temptations
vie
wallets
wrinkle
##1000
##aring
##clusive
##eno
##gies
##glass
##hima
##iting
##kh
##mble
##mute
##ody
##order
##riot
##sol
##space
##thy
##tip
007
2a
atmospheres
ballot
cemeteries
coaxial
collaborators
dover
faded
fiorentino
frightening
hinduism
hiroshima
hopeless
ilias
inhibit
insomnia
intercontinental
internationalization
ipanema
kampen
kern
keynote
lange
leaflet
m5
marmitek
mobil
noordwijk
overflowing
qfcuh
radiating
raids
recourse
segregated
semester
sharpness
slowed
splitter
taranto
travelogues
verdi
wrongly
ypagesaustralia
##holders
##irl
##neck
##ssi
##vant
##zers
afternoons
burgers
chatel
circa
dangle
edged
eindigen
elbows
empowerment
eureka
fasteners
fortis
gyms
ineffective
infiltration
jacksonville
julius
liabilities
mound
murals
nautilus
necropolis
offense
optimizing
palestinians
pesaro
piety
quarry
radiates
scanners
slows
supernormal
supersoul
unauthorised
ventilator
xinxing
##cede
##cken
##cover
##creen
##otch
##ports
##roth
##rov
##score
##sle
##vading
##vity
accesses
accordion
andresovi
assen
augusta
baccarat
bestseller
bolsheviks
bows
brooks
castration
chan
conceivable
contemporaries
eds
empower
excerpt
foreigner
gimp
haman
isola
judea
keno
laurel
loudspeaker
lukewarm
matte
medically
melamine
mistral
mowing
narrower
nutritionists
override
parasitic
principe
refining
roadside
saturation
scrolling
southampton
spanning
steels
stimulus
sunk
takeover
teamviewer
trotec
untreated
v8
webcams
wedge
##afa
##aming
##bil
##boats
##ieres
##itate
##lov
##otte
##otto
##ously
##part
##rik
##tate
##vsky
176
4m
anunciosinternacionales
attaches
clickcasaeuropa
cloak
columnist
condo
consolation
cortina
educators
eraser
evokes
exhaustive
fantasies
favored
formalities
grasslands
gw
homosexuals
irrelevant
jigsaw
laundering
lisboa
macerata
markt
maternal
nina
octopus
optimism
pea
redeemer
redirected
reflex
reg
regatta
revolving
roberto
soften
tamandare
tauern
valencian
watery
ypres
##based
##dl
##esh
##issa
##kle
##mad
##ntal
##pd
##physics
##rique
##sf
##tional
##uating
##wen
1024
164
169
acknowledgement
alderman
alumni
aperitif
attributable
clover
conveyed
corts
crafting
diversified
esp
figurative
frederik
gulls
hydromassage
infotainment
jude
lieutenant
liturgy
lone
marieke
mirrored
montepulciano
newport
nostrils
patchwork
pathogens
periphery
pisos
pomarinho
pragmatic
preferable
pulses
ridden
scientology
shanti
submissions
thrones
transparant
undisturbed
ungodly
venderecasainglesi
vests
##anga
##eers
##eye
##gence
##oos
##player
##server
armored
atv
avast
ax
bankrupt
baptised
binaries
bodywork
coincide
dijk
dymo
eddy
elohim
eure
explosives
fiberglass
fornication
garni
grocers
hyde
hyundai
kastro
lin
lucrative
lucy
macoris
magnified
messy
mugello
nrc
oise
pol
polite
populaire
portray
rejects
rot
rushing
sack
saone
sexes
stabilize
superbly
tackling
transmits
tweets
wholeness
xerox
##eling
##iges
##ivism
##nau
##ntin
##rusive
158
173
1894
194
amman
aobo
brooch
busses
calibrated
chaitya
coefficient
descriptionmagnificent
dissolves
doctorate
eeprom
emily
excellently
glossary
grieved
harman
hind
hymns
juicer
medellin
natura
opc
pantheon
salta
shouted
t3
unintentionally
verge
violinist
webster
winston
zarma
##8m
##bate
##bourne
##chia
##cycle
##huizen
##igen
##koop
##lder
##metic
##nu
##rim
##rode
##uropathy
##urope
##vies
1883
accommodating
acquires
alliances
annexe
aroused
biochemical
blurred
bosom
casio
collaborated
compliment
cunnilingus
disciplinary
divorced
drills
enquiries
environmentpleasant
frankly
golfing
gordo
ignoring
inline
interpreters
kapli
koi
lad
listens
mahal
marmaris
mayors
mediator
misunderstood
nudity
numbering
opuzen
oro
overhaul
persuaded
physiology
pict
potentials
reload
rincon
savour
sci
seeker
shekels
stefano
sucked
sweating
trainees
vases
viewpoints
vigorous
whereof
yummy
##aise
##icles
##icon
##illon
##nest
##night
##onie
##phos
##race
##rid
##site
##xa
000x
1024x768
3500
armoured
artisan
atlantida
auditors
baba
biologically
clement
comayagua
convicted
durban
elena
empflix
expansive
exuberant
foal
fragility
guam
influx
jon
kin
linz
lipstick
manifesto
mourn
ohm
oost
orally
psoriasis
pudding
ross
sander
sentient
spectral
struggled
sue
tattoos
trance
treasurer
umag
whdload
wicker
##anos
##cen
##coa
##dder
##factory
##lake
##nny
##pipe
##poort
##rand
##rock
##tank
##uing
2030
243
adolf
allure
caceres
cellulite
chancellor
combating
convergence
coup
crossover
descriptive
distinguishing
eugene
fertilization
fireplaces
frequented
geology
hinterland
hl
ij
invariably
januari
jerusem
kiel
limb
meditations
mogan
molded
narino
printable
proliferation
ravenna
recruited
robes
scarcely
sewer
sorrento
str
swans
tutor
ua
universitat
variability
waterbed
whereupon
wineries
##coming
##dora
##eam
##foot
##ondo
##pr
##ructure
##tracted
##umb
##vice
admits
androgenic
anglo
attaining
castelo
cleanses
comeback
couches
dizziness
drains
endorsed
epidemiological
genome
guernsey
hallmark
incorporation
inseparable
ketone
kuka
lattice
leaking
liberate
morals
mural
nat
necks
popup
presidents
progresses
rashid
reacted
recognisable
recompense
refusing
reminders
rw
sanatorium
spoons
squared
suspects
tiltrotator
transmissions
unmistakable
##070
##guas
##lates
##nico
##raat
##rests
##sea
##tf
##vu
6°c
airbags
anuncioinmobiliariogratis
assad
bilbao
causal
clerk
cooks
crews
danny
distilled
distressed
effected
envisaged
graham
gratisvastgoedadvertenties
kardashian
kensington
massacre
mecklenburg
nec
nes
neumann
nightclub
nostalgia
offence
olancho
ook
parma
plagues
plea
portalinmobiliariointernacional
prefabricated
prefix
railing
recyclable
ripping
sbs
selfishness
spies
staring
sw
termed
thompson
undertakes
##adi
##asing
##coin
##dication
##dx
##iard
##nomic
##train
##yama
154
1884
199
astounding
beheld
berliner
bertrand
bile
births
borgo
boxer
canaries
choco
consumes
contagious
cop
dismantled
domino
draining
emits
evolves
funky
garuda
gels
gemmotherapy
hacked
holdem
holguin
inhalation
insecure
intranet
landings
loudspeakers
motions
mute
nag
paella
pax
polders
profi
renders
softens
styria
subordinate
sul
t4
tannins
therese
tortured
troy
turkmenistan
##5m
##cer
##elo
##enia
##hari
##iques
##laas
##pia
##pton
##rides
##uard
##umbs
11mm
3x
800x600
abrasion
aleppo
allergens
avnet
broek
cantabria
complained
cracking
differentiated
duly
ecophon
georg
grimaldi
guiana
hudson
hurts
indifference
joskin
kendall
kumara
laundries
lied
mia
molds
organically
partenaire
payload
pf
prejudices
qr
raj
rite
terrified
thunderball
vaulted
viostor
wheeled
##chin
##dogs
##nched
##rize
##uche
##uren
##uries
airbag
amounted
angled
appealed
bidding
blindness
bodybuilders
brugge
ci
contend
decentralized
dependency
dialects
dictator
eel
emergencies
epilepsy
fearing
fetus
figueira
glittering
gpu
heist
iberian
implicit
ind
invoked
kernels
maximise
mbr
mesa
micron
ministerial
nieuw
peek
plenary
pneumonia
polka
proofs
prying
qualcomm
recalled
rheumatoid
scout
slab
soprano
substitution
undercover
vegans
veracruz
viktor
voorspellingen
weekdays
whip
wiki
wpa
##bha
##buntu
##cock
##duction
##eds
##eto
##ilities
##kirchen
##nat
##step
##uba
##uding
##uds
##uten
##uwe
##vr
##xie
174
abel
aisne
anunciosinmobiliariosmultilingue
anw
arte
augmented
bel
circumcised
dijon
dk
electoral
endlessly
epidermis
exhibiting
galvanised
glamping
immoshopping
indianapolis
inertia
kortrijk
lambert
marinke
mri
noteworthy
onyx
owls
panasonic
portaleimmobiliareeuropa
powerless
profiling
questionable
rhino
screwdriver
serena
somalia
standalone
tightness
torino
urbino
vermeulen
vub
woocommerce
wwii
##aft
##cloth
##ibe
##ienne
##inck
##modal
##pical
##pment
##rec
##tool
010
adversary
aided
ailments
alles
amy
apnea
arles
asilah
azores
caterpillars
cocker
cocoon
delvita
demos
flywheel
gloryhole
grail
guitarists
hammocks
hannah
hug
immoral
kifisia
kinetic
klaas
kostenloseimmobilienanzeigen
laughs
legions
louder
luther
methodological
mitte
nathalie
ofcourse
pda
repurchase
shedding
sophistication
sorrows
sourced
spruce
squirting
strothkaemper
symphonic
taverns
titjob
##cala
##fie
##ider
##parts
##written
##wski
1080p
1250
18k
212
232
bastille
bene
blinded
brushless
bullguard
catalogs
colosseum
demise
dictated
ecclesiastical
elk
emea
flaw
galtur
geometrical
herbaceous
hierarchical
hypocrisy
hypocrites
imaginative
inmobiliariaseuropeas
mahogany
martyr
mcdonald
mei
mitsubishi
northeastern
ordinances
overtake
recorders
sellingmyhomeabroad
sustenance
transplant
trenches
uniting
vastly
wtm
xavier
##ances
##bine
##brate
##dles
##imetre
##lips
##lized
##num
##otic
##shan
##zac
100sqm
atc
binds
cain
caraibes
celery
congratulate
dele
everest
extremadura
greenhouses
hemorrhoids
hinged
jacks
kerala
koen
ledger
lowlands
malwarebytes
mombasa
msn
niet
pamper
payroll
predefined
puebla
qlyque
risaralda
splendour
stimuli
telecommunication
tendon
trivial
violated
vzw
##bps
##disk
##hans
##ivator
##mpa
##nsis
##ronic
##rville
##troke
20mn
245
ammonium
amplifiers
antiquarian
awhile
ayurvedic
boldly
bpa
caldera
cali
conserve
cooperating
correcting
crow
cystic
destocking
disrupt
genk
gutter
handler
haunted
impedance
internationaalhuisverkopen
intravenous
inventive
jurisdictions
magnolia
metamorphosis
migrating
montmartre
mumm
pid
pops
rostock
sanat
sativa
schmidt
showcases
skate
stabilization
teamwork
tubs
viennese
##agne
##brunn
##cases
##clave
##eos
##fusion
##gina
##nar
##ows
##thest
##trainer
##tting
##tur
178
1865
2m
alchemy
anarchist
anyhow
appartement
beetles
beseech
biting
butler
carp
ces
computerized
courtyards
credible
crypt
dependable
derby
despise
doves
echoes
edging
eger
guilders
immokleinanzeigenkostenlos
irritating
jn
leaderboard
lockable
maintainer
neteller
overwrite
pardon
rejoicing
reproductions
resembling
retrospective
reusable
sativex
sayings
scratching
servo
shit
steaming
sunsets
tanger
tensile
tilted
uw
vueling
##eme
##endorf
##ieur
##lance
##rogen
##ucci
##ype
167
1875
anuncioseuropeos
apricot
articulated
authoritative
balaam
berths
cca
claws
crimson
cumana
dealings
deepen
denver
designate
devoid
dng
drnovice
endeavors
gi
immorent
incapable
intel®
internationaleimmobilienanzeigen
koga
lausanne
mason
nationalism
nevis
nika
pleasurable
recreate
reporters
reproducing
resonate
schloss
stucco
taketh
##iler
##lb
##llis
##lution
##mco
##rug
##vius
159
agribusiness
amulet
anniversaries
anthem
apparition
billy
bites
cabernet
cb2
clutches
concupiscence
copacabana
counterweight
crank
deposition
elacin
foxes
galerie
germanic
helder
henderson
hidalgo
industrie
intensified
intermediation
jeffrey
jonas
kerk
macedonian
mosul
outings
plugged
poo
resumed
roaring
spindle
stark
tigers
unforeseen
vantage
withhold
zechariah
##ddle
##grass
##haling
##iant
##ilia
##ilising
##ision
##listed
##lter
##mgr
##mit
##ogenic
##oscope
##owed
##provider
##rem
##washed
161
1840
268
aliases
allowances
atacama
attribution
bandera
benefiting
cathedrals
clasificadoinmobiliariogratis
clinically
deserts
desolation
dominica
embarked
embryos
extrusion
fia
fischer
frenzy
galapagos
gula
holly
huelva
hyperlink
innovate
kathryn
kitts
lashes
liturgical
meaningless
modernism
odyssey
owed
parlour
perpignan
persistence
pim
rabat
resurrected
salto
samos
sevres
shawls
shipyards
siblings
smelling
spike
subtitle
telegraph
thankfully
trastevere
ucl
warren
wilhelmina
zebedee
##ads
##balance
##dex
##erne
##formed
##hah
##item
##kko
##orst
##scale
##uz
##working
1866
accusations
ans
aso
avr
barbeque
blargan
brine
cartagena
combisystem
comforting
dispensation
electricians
gardener
glitter
handicraft
hercules
huesca
intl
irc
juniors
kaprun
lempira
liposuction
malfunctions
marches
matthias
migratory
mindset
mpg
natures
ojochal
opener
profane
progeny
prudent
queensland
referenced
rhode
savoury
sopron
spaceship
stef
streamline
toothbrush
tren
viscose
vivo
vrije
yuyuan
##150
##bol
##imi
##iofillo
##iu
##jf
##kat
##ket
##kw
##ndorf
##onizing
##own
##phere
##tten
##uco
##user
##vaux
##vine
184
acn
arduino
atop
bvba
carlton
ccc
chania
chlorophyll
clasificadospisosgratis
cnn
colmenar
countdown
creole
dia
doubling
dubious
earnest
evils
experimentation
facto
famed
franca
grading
granma
grate
hainaut
heartbeat
kidnapped
latency
marcos
merits
microphones
mousse
myqnapcloud
nemo
nephew
nietzsche
objectively
partake
perforation
pinot
props
reformation
rotors
runtime
s2
stronghold
stumbling
sunbathe
sunflowers
tails
trespass
tuner
videophone
winrar
##aver
##ctum
##esville
##ih
##itation
##lich
##lify
##oord
##ope
##rna
##rne
##tier
##ulo
##w71
##worms
##xon
2100
abbot
anunciosinmobiliarioseuropa
arenberg
beamed
boca
businessman
campbell
capernaum
castel
cheat
chewing
christoph
cleveland
clint
coherence
cordaid
corrosive
creed
crimean
dangling
darling
dictionaries
endocannabinoid
enmity
floodlight
gc
greg
hansen
incarnate
inception
informational
leash
mafia
marta
mastering
nightly
oats
paula
pornography
projectors
sharpen
soaking
stripping
syracuse
technogym
toddlers
tooluka
traceability
usenet
visas
whipped
za
zigzag
##centre
##cting
##ende
##erre
##fic
##ggy
##hrer
##liness
##moto
##related
##rez
##tl
##tlement
182
198
512
accuse
adriana
airbus
ajax
benedictine
bestow
bewildered
bib
biofuels
c9560
cornelia
crate
cu
enquire
erudito
exaggerated
excuses
fictional
fractures
grated
gripping
hereinafter
hewlett
hm
igoogle
industriele
inetd
intermediaries
legalization
limoges
mediaeval
messina
migrant
modernized
mussel
navona
obligated
orderly
overlapping
plitvice
pretoria
puente
raging
reused
rinsing
screensavers
siberia
stew
synology
tehran
tor
torso
wonderland
yen
##ases
##bl
##hoot
##marine
##person
##personal
##smith
##theater
##woven
##yck
aerodynamic
aerosol
affirm
basse
bedside
behaved
biker
blasphemy
boundless
brasil
carriages
cerebral
circulate
coaster
concessions
cyrus
d3
deduction
depict
deviate
eros
exhausting
fishery
gale
groom
hairdressing
indexes
intentional
intro
investigators
jaco
lecce
linseed
mao
nobo
nomination
pft
plentiful
plesk
prohibit
quietness
reconstruct
refrigerated
sculptural
sentiment
shakes
shewed
timeframe
tx
unbearable
unsaturated
wt
##aches
##apist
##count
##h30
##ining
##kb
##otherapy
##pathic
##uting
##zare
1868
1879
490
642
arrogance
biosphere
blacks
bolshevik
bora
canyoning
che
chilli
colonia
coma
curated
dao
declaring
diversion
doubtful
esveld
ezra
favoured
fertiliser
flickr
flipchart
fowl
g2
galley
ger
gymnasium
hasten
hazel
intercede
jaap
karin
kart
laban
lacquers
narrowing
nordhorn
paperboard
particulate
pests
pivotal
puerta
quicktime
scaled
slaughtered
swore
tramp
tumour
v7
vacancies
volos
vp
yu
zaventem
##cpl
##dienst
##from
##ilizing
##image
##nous
##oked
##oor
##pair
##pher
##scher
##sheim
##sum
##wards
1920s
29°c
admiring
alms
apparatuses
bakers
brilliance
captives
corsa
croissants
crusade
dag
distortions
evo
ferrous
fillings
guessed
horsepower
hpe2
inscriptions
internazionali
itajaa
joyous
molding
moods
persuade
precursor
rained
reconciled
revisions
roomsliving
roster
schooling
sprite
suburban
telnet
thinkers
trois
walkway
watersports
wipes
worthless
##4m
##adena
##anne
##cycling
##lain
##meal
##nach
##oric
##rcy
##rh
##rior
##yde
188
absorbers
agony
akaija
bitrate
bl
commemorative
cvs
dmk
dsl
dv
francs
freud
gamers
gout
jetty
kicking
meticulous
michal
mommy
peanut
percentages
petal
policemen
refinancing
roar
rochester
saintly
schubert
shin
showering
smitten
stationery
stopper
strangely
supervise
tommy
urgency
usefulness
virgins
watchers
wearable
willa
wrenches
##aiah
##aut
##buster
##camping
##copic
##cula
##edia
##etting
##floor
##gles
##groups
##iol
##ivation
##laim
##lma
##meo
##pathy
##sitive
##turn
221
4km
90s
authorize
beacons
bringeth
cda
chilly
clarified
commanding
counselor
crocotube
dino
ebola
escaping
faqs
fileviewpro
freeware
genitals
gibson
gladness
haired
hammers
har
indie
inhibitors
lloret
lures
monterrey
neoprene
omnipresent
pencils
plankton
plums
polluting
practising
racist
rude
soundproof
staining
startups
tentacles
textbook
thirties
tumbler
urges
vieux
vipre
wedges
##acion
##ador
##agen
##ardo
##cale
##chester
##design
##eat
##entes
##fate
##gear
##gnac
##graphies
##hunter
##ingham
##liner
##mode
##ood
##tance
##tted
##welt
9a0
aboriginal
artificially
avoidance
bastogne
bsm
cambogia
caretaker
cloister
clown
commercials
compliments
contempt
contributor
cousins
cunning
discard
discernment
entangled
flax
gravitational
guadalupe
guajira
gusto
hairstyle
hostess
immoanzeigenkostenlos
implanted
inmates
jihlavou
loaves
mae
merchandising
northwestern
practised
puberty
puff
revu
riots
rubens
scams
simone
smoky
sprayer
stora
surinamese
swov
syllable
toning
tripod
unlocking
uplifting
vcr
x11
##beth
##cad
##crats
##dro
##ece
##icing
##illas
##lity
##mento
##nial
##obe
##oek
##onist
##osphere
##pet
##tream
##uber
005
12v
1872
301
absorbent
agnes
alcove
aortic
argentinian
aural
beaming
blanche
braces
bursting
chased
comfortfireplace
confiscated
countenance
coveted
crocheter
darkened
dieter
dong
dormant
elm
embellished
err
februari
firewood
fluffy
formidable
gov
graces
groep
hamlets
hierro
hortimax
installers
kain
keratin
kruklanki
lactic
liars
maneuver
mclaren
meticulously
nanda
orientales
parables
pentagon
photovoltaic
planks
psyche
reminding
sateen
scepter
schematic
scorpio
scribe
sen
stalk
stallions
strasse
tipping
tuck
ulcer
una
underestimated
universiteit
weaken
wills
wright
##aker
##bau
##cles
##eting
##fast
##fax
##finder
##gating
##icos
##minate
##mins
##psis
##pu
##ucible
##usal
##zie
10000
1873
annonceimmobilieregratuite
ars
bacterium
beau
beet
bot
boulder
buitink
burglar
catalytic
confidently
cookery
crates
daycare
deepening
deformation
doka
dummy
dumping
emigrated
escapes
evangelists
exiting
fest
forskolin
grenadines
grotto
herbert
hopeful
joys
keer
lebanese
minsk
modena
niko
nitrate
ode
pedagogical
philharmonic
profitis
resigned
rotten
sardines
shopper
spikes
squaring
stan
stride
supporter
suunto
underlined
unfolds
waiter
wavelengths
weighted
##bronn
##cable
##diesel
##dp
##fle
##gora
##heses
##keepers
##landa
##llino
##lz
##mming
##muting
##nam
##oku
##owski
##peed
##quest
##sey
1876
4x
alphabetical
anita
atex
auteur
bandeau
batavia
behaves
carbide
chelsea
chemist
cobbled
cots
czk
delicately
dl
earlobes
endured
felipe
filognosy
firmness
forage
gazebo
grinjawa
gypsy
hearth
honors
juanra
klaus
lethal
liners
lubricating
lyrical
magnify
martino
monastic
nettle
nuances
numerals
ordinate
papal
penetrates
pestilence
proposing
reggio
sassari
sauerland
seminary
shouting
sleazyneasy
smiled
squirrel
stray
summaries
tenderness
torsion
tuesdays
uncategorized
whoso
willed
xmas
##cars
##cq
##gebra
##iar
##iative
##inn
##irk
##iveness
##lang
##lst
##nagar
##nism
##rche
##rdes
##yra
177
adele
aros
barbecues
bayer
brackish
businessmen
c2
constituents
crunchy
downstream
ecole
ellis
endings
flue
garnet
geothermal
grim
haccp
imbalances
incomprehensible
intellectuals
koopwoningeninternationaal
lavish
lou
microsoft®
nationale
operas
ordinance
pauline
pingback
pkk
rectification
redhat
refnr
rejecting
restaurace
rgb
roofed
sharepoint
simulated
sla
subtly
sucks
tai
tanned
tougher
transferable
uncomplicated
universite
vale
wafer
watcher
yielding
##beds
##bres
##cup
##gates
##hearted
##nter
##number
##open
##rics
##rino
##rion
##rted
##tura
##udi
##vation
##ystem
abolition
adhering
amour
amplitude
anime
bald
bleu
blogging
c2150
cabaret
carotene
citrix
cloning
colossians
complements
computed
consequent
criticized
csf
deli
diaz
disguise
doeth
drone
dung
filthy
fontbrune
fundamentals
hanger
hazelnut
imperfect
interacting
ioannis
kobe
kris
latinic
malo
micah
mosques
mykonos
nueva
ombudsman
oostende
outset
perched
perez
professionell
propelled
pulley
reims
resistors
savor
shimmering
sion
sonora
spears
steeply
succeeding
tablespoon
vouliagmeni
waltz
watered
weser
yokohama
##8010
##9m
##aru
##bike
##erk
##fp
##friendly
##gri
##hom
##lada
##orte
##otel
##planet
##pn
##sford
##tc
##tested
##times
##trom
##uble
##utter
##viewer
##wr
189
ameland
annuncigratisprivati
berkeley
brighten
calgary
cancun
cleanser
confessed
counselling
crescent
disguised
docks
drunken
dwellers
gallen
giraffe
github
gpl
gtc
gu
hostname
internazionale
intrusion
jamie
josef
knocking
liar
masking
mercurius
noto
ntsc
overwritten
punic
realising
repay
rsync
seaview
shea
speaketh
stedelijk
ticks
unqualified
wafers
washes
wednesdays
ww
##002
##020
##collection
##fels
##flection
##fts
##gion
##kai
##kie
##lim
##not
##nting
##oms
##ough
##sphere
202
ante
archived
bailey
biotope
broaden
cakra
cigar
competed
conquering
crawling
csv
definitively
dissertation
drawbacks
empathy
excludes
extravagant
f3
ferro
fo
fontana
fundraising
grieving
guarding
hardship
hotmail
hugely
knizata
logger
logis
loosen
margarine
mendiga
motorbikes
multimeter
murray
nativity
norfolk
obsession
orientated
pecs
plead
poorer
reeds
repented
salaries
sepulchre
sequential
soho
squeezed
std
svn
terrifying
tilting
tiring
transplantation
trentino
trilogy
vodice
wortundtat
##av
##bait
##bp
##bsd
##cell
##child
##gee
##idon
##itudes
##lsen
##quera
##ulsion
##ulu
##unch
##vious
##xed
228
9000
adagio
altagracia
amphitheatre
anecdotes
assimilation
astronaut
barge
bekijken
belleville
beneficiaries
bibliography
botox
boulogne
cannons
caqueta
catastrophic
chestnuts
clarification
dalit
dentures
detrimental
divinely
ee
ek
elemental
emilion
fedora
harmoniously
hp2
immigrant
intuitively
izmir
jukebox
kargicak
legion
levelling
liposculpture
marais
merges
mindfulness
minions
opal
orcia
ottawa
partitioning
pawn
pianos
predicts
saliva
satanic
sended
sidebar
splits
sting
summerlin
thunderbird
tml
ulrich
unwilling
utilisation
worldshare
##atable
##cine
##edes
##hini
##hm
##ict
##kia
##lating
##lgar
##lini
##nja
##photo
##rill
##stro
##useum
##yne
1856
191
affords
bowels
buckwheat
calmly
canberra
canst
christi
clermont
cue
delegate
e3
erdogan
esophagus
factually
firmer
flint
frederic
impacted
inaccurate
intelligently
jeanne
jupik
mantras
materially
minderhoud
mucous
nurseries
nz
pals
parallels
rebound
reversal
scheldt
sportswear
stricter
tastings
tiredness
unnatural
wingspan
womos
##ander
##bid
##boxes
##burst
##cellular
##eel
##erico
##erver
##inas
##lba
##leen
##mei
##pose
##rex
##rius
##ropetrovsk
##ructured
##state
##t2
##wives
385
7mm
a5
adac
alexa
amazement
ambulances
annoncegratuiteparticulier
anorexia
apartamento
b12
barnabas
bellows
bids
braided
cbm
collage
collisions
degli
diodes
dronabinol
elsa
embodies
embroider
emigration
entrepreneurial
eset
forts
friendships
initiates
inwards
llobregat
megadrive
microbiological
moritz
naomi
narayana
outermost
overijssel
parco
passo
pigmentation
replay
resveratrol
rifle
ripening
robotics
romeo
sabana
shannon
sharm
sizing
skeptical
sourcing
storehouse
stumbled
swam
unbelief
vottem
##chaft
##iston
##ogen
##phonic
##plaats
##psy
##shaw
##xc
1050
1871
820
8m
affiliation
alpe
antibes
barrios
bergamo
brad
cameltoe
canine
characterization
clipper
consequential
dictate
dire
distraction
earns
encompass
exalt
explanatory
exploded
fractal
fuji
giveaway
herbalgem
infused
inverted
lakeside
lf
maneuvers
mayonnaise
mentors
merced
merlo
monti
neuve
odours
outpatient
phyto
resellers
sauvignon
sega
sichuan
sock
specialization
standardization
steeped
stellar
symmetry
tactic
udp
ul
unidos
uninstaller
witches
yhvh
##att
##ceptible
##fk
##hale
##information
##ishing
##lce
##lent
##omer
##online
##ower
##rew
##rise
##sti
##tched
##vista
1815
1877
1878
24vac
390
5d
actuality
ado
afrikaans
annoncesimmogratuites
arrogant
athena
boosted
brasilia
bump
cramps
darius
diaries
discoloration
durango
eaters
ein
esteemed
exposes
gast
giorgio
hairdressers
horticultural
incarnated
insurer
intensify
intra
jehu
leah
magenta
merino
millimeters
minimized
modesty
moored
napkin
oat
pancake
parabolic
parades
patterned
perpetrators
petrochemical
postpone
quinoa
recoverable
regained
saa
sarlat
schumacher
shuffle
sliders
sonar
sprouts
suggestive
sula
superstition
transient
trieste
unrivalled
whistle
ypagesusa
€4
##bosch
##brink
##economic
##erde
##ican
##idad
##iom
##nah
##nnel
##oting
##pango
##rika
##school
##tuting
3a
710
afp
astonishment
auric
blamed
booming
bosses
catamarans
concave
curls
dmc
drafted
draught
entail
fetal
flammable
freewill
guanajuato
iasb
insult
insurers
ivoire
kayaks
kindergartens
leden
libra
lk
lymphatic
ment
mil
navigating
onroerendgoedgratis
prevails
reputed
revolves
rolf
saxophone
shiatsu
sportsmen
standby
summoned
taiji
technic
thor
topsite
vba
walnuts
wrapper
##5m2
##aling
##asi
##flies
##hab
##hort
##ishment
##mily
##nap
##orous
##ound
##pieces
##rists
##rsten
##stick
##tification
##uter
##viertel
##wel
193
224
30m
alia
argan
asteroids
averages
banda
begged
bmc
clones
conseil
cortana
curb
devout
environmentmagnificent
ewals
fingerprints
ganges
gdata
hawaiian
heidelberg
impure
konecranes
minced
moors
pcia
portale
prompts
protestants
quentin
reincarnation
reportedly
repositories
satelite
schroder
seismic
separator
sigh
skittle
sprang
stevens
stoned
successively
sylt
tp
transnational
uitgekomen
uvb
veda
vin
vraag
yvelines
##700
##ciano
##crates
##cum
##eze
##hage
##iety
##lature
##meters
##mmers
##older
##plasia
##sun
##uca
1557
60s
actuator
africans
avatars
barefoot
begging
broadway
carport
coriander
corset
cryptologic
dis
drake
enigma
epa
erroneous
exploiting
fruitive
geneve
hyaluronic
inmobiliarias
inquired
ipods
isidro
ku
labrador
luxor
mimetic
mme
mw
pertinent
petrus
quarries
reckoning
reconcile
rehau
reindeer
ricardo
rightful
salvington
sealant
seductive
spells
sublimation
superiors
surgeries
tajikistan
thessalonians
v6
vidura
virtuous
xvid
##6m
##alic
##aly
##awa
##bex
##chot
##cr
##cry
##dim
##elt
##eurs
##hre
##ivo
##nite
##utat
##verde
##xis
120sqm
501
510
601
acer
adherence
amos
anunciosgratisparticulares
arlberg
babysitter
bastide
catalina
caters
cavendish
cerro
coeur
coincides
collie
cuneo
erections
fisher
gardeners
generals
helm
herwarth
hijacker
implementations
k1p1
kusadas
lancaster
lute
meditating
peripherals
petrified
pousada
proficient
pumpy
rand
rubbed
scouting
scriptural
shiva
tornado
turret
ulb
veneers
yorkshire
##chet
##cinoma
##data
##encing
##kis
##oga
##ounced
##ovac
##racht
##sstraat
##sted
##vaart
##wc
204
206
30am
acsi
adsense
alarming
anoint
aventura
bait
beaumont
biomedical
bipolar
blasting
boch
bostik
buddhists
camouflage
carbohydrate
centenary
characterizes
checker
contra
corinth
cuff
dearly
defaults
donating
epidemiology
extruded
fdj
fulfils
gentleness
gers
glenn
greenpeace
groundbreaking
grounding
heaviest
hotes
incidental
katwijk
legged
loyola
mambo
massively
mermaid
nimes
omnibus
oversee
pescara
pferd
pheromones
pointers
prostitution
republican
secretion
sensorlight
servcorp
shattered
skid
slack
tarot
tearing
terriers
undermine
valdichiana
virgo
waistband
weber
wok
xvii
##ahu
##codes
##edit
##esia
##ggle
##haled
##ially
##iver
##lass
##lism
##mana
##mony
##osition
##pina
##rell
##rillo
##sities
##trick
##usi
1555
5cm
aftermath
aquamarine
arguing
astoria
balinese
biograd
biscuit
bleach
blink
boredom
carrara
climber
clot
condoms
convection
coughing
crooked
cuisineback
cybercrime
deactivated
dementia
drywall
dumped
ernest
excerpts
explosions
footjob
franchise
fsc
glues
groene
heerlen
jefferson
litigation
loveth
lumen
madeleine
manganese
michele
muzzle
natives
nicotine
photographing
proficiency
psychiatrist
ramps
replacements
reversing
rusty
sectional
sidereal
solder
stuffing
stunt
swf
tassel
trasimeno
truma
unanimously
vallarta
vultures
wavy
whirlwind
winged
##1u
##aca
##coloured
##ctable
##dation
##filter
##inants
##oge
##ogue
##sers
##service
183
401
44mm
680
almera
carnelian
cornea
corolla
ecumenical
electrostatic
engages
fleeing
flevoland
fx
girdle
gotico
groenlinks
hurdles
impending
jens
kindred
krishnamurti
lineup
loto
lyme
marines
migraine
miramar
montparnasse
nairobi
observes
passau
perm
qfile
relieves
ruhr
sankt
tearooms
theses
tournai
tremble
unrelated
utilised
watercycle
webpages
widening
woodwork
xv
€50
##arte
##atia
##comb
##files
##hod
##iably
##icide
##idi
##love
##niek
##nville
##odes
##ofer
##phobia
##rift
##ritable
##x4
10am
211
730
90sqm
addicts
ams
arabica
arcs
baghdad
bluish
bridging
castillo
cecina
cheek
constantine
contradict
crc
curative
defenders
depositing
dispensers
doggy
effer
etcetera
expanse
finalists
folic
fragmentation
giuseppe
hates
hedgehog
ieee
illustrious
indestructible
isdn
jakuba
joomla
lakshmana
lena
murderer
nav
oft
ostrich
palo
patras
pave
perry
porters
reasoned
recognises
seiko
selenium
shovel
sneak
spina
synonyms
trimmer
twenties
uttered
valsugana
vodka
widows
windshield
##1080
##alis
##ario
##cello
##edging
##ejo
##kerke
##kum
##lv
##mines
##nage
##nosis
##onne
##ool
##owners
##pine
##rge
##romatic
##steeg
##tres
##voy
##will
1864
333
abiding
agitation
ahmed
ak
apricots
badminton
broccoli
calamity
cctv
chateaux
clarinet
collateral
curfew
curling
dab
diligent
droplets
exclaimed
freeing
furnish
fuss
hanged
harold
heeft
herald
inaccuracies
indices
inexhaustible
invests
ivo
joker
lb
lordship
lviv
magnification
ponce
potsdam
pseudonym
pup
ramadan
senator
sergeant
signaling
sitemap
slipped
slit
sncb
soloist
songwriter
sonship
stair
steadfast
temp
uae
undertakers
unjustly
unobstructed
unravel
ur
vh
youngster
##athy
##ault
##aven
##bees
##berland
##bouw
##cedo
##cision
##dha
##erman
##ervice
##film
##garh
##huys
##mod
##pots
##qa
##rcling
##thing
##uai
##uce
253
312
611
9mm
aggregation
amalfi
amorites
ampera
armstrong
blush
bullets
classify
dependencies
deva
eastward
ec2480u
emo
esc
famicom
fantastically
feces
ffffff
fleur
francais
francaise
gratuito
hautes
horst
hpe0
imaginable
jesuit
kodak
lentils
lorries
melons
metatron
middelburg
millionaire
mingled
noticing
nottingham
oxidative
pilates
prefect
prolific
recruiting
slam
solitaire
sparkle
stamping
stature
staubli
steered
stupendous
tapestries
threescore
turbulence
uniformity
violates
xd
##1m
##alm
##both
##clip
##eli
##este
##ilis
##lbach
##loo
##nomy
##sque
##wto
##xp
##yst
004
1b
3mm
aces
aerobic
aspire
barahona
bernadette
biarritz
bittenfeld
blemish
boars
bursts
calvados
castor
comrades
conjure
dbx
didactic
diseased
donna
ecotourism
educatief
emphasised
eta
exudes
fps
gelatin
guantanamo
handlebar
hers
hin
hurdle
invaders
invertebrates
lys
mag
mmc
mtv
mug
nc
ovulation
pierce
portsmouth
powerboat
predator
predominant
primmopa
recited
rouen
saline
saskia
scala
sheba
signalling
slurry
solves
stricken
sulphate
sustaining
taskbar
tortoise
treble
unequal
utz
vraja
weblog
withered
wrecks
yah
##aken
##amos
##balanced
##bbing
##cchio
##dek
##drome
##enstraat
##hle
##hoe
##ibel
##igent
##kong
##ksha
##nity
##quillo
##rten
##seed
##tants
##uli
##utes
200sqm
anatomical
bira
burlington
cashier
chronicle
conduction
cruelty
deductible
dena
dreadful
durbuy
endocrine
enterprising
esd
estas
eurosong
fenders
frosted
gam
gloria
hathors
heinz
humane
interplay
kappl
leven
manitoulin
markup
mis
montalcino
mt4
notepad
nourished
nsa
obtains
quo
raisins
reacting
rebelled
relive
remarked
restrained
satania
satisfies
siberian
smash
spandex
steward
sulfur
thickening
thorens
threshing
tightened
transcription
twente
typography
unconventional
unsolicited
valiant
verizon
wast
waterproofing
##acity
##br
##drecht
##edo
##emer
##enol
##groep
##lable
##mah
##nette
##onant
##onite
##plugin
##tilla
##wheel
##wm
##wning
186
acc
admonition
afterlife
agreeing
alpaca
alright
amarillassandiego
anomaly
bangalore
belgie
boqueria
capri
checkers
citroen
commencement
compostela
cumin
daf
damping
delphi
depleted
dispatched
drome
duet
ecologically
embed
embossing
empires
espionage
exchangers
fh
flaps
fooled
gemstones
goethe
grit
headlight
heats
immorality
juliana
latent
lelystad
mailed
mannheim
meditative
montagne
nicknamed
oecd
orchestral
particulars
plush
regularity
reigns
relook
resolving
romain
settlers
sinless
snorkelling
socialists
soothe
suffices
troika
vleugels
xr
##9u
##abel
##atical
##fty
##hism
##horses
##iso
##lman
##motion
##naud
##nces
##nin
##rano
##rehensible
##rist
##sland
##sler
##tonic
##tung
##unsaturated
##urf
accountant
amaze
aston
autoimmune
belzec
blockage
botanic
bristles
caller
capitalization
chromebooks
donkeys
drawbar
euroventavision
ez
fetched
grower
hotspots
hydrocarbons
illuminating
ingestion
inlay
lick
mn
morelos
nassau
nd
pediatric
penetrated
perch
perverse
physicality
plethora
proofing
rattan
reunification
robbery
rodent
src
stork
stylishly
succes
supernova
tatras
tinted
trainee
viability
viola
vomit
weimar
€20
##asha
##athos
##bello
##bies
##dir
##fore
##ghz
##hire
##icides
##iging
##lary
##lberg
##liating
##lte
##omic
##oscopy
##piration
##ppen
##rham
##rigues
##rmed
##tage
##tiated
##trum
##urine
##uti
##wil
0001
11ac
1858
1869
187
6a
a7
abbreviated
adrian
afflict
alienation
antennae
aol
armenians
avalon
barry
becker
bestsellers
bharata
breathed
chaim
champ
charters
coke
concentric
dogshow
dorset
emitting
empowering
faroe
flavoured
hoof
horizonte
initials
janet
kalmar
karate
kok
lumbar
medoc
misses
multinationals
offend
primeval
pseudomonas
sanctuaries
sculpted
sprints
spun
suzanne
tame
toned
toolkit
touristy
uni
uninhabited
villanueva
visser
yuga
##activity
##casino
##fill
##inos
##llan
##mir
##nett
##nst
##orum
##oso
##pired
##proj
##rcle
##shen
##tide
##tsu
##util
##uv
##vati
100th
aac
anderen
antimicrobial
applet
attractiveness
backpacker
backstage
beek
buscando
campfire
capitol
cavities
cuddle
daan
deformed
degraded
detergents
dn
doers
epc
ferme
garrison
geregistreerde
goa
gosloto
havre
hazelnuts
homestay
hostility
iap
immobiliergratuitparticulier
infect
inflated
joaquin
juli
karlsruhe
lawsuit
lizards
mangrove
minimizing
mundo
orgasms
patagonia
polyphenols
protruding
quadruple
renesse
respiration
reuters
spacing
stephan
surpass
thermeta
ticking
vaccinations
wharf
zutphen
##aga
##alie
##copy
##currence
##eable
##esse
##hack
##headed
##ife
##ignant
##iment
##kos
##llas
##pling
##rga
##roux
##strom
##taking
##wn7
##yd
5a
622
anders
archivos
beuningen
bluebeam
braunschweig
cahors
cal
cc0
colima
connoisseurs
conserved
contemplating
corte
demonstrative
denia
diffuser
dtv
endowment
fillets
gotic
handel
heareth
honourable
individualized
khmer
knead
lamentation
lynn
millimetres
obeying
optically
pampered
pgp
reggae
reinforces
shaver
soma
soviets
stansted
tara
tarry
tki
uncompromising
valladolid
vanessa
whisky
xiii
##asia
##aum
##bul
##dez
##dling
##erbeek
##guards
##guide
##icle
##iri
##lta
##nimous
##pian
##vage
##vate
##winter
##zberg
2400
5v
670
adorn
blindly
constituent
dante
deploying
dispersion
emulsion
enriching
esters
evpatoria
fledged
freeestateads
gossip
greenish
halfen
homeopathy
homer
imap
immunology
inflicted
ingested
irrational
joyfully
legalized
liberties
livelihood
matured
motivating
multiofertas
nationalist
p2
papa
paradiso
pathogenic
pelvic
posada
rennes
rng
roomsspacious
schumann
smuggling
spool
stephanie
subdivided
sufferers
tablecloths
textual
ticked
vodafone
workflows
zeebrugge
##ater
##atically
##boot
##cking
##dated
##fted
##generative
##inda
##mechanics
##nological
##reading
##urised
##vet
##weiler
##wling
##⁄4
315
adrenal
ankles
apes
archaeologists
atrocities
barack
bd
beverly
bismula
blarcum
brahman
broadcasted
buurt
categorized
choral
consort
costing
datum
decomposition
disrupted
dungeon
eh
endorse
expenditures
flutes
formulations
gin
gl
hangar
hardships
hoods
immobiliergratuitparticuliers
jordi
kcap
liebherr
lightbox
m4
misfortune
neoclassical
osmosis
piracy
plagued
plausible
playlists
proclaiming
protons
retardant
revise
rna
roos
selah
sida
spaniel
staggering
strenuous
thickest
toxin
trait
trevi
undeniable
vac
verder
waco
zhou
##123
##aze
##bond
##ceiving
##chool
##creation
##erts
##hade
##laise
##lant
##mper
##oves
##pelle
##posing
##suit
##summer
##tars
##tmann
##tral
##ulative
##x2
285
431
505
alexandre
amarillasillinois
assassination
auditor
bansko
boijmans
bomber
bottling
brightest
capita
coastlines
commenting
compute
condor
convex
customise
debug
documentaries
dona
dreamt
emphasise
etiquette
flatter
foul
gatwick
goldman
hindered
honours
impetus
indexed
infill
inflorescences
ini
jehoiada
kiribati
lacquered
laver
lhasa
loup
lsd
lugano
magnum
mash
mayotte
orb
peravia
philippians
pinnacle
pistons
placeinformation
potosi
prose
putty
racers
recite
resentment
rmig
scorers
scrutiny
sherry
sportsbook
supplementation
sustainably
thermi
toasted
transgressed
troop
tucked
veluwe
whereon
##bbe
##cans
##eas
##gun
##heart
##iet
##nents
##nias
##nom
##oals
##rrant
##ssos
##stan
##thal
##tinence
##tiva
##ttoria
##ulture
##wang
albufeira
altitudes
apertures
architectures
az
benthic
biggles
carter
catheter
cleverly
clos
comets
commonplace
connective
devastated
devastation
disabling
engravings
facelift
fb
forklifts
framing
fumes
gasket
gentile
hopi
improvise
jakob
kestel
liz
mackerel
median
mic
milton
mu
murders
nagoya
ncdd
nepali
nocturnal
oceanside
outright
outwards
persists
petri
pigmented
pinpoint
plank
pronoun
pullman
rein
renewing
scream
seefeld
siofok
sochi
spelt
structuring
supplication
sven
tahiti
televisions
triggering
unconsciously
underline
unload
villeneuve
vincenzo
visuals
workplaces
##bajo
##ccia
##champ
##cx
##dial
##dote
##eters
##eves
##fishing
##gado
##hound
##inia
##itant
##kart
##llian
##phs
##plates
##riots
##tiate
##tice
##uity
##vada
##yce
##の
14001
1650
208
adjective
anchorage
arp
ava
beatles
blair
bloc
bolted
branching
brest
buzzing
c6
caen
carrer
cleopatra
crested
damn
dialogues
disciplined
dsm
ephesus
eurodrugstore
foils
fracture
gmc
hallowed
handcrafted
hexagon
hilarious
hindus
huygens
koog
lamborghini
lynx
m1
meijer
ministering
mps
munchen
nave
neil
pairing
pereira
playable
predicting
priceless
raven
reconnect
rem
remuneration
replicas
rh
ribera
rietveld
rigidity
ripples
roque
rosas
sabotage
seabed
signify
specialisation
stirling
suede
technologically
tedious
thresholds
trusts
ty
urbanisation
visitation
wien
##anc
##antly
##bear
##blast
##bod
##bourg
##fred
##gd
##ibor
##jke
##lpa
##mak
##mism
##nets
##nig
##nye
##pole
##ressed
##rks
##rone
##rres
##unes
##vial
##wings
1541
5x
advert
aftermarket
ardent
aryan
barbed
beatification
bolivian
bungee
caviar
cdti
chevalier
claw
confederation
conforming
convinces
delegated
delusion
descents
devise
dislike
dripping
edo
f2
fez
flare
gelezen
germs
gomera
hq
jenny
josephine
jung
knowingly
kung
larry
lifecycle
lobos
malay
matures
merida
miep
migrated
milestones
mustang
nailed
nanoparticles
onstar
pardoen
philosophies
plucked
portaleimmobiliareinternazionale
preventative
reformatted
rubble
signpost
simferopol
soundproofed
southeastern
steppe
surpassed
thriller
tobogganing
torremolinos
troublesome
twigs
uncircumcised
uppsala
urdu
violently
zillertal
##agents
##arde
##bill
##bruck
##eden
##eede
##ematics
##fg
##flakes
##joined
##jord
##lden
##lja
##logie
##mbling
##nca
##oat
##ogist
##opa
##oses
##oshi
##query
##rets
##rophy
##sets
##sz
##tations
##thetic
##vala
##vier
181
1874
abuses
adriaan
antibody
aristocratic
awt
baia
besieged
blunt
bram
bryan
capitalists
cardigans
chats
christchurch
comp
conferred
confounded
cookbook
couture
critique
cults
debtor
deceptive
dpi
drones
eras
fab
fairies
fervent
ff
fictitious
firewalls
forested
fuselage
gonzalez
gown
grained
hagen
improvised
inbuilt
kasbah
lombardy
maids
melissa
misunderstandings
mites
morally
multiplication
raf
robustness
routinely
shir
speculative
spore
sunscreen
technische
thumbs
vacant
venkatesh
vigilant
vikings
winzip
withdrawals
workspace
##2c
##7m
##aia
##alo
##aratha
##bolic
##bred
##coli
##eal
##etti
##itated
##jun
##location
##lof
##mist
##onium
##sand
##sdorf
##search
##sund
##sys
##trants
##year
##zere
200m2
570
625
660
770
ancienne
assuredly
atp
attractively
aube
bih
boldness
bonsai
breads
brilliantly
brno
camino
canarian
cb
centexbel
charismatic
comptia
contention
counteract
dermatologists
diarrhoea
diffuse
ditches
earnestly
enoch
europower
exclusivity
fugue
grabbed
graduating
grills
grinder
hammamet
hanoi
hari
heb
hibiscus
html5
humbled
impresses
incandescent
interfering
ionic
joachim
laerdal
lesotho
ljubljana
monts
muesli
onsite
ot
paas
panty
patios
phonecalls
poplar
predetermined
provoking
psychiatrists
punishments
radios
redesign
replicate
retrieving
rogers
rookie
sacral
samui
sigma
smits
southernmost
tapered
teatro
thames
timed
uncontrolled
undulating
waal
##anco
##anta
##arial
##backup
##cada
##cord
##dela
##eid
##ensitive
##ervant
##fed
##gement
##hawk
##hou
##ieven
##lead
##mac
##made
##next
##ogel
##osome
##uras
##urin
##vus
1h
7m
abominable
admiral
adolescent
ascribed
aspiring
banning
begat
boon
catholicism
characterisation
charleston
contentment
craving
culmination
drifting
dslr
edu
elf
esplanade
ester
experimented
exponentially
fci
fleets
flourished
gigabyte
halifax
heartfelt
inconceivable
intaglio
kitesurfing
legitimacy
lids
marxism
meandering
metrics
monopati
mulberry
napkins
[...]
