[PAD]
[UNK]
[START]
[END]
!
"
#
$
%
&
'
(
)
*
+
,
-
.
/
0
1
2
3
4
5
6
7
8
9
:
;
<
=
>
?
@
[
\
]
^
_
`
a
b
c
d
e
f
g
h
i
j
k
l
m
n
o
p
q
r
s
t
u
v
w
x
y
z
{
|
}
~
¡
¢
£
¤
¥
¦
§
©
«
¬
®
°
±
¶
·
»
¿
×
æ
ð
÷
ø
þ
đ
ħ
ı
ł
ŋ
œ
ƚ
ƹ
ǀ
ǂ
ǝ
ɑ
ɔ
ə
ɛ
ɜ
ɡ
ɣ
ɦ
ɪ
ɫ
ɬ
ɲ
ɹ
ʁ
ʊ
ʋ
ʒ
ʹ
ʺ
ʻ
ʼ
ʽ
ˆ
ˈ
ˌ
ː
˗
ˮ
˲
ͷ
α
β
γ
δ
ε
ζ
η
θ
ι
λ
μ
ξ
ο
π
σ
υ
φ
χ
ψ
ω
б
г
д
ж
з
и
л
п
у
ф
ц
ч
ш
щ
ъ
ы
э
ю
я
ђ
њ
ѡ
ґ
ғ
қ
ҫ
ӎ
ӕ
դ
א
ב
ג
ד
ה
ו
ח
ט
י
ך
כ
ל
ם
מ
ן
נ
ס
ע
ף
פ
צ
ק
ר
ש
ת
؋
ا
ب
ة
ت
ث
ج
د
ر
ز
س
ش
ض
ع
ـ
ف
ق
ك
ل
م
ن
ه
و
ي
پ
ک
ی
ܫ
ߋ
இ
க
ச
த
ந
ன
ம
ய
ற
ல
ழ
வ
ா
ி
ு
ெ
ே
ை
ช
ท
ธ
ย
ว
ใ
ไ
๏
ბ
ი
ლ
ნ
ს
ᄀ
ᄃ
ᄅ
ᄆ
ᄇ
ᄉ
ᄋ
ᄏ
ᄐ
ᄑ
ᄒ
ᅡ
ᅢ
ᅣ
ᅥ
ᅦ
ᅩ
ᅭ
ᅮ
ᅲ
ᅳ
ᅵ
ᆨ
ᆫ
ᆯ
ᆴ
ᆷ
ᆸ
ᆼ
ህ
ቩ
Ꭶ
Ꮅ
Ꮑ
Ꮠ
ᑦ
ᓄ
ᓇ
ᕗ
᠃
᠐
ᦀ
ᦂ
‐
‒
–
—
―
‘
’
‚
‛
“
”
„
‟
†
‡
•
‣
‧
‰
′
‹
›
※
‿
⁃
⁄
₤
₩
€
←
↑
→
↓
↔
↩
↵
⇋
⇐
⇑
⇒
⇓
⇔
∂
∅
∆
∈
∑
−
∓
∗
∙
√
∞
≅
≈
≟
≡
≤
≥
≦
≧
≪
≫
⊂
⊃
⊗
⋅
⌈
⌉
⌊
⌋
⌘
⌥
─
│
┄
■
□
▪
▬
▲
▶
▷
▸
►
▼
▾
◀
◄
◆
◊
○
◎
●
◙
◠
◡
◦
☀
★
☆
☊
☋
☏
☕
☛
☞
☯
☺
♀
♂
♠
♡
♣
♥
♦
♪
♫
✌
✓
✔
✕
✘
✩
✹
✿
❉
❤
➔
➤
⠢
⠦
⠬
⠺
⤵
⦁
オ
キ
ク
シ
ス
ッ
ト
フ
ホ
リ
レ
ン
・
ー
一
上
下
不
东
丝
中
丹
主
之
也
书
二
井
人
们
仿
优
会
伦
低
你
個
关
冂
再
剣
動
包
北
华
博
却
厦
口
台
吃
合
同
吗
呛
呢
和
咏
品
商
园
国
圆
國
地
场
坛
城
堳
士
外
大
天
女
好
威
子
孔
孟
学
宫
宾
对
寺
将
小
少
居
岁
岛
市
布
师
店
庙
庚
府
廉
彳
很
德
忽
悠
意
成
我
手
找
拉
拍
拳
政
故
教
敦
文
斯
新
方
无
日
明
春
最
月
本
术
村
杜
林
柔
标
格
档
桥
棋
椒
概
標
模
武
毫
气
気
氵
汉
汤
没
法
流
渭
港
游
湾
溫
濠
灣
火
照
煮
牆
王
甲
白
睡
神
禁
空
第
箇
米
糩
系
紫
絡
經
網
维
绸
翻
老
联
育
艮
艰
艺
节
花
苦
蓝
行
街
袈
裟
要
觉
言
語
譜
认
记
识
词
译
诗
话
诠
语
象
買
賣
走
起
路
车
辣
辰
达
道
邊
都
鉤
锅
锛
键
门
闰
雍
雗
電
青
面
頮
題
题
食
饺
馆
香
马
驮
骨
高
鸯
鸳
麦
麻
de
van
en
het
een
in
is
met
op
te
voor
zijn
die
dat
om
of
aan
als
niet
deze
je
door
worden
ik
naar
uw
##s
er
tot
dit
ook
bij
maar
we
uit
over
heeft
dan
kan
hij
wordt
meer
ze
##en
wat
##e
hebben
alle
onze
zal
kunnen
was
kunt
goed
hun
ons
andere
hotel
zich
hotels
nog
geen
wij
zo
zij
veel
informatie
grote
zoals
mijn
nu
budget
jaar
waar
##n
al
nieuwe
##t
na
##a
werd
##d
maken
hier
haar
moet
hoe
huis
alleen
biedt
eerste
gebruik
twee
website
geleden
onroerend
zou
foto
##de
onder
mensen
10
centrum
jullie
tijd
plaats
via
zullen
verschillende
zeer
wanneer
weer
staat
tussen
hem
##r
auto
zien
dus
gaan
dll
net
bijvoorbeeld
tegen
dag
doen
##o
gebruikt
beste
goedkope
leven
zonder
bestand
eigen
per
gratis
wereld
##er
omdat
##ing
god
tijdens
##i
komen
stad
heb
gemaakt
binnen
elke
moeten
aantal
lijst
com
appartement
wilt
hen
toeristische
vinden
wel
kinderen
kleine
waren
maanden
had
online
prijs
verenigde
vanaf
goede
staten
mogelijk
alles
curacao
volgende
altijd
12
den
mij
jihlava
ligt
water
gebruiken
toen
jaren
gaat
nodig
hebt
slechts
sinds
meest
advertenties
producten
programma
20
rond
vele
terug
zodat
duizenden
der
systeem
zelf
##l
want
drie
land
zelfs
kamers
af
deel
ben
##m
aanbiedingen
15
naam
groot
gij
manier
enkele
heel
overzicht
prijzen
internet
bent
geven
weg
boeken
kwaliteit
30
laatste
weten
dagen
toe
verder
komt
minuten
werk
wil
km
uur
gegevens
00
hele
vaak
ongeveer
laten
laat
maakt
##y
probleem
daar
werken
bieden
werden
me
staan
bestanden
11
iets
ten
vraag
beschikbaar
juli
nemen
software
men
elk
steeds
geld
2016
keer
18
geeft
##je
hoge
samen
krijgen
bedrijf
pagina
gelegen
licht
gebied
november
la
open
appartementen
zoek
minder
terwijl
extra
keuken
beter
oude
direct
autoverhuur
snel
welke
vindt
camping
donderdag
vakantie
meeste
##k
zee
service
zeggen
zult
willen
paar
##heid
mee
natuurlijk
windows
liggen
europa
zie
volledig
zeker
nieuw
##c
25
badkamer
vrouw
klik
nederland
des
tweede
hieronder
echter
september
brengen
zowel
##te
14
##g
vragen
naast
buiten
weet
kopen
##0
16
gevonden
contact
ter
man
waardoor
spelen
klanten
st
honden
houden
wie
toegang
24
13
geval
indien
sommige
meter
the
helpen
omgeving
prachtige
##f
eenvoudig
elkaar
hart
restaurant
mooie
volgens
zoeken
product
genieten
bevat
##u
onderzoek
##2
50
san
jezus
echt
100
waarom
geschikt
personen
vandaag
##1
aarde
##p
moment
vorm
omstandigheden
uitzicht
bezoeken
ruimte
vanuit
eerst
groep
plaatsen
vooral
daarom
basis
ervaring
keuze
##h
erg
000
hand
spel
dezelfde
zwembad
lange
toch
2015
belangrijkste
goedkoopste
ga
tv
bezoek
strand
lang
computer
kamer
spanje
graden
haak
gewoon
tieten
moeder
bekend
lichaam
enige
achter
eens
bestaat
site
voorzien
waarin
17
boven
vrij
##jes
belangrijke
natuurlijke
nacht
kaart
grond
##on
barcelona
##le
##ie
misschien
##es
week
diensten
landen
##x
frankrijk
grootste
europese
internationale
juiste
dingen
##5
mooi
boek
##3
vier
##us
anders
heere
werkt
19
activiteiten
geest
buurt
blijven
nooit
zouden
ander
project
delen
leren
krijgt
speciale
openen
xhamster
vrijdag
bijna
begin
hadden
terras
huurauto
allemaal
ervoor
verwijderd
iedereen
villa
anderen
kerk
iemand
##4
voordat
zuid
video
problemen
zorgen
soort
familie
eigenlijk
suite
##ia
##se
##ers
verhuur
versie
lees
model
bereikt
verblijf
27
kwam
park
energie
links
zei
midden
zoon
accommodatie
persoon
echte
afstand
vliegveld
ontwikkeling
liefde
gemakkelijk
maand
gebruikers
gegeven
betekent
##ten
zegt
maak
home
stellen
el
februari
22
technische
bedrijven
21
gedaan
duitsland
geschiedenis
tuin
amateur
natuur
2012
huidige
gevallen
ziet
lopen
neem
niets
beschikbaarheid
kleur
muziek
doet
luchthaven
40
vrouwen
soms
vormen
google
belgie
kosten
doel
m2
heer
kiezen
resultaten
02
recht
langs
ervan
oktober
beginnen
##ig
volledige
##is
museum
nieuwste
hoogte
23
markt
kon
restaurants
cm
data
meteorologische
type
belangrijk
gezien
mogelijkheid
##z
vervolgens
##in
2007
01
verkoop
##6
moderne
later
26
beide
woensdag
diverse
industriele
##b
persoonlijke
mannen
hetzelfde
duidelijk
april
##7
##an
eeuw
bepaalde
augustus
kun
algemeen
inhoud
kijken
kennis
huren
klein
##al
compilatie
mens
opnieuw
zeide
juni
mail
woorden
soorten
totaal
vader
graag
apparatuur
komende
bevindt
pc
ontvangen
bereiken
kant
geweest
hoog
inbegrepen
artikel
ieder
korting
##den
eten
douche
kleuren
weken
downloaden
standaard
enkel
bovendien
##8
waarvan
##el
2011
dienst
woord
gebouw
maart
2004
03
meerdere
dubbele
ging
reizen
iedere
hoewel
hoeft
even
euro
regio
steden
##v
koning
meestal
bed
maximaal
einde
vijf
waarbij
voorwaarden
lokale
voorbeeld
functies
vakantiehuizen
gebaseerd
precies
plek
daarna
zaterdag
virus
dankzij
niveau
december
gevolg
exclusieve
beschrijving
sport
2010
##9
all
zorg
klaarkomen
2014
studenten
kilometers
nadat
slaapkamers
locatie
zon
top
italie
witte
netwerk
bekijken
kracht
08
28
antwoord
mag
apparaat
puerto
voordelen
inclusief
materiaal
mei
oppervlakte
korte
zondag
oud
blijft
bijzonder
parkeerplaats
derde
geheel
07
taal
2013
2009
algemene
bestaan
denken
waarde
zwart
team
productie
eilanden
ogen
mogelijkheden
keramische
jonge
verwijderen
januari
waarop
eiland
new
beetje
stap
gasten
btw
oplossing
##tje
rest
vrienden
unieke
volgen
christus
ontdekken
waarschijnlijk
woonkamer
##baar
genoeg
medische
lezen
mm
vond
proces
periode
luxe
ontwikkeld
##ste
onderdelen
heilige
selectie
##na
ontwerp
29
up
school
dorp
##rs
geboren
amsterdam
leeftijd
fout
beeld
economische
instellingen
leiden
allen
and
stijl
miljoen
design
klant
vanwege
it
wijze
ideaal
laag
reis
beschikt
richting
houdt
scherm
slaapkamer
perfect
ontworpen
kunst
historische
genoemd
centrale
toepassing
behandeling
prachtig
huid
gedurende
moeilijk
combinatie
zwarte
rassen
kijk
zitten
universiteit
installatie
vakantiehuis
landgoed
04
##ra
nederlandse
examen
##ige
gebouwd
voorkomen
volk
toekomst
##re
afrika
ervaren
zetten
sociale
lijkt
technologie
raadplegen
afhankelijk
goedkoop
station
31
telefoon
##os
##ne
koelkast
kans
handen
elektrische
kont
##sen
temperaturen
automatisch
china
rechts
vrije
rijden
jouw
tarieven
gelijk
organisatie
begint
vol
airconditioning
betrekking
2008
dood
klaar
functie
details
uitgevoerd
rekening
aanwezig
rode
ja
proberen
##ische
eerder
onderhoud
veilig
06
bar
landschap
helemaal
games
effect
zichzelf
##et
neemt
enz
hoofd
wit
opties
start
kind
vind
geopend
categorie
salvador
eu
behulp
eigenschappen
geloof
gods
2006
waarmee
dinsdag
heen
weinig
kent
geschreven
##ve
bekijk
best
spelers
industrie
eenvoudige
waaronder
kwalitatief
60
waait
sterk
##len
##ch
pad
specifieke
vast
zit
tekst
##ren
amerikaanse
momenteel
zaken
dient
rico
zet
##w
optie
hemel
koop
wind
druk
costa
halen
test
maximum
pas
succes
##m2
punt
israel
prive
langer
rol
cultuur
lucht
cd
speciaal
waarheid
situatie
hulp
etc
verbeteren
le
digitale
bestaande
gebruiker
bron
leden
zomer
geplaatst
zorgt
geworden
geweldige
reden
aandacht
bloemen
resultaat
ondersteuning
lossen
wilde
selecteren
ooit
gemeente
gevoel
degenen
toegestaan
groene
info
speler
koffie
nationale
##ingen
uitgerust
casino
vakantiewoningen
spreken
toegevoegd
uitstekende
selecteer
belang
gezicht
brengt
35
engels
helpt
uiteindelijk
harde
##ed
05
ca
terrein
koninkrijk
eind
les
openbaar
##as
##ken
modellen
thuis
gehele
veiligheid
projecten
##at
bespaart
dicht
saint
nieuws
thema
##bare
ziel
ideale
veranderen
200
##erd
stuk
domeinnaam
dieren
lijn
##st
controle
dergelijke
welk
serie
begrijpen
minimumtemperaturen
middel
toepassingen
lage
feit
aangezien
tevens
anaal
film
09
totale
websites
duitse
temperatuur
jong
begon
artikelen
samenwerking
systemen
gebieden
bezoekers
##um
idee
onderdeel
noord
jij
deed
##eren
blauwe
ruime
vervoer
kort
snelle
afbeelding
rechten
##ar
daarnaast
server
traditionele
500
machine
dank
kennen
poker
snelheid
denk
herstellen
bergen
sexy
overdag
genomen
perfecte
bouw
groepen
##ta
wet
ontwikkelen
zes
verbinding
media
bank
kilometer
past
##man
horen
hoogste
betalen
kaarten
tegels
beschikbare
comfort
mobiele
pik
##tie
mozaiek
gehouden
officiele
los
leveren
ver
winkels
reeds
verbonden
mogen
plan
tour
gebracht
risico
balkon
creeren
hogere
populaire
kantoren
grotere
afgelopen
grand
madrid
noch
olie
gezondheid
positie
macht
link
club
daarvan
nederlands
wandeling
aanbod
##la
bericht
international
plus
professionele
seconden
rivier
medewerkers
raden
bescherming
schrijven
planten
zeven
overal
maakte
stelt
voordeligste
studie
menselijke
bestemmingen
bouwen
tien
sterren
32
gemiddelde
web
45
adres
kwamen
to
machines
merk
testen
motor
smaak
maria
leggen
mexico
publiek
rust
zoveel
financiele
huizen
effecten
nummer
konden
premium
kenmerken
geniet
velen
beelden
opgenomen
##or
brussel
formaat
moest
trekken
dragen
punten
oorlog
huur
invloed
schijf
jou
##tjes
64
australie
republiek
du
praktijk
redenen
materialen
voeren
ketting
hoger
##ma
apparaten
volgt
canada
frans
80
gaf
oplossingen
70
dienen
prestaties
geluid
##systeem
city
franse
mogelijke
ontbijt
microsoft
sterke
bad
extensie
vullen
bestellen
##land
ervaringen
valencia
bijzondere
##ion
spaans
##®
evenementen
route
economisch
voldoende
johannes
zag
gezegd
vraagt
warm
ochtendtemperaturen
registratie
camera
maandag
tafel
avond
bekende
niemand
achtergrond
stand
groter
texas
lid
file
gekozen
amerika
centraal
betere
vroeg
india
controleren
verwarming
##ville
west
onderwijs
vlak
vorige
talen
del
bus
on
laden
verhaal
lengte
seizoen
bepaald
voedsel
ingericht
nummers
rustig
vertrouwen
masturbatie
##ine
gekomen
database
evenals
onbeperkte
garantie
canarische
allerlei
band
ontbrekende
verloren
gebeurt
straat
kies
dvd
pijpen
makkelijk
##werk
ware
rustige
leuk
nl
verborgen
namen
individuele
voldoen
##ge
code
kreeg
ronde
voornamelijk
formulier
mond
hoeveelheid
veroorzaakt
regelmatig
verdieping
ruim
doe
##ton
wijn
passen
glas
weergegeven
stappen
leer
kom
hoop
oog
peru
ongeacht
originele
zuiden
verkopen
##da
knop
nam
leverancier
winter
kantoor
enorme
vergeet
grootte
namelijk
welkom
fotografie
ontdek
japans
tijden
veranderingen
stond
santa
live
gids
no
geloven
dubbel
behalve
actief
beroemde
betreft
zodra
toevoegen
oostenrijk
kust
patroon
gebouwen
virtuele
bestandsuitgang
gesloten
maat
gericht
2000
verzekering
analdin
bezienswaardigheden
penetratie
tool
rica
##ert
2003
toilet
voorzieningen
90
commissie
valt
bewustzijn
juist
verkrijgbaar
##ter
bit
lichte
regels
toont
##pen
kleding
wetenschappelijke
david
voet
vriend
opdat
houd
dagelijks
betaalbare
compleet
gemeenschap
comfortabel
diep
geleverd
bloed
woning
sfeer
daarbij
verleden
procent
bijbel
##isch
voelen
aankomst
33
datum
browser
verdiepingen
groei
uitgebreide
wijzigen
hout
ontspannen
zwitserland
aangeboden
rand
boot
orgasme
manieren
vervangen
gewicht
relatie
2005
rood
klantenservice
titel
tonen
colombie
parijs
turkije
wandelen
collectie
heeren
rotterdam
##lijk
hoeveel
spaanse
bevinden
bezig
set
normaal
training
vlees
jezelf
edition
winkel
##ur
raken
rijk
##it
geldt
schade
##ven
loopt
betaling
300
exe
ondanks
heerlijk
bepalen
name
beneden
directe
acht
gesproken
poort
wereldwijd
certificering
verandering
advertentie
leidt
fietsen
verschil
ii
bedoeld
bestaand
wachten
##berg
slot
gebruikte
betrokken
daarmee
actie
##ke
belgische
vallen
linux
##nen
schoonheid
afbeeldingen
goddelijke
bitcoin
beweging
verantwoordelijk
pro
##no
begonnen
oosten
culturele
formule
massage
vermogen
loop
vrede
leuke
werking
boerderij
continu
levering
raad
zaak
vaste
ene
uitgebreid
onderstaande
aanroepen
zin
aldus
kroatie
verlaten
stof
elementen
##erde
geinteresseerd
groen
faciliteiten
gesteld
universum
gedachten
produceren
hoort
eisen
plezier
cursus
wijk
ziekte
sturen
houten
wees
andalusie
radio
stranden
fabrikant
breed
probeer
wifi
verdeeld
eigenaar
menu
oven
blond
dacht
##ce
accessoires
noorden
ondersteunen
totdat
management
geweldig
min
bronnen
klassieke
ontstaan
geassocieerd
handel
krachtige
stenen
politieke
post
beperkt
gedeelte
##il
patienten
strijd
opgeslagen
bomen
bestemming
help
dagelijkse
geef
nou
methode
muur
stuur
complete
##men
account
##j
installeren
tempel
partner
catalonie
noodzakelijk
berg
milieu
middelen
communicatie
werkelijke
34
derden
36
antwoorden
verband
gelukkig
automatische
group
beschermen
super
ouders
voeten
externe
zware
beschikking
rondom
ligging
uitrusting
planeet
reeks
stoffen
balearen
vertellen
magnetron
malware
tegelijkertijd
interessante
opmerking
kiest
bevatten
brittannie
vereist
##zen
geproduceerd
##eerd
pdf
capaciteit
analyse
zwak
meteen
duits
##nt
##der
##ka
app
oplossen
rusland
geinstalleerd
tegenover
haven
voorbereiding
orde
##ring
klikken
verwacht
business
doch
merken
gepubliceerd
baby
hondjes
bewust
schattig
gouden
spreekt
winnen
garanties
stem
documenten
aankoop
omvat
deur
dominicaanse
kasteel
vrouwelijke
gewenste
verenigd
actieve
anti
vs
verzorgde
vloer
huisdieren
verkeerde
status
internationaal
##me
txxx
##gen
tip
vertelde
levert
complex
hard
##co
##ng
half
echtgenote
musea
werkelijkheid
blijkt
uitvoering
fouten
gelegenheid
karakter
provincie
aanwezigheid
wensen
studio
##ic
wonen
2018
eveneens
max
advies
ondersteunt
risk
verzekeringen
amarillaslatinas
##ies
aanvraag
werkelijk
bewoonbare
aangepast
vis
ontwerpen
rome
nas
wetenschap
armband
onmiddellijk
gemeenschappelijke
fiets
helaas
verschillen
comfortabele
uitvoeren
vergelijking
sites
gebeuren
download
behoeften
##ca
moeite
ingang
toerisme
uniek
parkeren
berlijn
gezin
japan
gingen
tentoonstelling
termijn
voordeel
beschouwd
kader
eindelijk
zeg
plannen
##huis
fysieke
verhogen
waard
drinken
transport
organisaties
services
bevolking
personeel
japanse
honduras
staal
##atie
veld
##ck
opgericht
aanpassen
tenslotte
##heden
structuur
verlies
chemische
sys
vuur
show
art
vernieuwd
oorspronkelijke
krijg
normale
audio
beheer
golf
metalen
daardoor
hoek
##ier
pijn
televisie
wereldwijde
hoofdstad
register
bedden
##am
regering
rijp
mac
alsof
object
##ro
airport
vrijheid
et
ideeen
dame
recente
festival
overeenkomst
eetkamer
bos
real
wezen
griekenland
forum
kwestie
prix
150
zwemmen
berichten
actuele
hah
verlichting
stoppen
onderwerp
mooiste
##programma
##ry
zweden
computers
brazilie
favoriete
38
vergeten
volle
beach
erop
gevestigd
bedrag
##va
voorbij
scholen
beleid
sluiten
word
##io
aanbevolen
las
opdracht
mode
##gebied
persoonlijk
warme
maximale
speelt
wist
zoekt
hond
geestelijke
blauw
ip
benodigdheden
2017
blij
automodelen
rechtstreeks
beheren
architectuur
##isme
vissen
48
deuren
goud
omhoog
egypte
noemen
dichtbij
hetgeen
hierbij
zonden
platform
buitenlandse
ge
uiterlijk
donker
sleutel
gecontroleerd
beschreven
ochtend
bewerken
last
brunette
badkamers
lekker
cabrio
37
helft
interactieve
zeggende
chinese
world
behouden
verdere
prijsopgave
fase
42
braindumps
beoordelingen
hiervoor
westen
gereedschap
vormt
elektronische
openbare
unie
detail
verkocht
ontvangt
treft
deelnemers
duurzame
gas
europees
##ri
sneller
commerciele
vermeld
verliezen
verzamelen
aparte
thee
opleiding
mate
reactie
##ja
besturingssysteem
dochter
opnemen
dr
droog
##to
modern
zachte
inclusive
steun
zonde
gehad
zichtbaar
##ha
lijnen
bereid
##ling
wezens
italiaanse
eigendom
solo
bezit
nationaal
meisje
voeg
wegen
trein
aard
for
genaamd
york
buitenland
hoofdstuk
hou
##eerde
partners
let
zonen
geavanceerde
##ya
inderdaad
boodschap
partij
jeruzalem
economie
win32
voorbeelden
gezellige
##ts
skigebied
##om
besparen
eenmaal
slaan
goederen
interne
huurt
reservering
registreren
ondergoed
uitsluitend
techniek
zakelijke
wijzigingen
materieel
waarden
veilige
evenement
angst
aangezicht
lagen
brede
tips
gedrag
center
39
klasse
draaien
mensheid
professionals
##weg
##ler
weekend
tr
hostel
tegenwoordig
##ale
antivirus
slechte
jan
##aar
bezocht
zijt
heerlijke
schilderstuk
gebeurtenissen
volg
betreffende
wedstrijd
gevolgen
maan
slecht
patronen
ongelimiteerde
meester
55
papier
oppervlak
wacht
lul
gewone
besloten
concept
portugal
praten
providers
overheid
regel
mocht
uiterst
##lijke
logo
heet
##ki
game
bewolkt
boom
realistisch
schoenen
voeding
stichting
verwachten
back
pension
schoon
teken
barbecue
activiteit
voelt
volwassenen
oost
stel
security
voegen
wens
recept
eenheid
##elijk
##centrum
bestelling
vertaling
samenleving
wc
verzenden
batterij
tal
hd
voortdurend
zwakke
aangegeven
verzoek
ingerichte
trojan
##ruimte
di
loterij
groeien
vakantiewoning
##ende
allah
400
reserveren
alzo
casa
stukken
tijdperk
behoefte
gevraagd
niveaus
roken
betekenis
elektrisch
onderneming
specifiek
##ist
aluminium
bracht
wenst
vlakbij
georganiseerd
wasmachine
time
usb
house
air
modelen
verkrijgen
visie
ingesteld
etappe
geinfecteerde
44
mozes
trots
baan
tarief
##ns
cafe
##plaats
lagere
duur
cuba
locaties
processen
album
bloem
gespecialiseerd
##ering
tevreden
besmet
sprak
3d
muren
gekocht
kg
frank
klikt
##ly
##id
kousen
document
herstel
verminderen
feite
busjes
feedback
tags
france
dien
geluk
##ster
vroege
stroom
treinstation
##punt
vriendin
cloud
veranderd
pakket
bewijs
elektriciteit
afkomstig
avonds
onderzoeken
toegankelijk
bodem
brei
toestemming
daarvoor
behoort
stoelen
##do
dichtstbijzijnde
slikken
##ga
categorieen
kabel
instrumenten
high
arts
massa
vet
metro
nuttige
keren
positieve
aanbieden
objecten
interface
volume
fixer
koper
profiel
spelletjes
plant
terecht
##che
factor
joden
ingredienten
##eert
dollar
toeristen
afdeling
generatie
46
zoekformulier
liet
partijen
opslag
meubels
israels
thailand
lijken
hierdoor
shop
reisdata
voertuig
denkt
##th
reparatie
londen
vul
begrip
starten
gemiddeld
typische
resort
oorzaak
##eer
hardware
update
bestandsanalysetool
nee
toegepast
optimale
##iteit
zoekresultaten
banken
vedabase
multiple
rock
probeert
gallery
privacy
lesbisch
polen
mini
kwaad
zeiden
##ek
leider
principe
professional
##go
inwoners
voertuigen
organiseren
uiteraard
taak
##ner
effectief
gezonde
taxi
satelliet
nachts
praktische
wachtwoord
ding
meisjes
editie
uren
versies
cookies
##au
##ni
jongeren
interessant
race
inzet
gerechten
##burg
zielen
blog
wijzen
beschikken
eventuele
onlangs
uitstekend
gewijd
sector
59
symbool
drukken
onderhouden
commando
voort
gegaan
russisch
weerstation
lijden
fi
plastic
system
41
free
betaald
multi
##aal
gezet
daarin
mening
ontdekt
seksuele
photo
schrijf
parel
rijke
vertrek
bonus
schreef
duurt
gezichtspunt
tenzij
koppel
##li
##tijd
toscane
geheugen
aangesloten
check
bars
reserverings
gedeeld
hiermee
instelling
toekomstige
bureau
enorm
films
beoordeling
vallei
vierde
domein
aspecten
hierboven
##sa
##park
vierkante
inzicht
verhalen
outdoor
##per
verschijnen
voorraad
moesten
brood
cannabis
begane
fantastische
traditie
##ls
verhouding
betrouwbare
mp3
##em
sommigen
voorkeur
##kaart
leiding
innovatieve
gebed
weersvoorspelling
##ica
maatregelen
regen
voorbehouden
facebook
christelijke
zijde
kamperen
##ze
morgen
##water
onderzocht
venster
43
lessen
dominantie
werkzaam
##les
behandeld
##ol
symbolen
led
creatieve
aziatisch
geneeskunde
ierland
president
absoluut
bovenste
marketing
oorsprong
realiteit
75
efficient
manager
blader
email
as
hiervan
kost
componenten
stemmen
vogels
2002
biologische
verantwoordelijkheid
fruit
verbetering
line
oceaan
plein
anne
doden
zicht
vlucht
##nd
scannen
##proces
vreugde
behoren
oorbellen
verblijven
##tische
##ba
aansluiting
linkerkant
levende
uitgeruste
wi
britse
politie
gevolgd
vluchten
alternatief
play
constant
populair
kunstenaars
alsmede
inbegrip
leerlingen
navigatie
geleid
map
stalen
prima
vertelt
genade
haard
europe
technieken
android
gezond
verplicht
zacht
overleden
politiek
##pe
hotellijst
##sel
hoogwaardige
schaal
vers
duidelijke
rij
streek
talrijke
draagt
tegenstelling
schip
opvallende
onafhankelijke
statistieken
wijsheid
uitbreiding
duizend
veroorzaken
##mm
port
##que
kleinere
onderwerpen
overige
1000
##ging
zogenaamde
records
ex
vastgoed
plaatst
boord
beveiliging
geboden
religieuze
##ir
brief
##ak
steen
spa
##loos
##end
luisteren
##ti
brug
shows
verpakking
gehoord
symptomen
beschermd
52
miljard
##kt
roze
vrijwel
items
theater
out
vereniging
marokko
john
paleis
gedetailleerde
overtuigd
echtgenoot
examkiller
ton
verbleven
bleef
diameter
eur
richten
250
##op
##systemen
2001
engeland
##ij
65
ongeluk
ofwel
paradijs
instructies
experts
langzaam
attracties
eeuwige
helder
simon
alstublieft
sieraden
relatief
vooraf
vroeger
##lo
receptie
duurde
reacties
grens
lift
instrument
##uur
engelse
plaatselijke
leraar
studies
omvang
geintegreerde
trouwens
verkeer
breedte
bleek
nabij
dak
voorkomende
island
tweepersoonsbed
gerelateerd
garanderen
bereik
indruk
##elijke
##ium
##loze
zwaar
gisteren
impact
tekenen
koken
optreden
tanden
dorpje
inmiddels
directeur
snelste
gebrek
rechter
verklaring
wijziging
beeg
gekregen
ts
deelt
gekleurd
##istische
netwerken
onvermijdelijk
paris
verscheidenheid
##tion
bijdrage
woningen
opslaan
getoond
verandert
overdekt
white
leger
pers
toren
taken
51
kunststof
sluit
beperkte
peter
warmte
kruis
600
oudere
droge
##dag
bladeren
reserveringen
downloads
berijden
doordat
opzichte
markten
ernstige
klimaat
velden
verlangen
melk
vloeren
##isten
schrijft
webcam
creampie
##ide
mager
kunstenaar
maatschappij
tuinen
sauna
47
diegenen
bv
apps
bevestigd
54
##lijn
historisch
##ment
landbouw
rendement
rollen
ondersteund
schermen
kop
bewegen
crashen
##ina
spellen
besluit
jose
woont
materiele
voren
##anse
##groep
roestvrij
permanente
onderliggende
breng
zijnde
gespeeld
##tor
nauwkeurige
indonesie
hielp
klooster
label
co
voormalige
gele
choice
families
##rt
middellandse
nieuwsbrief
wordpress
rapport
zul
applicatie
nauwelijks
verwerking
vorig
vormgeving
opening
argentinie
langere
aanvullende
christenen
auteur
holland
onmogelijk
negatieve
rug
oudste
wellicht
optimaal
##markt
bestuur
seks
49
hakken
apple
##achtige
##kamer
toestand
kontje
sint
##net
liter
straten
hangt
verschijnt
schaduw
scala
zand
selecteert
verboden
56
speeltjes
revolutionaire
toon
vergelijkbaar
##ad
hedendaagse
erin
tegel
immers
lager
jongens
vaardigheden
reageren
maten
sterven
voorstellen
geleerd
bereiden
handdoeken
valuta
zout
minister
reisfoto
##uren
jongen
##isatie
heden
diepe
##ot
zilver
effectieve
interaciale
aanzienlijk
romeinse
val
hardcore
twintig
verspreid
menselijk
ontwikkelde
##ria
factoren
verbindingen
waarvoor
bossen
feest
leveranciers
levens
instituut
interieur
weergave
stop
ergens
binnenstad
fabrikanten
##q
behandelen
onderzoekers
schitterende
stortplaatsen
gevormd
zat
evangelie
enig
gedeeltelijk
verzameling
handig
scheren
##ent
campings
kijkt
geboorte
geel
zagen
zone
plekken
57
gezinnen
presentatie
travel
bibliotheek
werkte
genoemde
succesvol
##producten
verkoper
##ant
religie
dans
gewijzigd
honderden
##ire
kregen
##pa
outlook
azie
daarop
mcqs
banden
draait
legt
uitdaging
woon
##ut
strategie
universele
werknemers
loopafstand
agenda
charter
publieke
geldig
vriendelijk
ster
grenzen
##nummer
nuttig
zulke
oorspronkelijk
wetenschappelijk
bier
jizzbunker
spirituele
supermarkt
verwijst
zeeland
##10
ramen
95
bang
##00
armen
hongarije
bijdragen
situaties
##gegevens
boeking
drive
street
teksten
##ll
verdienen
centre
apart
bedankt
##ps
##bo
##ver
paul
gran
sur
origineel
slag
estate
gescheiden
tabel
alcohol
liever
koude
fabriek
kerken
landschappen
stedentrip
##be
ontvangst
plaza
wagen
krachten
succesvolle
missie
800
bidden
ziekenhuis
stofzuiger
ski
honderd
overeenstemming
53
recepten
updates
verse
##kosten
revolutie
florence
drieen
twijfel
tools
koud
reclame
black
eventueel
paulus
minste
acties
integratie
winst
client
review
nostradamus
vista
##son
russische
verbinden
master
regionale
uitgever
zaad
voorzitter
mix
koffiezetapparaat
ring
archief
krachtig
twaalf
allerhoogste
##ger
steken
##tal
kanaal
instellen
gezellig
interesse
amarillascolombia
babe
vriendelijke
zodanig
##punten
wetten
gecombineerd
ouder
volwassen
keel
uitslag
breakfasts
99
##ft
vaststellen
collega
filter
realiseren
middag
herberg
negen
##ux
erachter
overwinning
focus
inch
juda
erasmus
gerenoveerd
kookplaat
plaatsvinden
cursussen
doeleinden
bewaard
salon
schoongemaakt
burgers
wiens
zolang
##nes
alsook
complexe
mede
##ac
##ker
neer
typisch
frame
distributie
mannelijke
citytrip
##ty
bekijkt
richt
aanvulling
glazen
wijnen
120
eer
verkregen
##ure
##bel
##veld
58
be
handelen
indrukwekkende
##king
dorpen
##ai
binnenkort
vooruitgang
absolute
bereikbaar
voetbal
da
relaties
bijv
nodige
joodse
ras
##za
groepsappartementen
##ning
californie
##houder
gelijkmatig
michael
##ik
boekt
schijven
soleil
aanpak
gevaar
vermijden
heldere
cellen
fijn
dierentuin
stukje
nachten
##tte
evolutie
dezen
dier
gang
##age
identiteit
tijdelijk
cijfers
huwelijk
printer
gps
assortiment
california
wereldoorlog
degene
bewoners
ministerie
diepte
persoonlijkheid
sectie
bal
java
muis
normen
crystal
gewerkt
kern
chili
##band
bevestigen
accepteren
meten
##ting
##cht
blik
efficiente
geregistreerd
innovatie
uitzondering
alpes
exclusief
##igen
technologieen
lunch
austin
infrastructuur
contacten
voel
mechanische
ergste
geur
tent
fijne
kristal
verwerkt
##vorm
bevoorraden
##kracht
##elen
pijpbeurt
sec
gites
automaten
ontwikkelingen
boten
sneeuw
opent
onderweg
wild
sociaal
shirt
##pt
antwerpen
heuvels
##materiaal
zorgvuldig
bay
big
donkere
maal
oranje
geinfecteerd
series
geintegreerd
constructie
belasting
##aat
geslacht
##ien
wendde
crisis
goden
doelen
student
abnormaal
ingebouwde
aangepaste
logische
gemak
officieel
hield
treden
bureaublad
bevestiging
redden
verzameld
voorjaar
droom
opera
iran
stadscentrum
jaarlijkse
begrepen
transfer
##beheer
context
elegante
respect
fort
provence
routes
##bank
trap
gras
afmetingen
gevuld
militaire
haardroger
vervaardiging
foutmelding
vonden
ondergrond
handelingen
garage
paarden
panama
ontmoeten
aangenaam
gewonnen
bestel
geladen
omgeven
combineren
xp
##mer
chinees
intivar
slapen
##res
kansen
##tm
voorkomt
zonnig
chr
creme
renners
uitgegeven
dokter
concert
schepen
desktop
red
tegelijk
italiaans
schone
munten
hal
monsters
basic
##rd
commentaar
werelden
griekse
vliegen
evenwicht
beperken
deden
installaties
minimaal
##mogelijkheden
accommodaties
minstens
##ana
titan
cirque
luxemburg
##and
gaven
sporen
nr
figuur
priester
inzake
vreemde
indoor
onafhankelijk
akkoord
juridische
doelstellingen
##ee
opgegeven
kathedraal
problem
levensduur
vruchten
zilveren
essentieel
artistieke
paard
vertaald
zelfde
north
voorwerpen
jean
##one
martin
geliefde
heilig
bedoeling
pst
eeuwen
voer
talloze
transseksueel
dikke
leeft
grafische
wilden
ruimtes
module
##ey
beroep
##bouw
beslissing
francisco
##bedrijven
##diensten
lief
indonesia
missen
gewoonlijk
##lijst
kruiden
verkennen
proeven
schepping
fitness
flexibel
upgrade
##iseren
##schap
blue
erfgoed
plaatjes
contract
ondernemingen
controleer
vergadering
##gebruik
generator
opgebouwd
methoden
##ble
avontuur
directory
1999
diner
content
##middelen
criteria
technisch
##igheid
ref
geschikte
##°c
adverteren
halve
harten
##dienst
operatie
profeet
arabische
huisvrouw
minimum
gecrasht
wetenschappers
dienstverlening
vliegtuig
##bedrijf
bevorderen
##lt
duiken
non
qnap
speciaals
zaden
heuvel
gemakkelijker
viel
##eel
gesprek
stonden
schema
gelieve
behandelingen
correct
procedure
case
beperkingen
vertrekken
beschermt
lake
opsporing
gezondheidstoestand
##ld
bewezen
fornuis
charles
getest
solved
##eld
##ijn
geselecteerde
omvatten
hoeven
miljoenen
ha
termen
verplaatsen
profiteren
xozilla
food
gecreeerd
middeleeuwse
lente
lotto
uitleg
visuele
suiker
ontspanning
feiten
lieve
toernooi
schilderijen
bewaren
hopen
control
deelnemen
skien
samengesteld
duurzaam
eraan
ganse
patient
discover
antivirussoftware
spanning
style
vijanden
verre
mezelf
vergelijken
coach
jarige
draad
logica
beiden
gaten
lot
verwerken
uitgang
versterken
hitmalware
aanval
motoren
##ele
redelijk
##eur
aangename
innerlijke
invriezen
breakfast
medicijnen
verjaardag
##wereld
combineert
opmerkingen
##hoek
geweld
efficientie
theorie
tropische
stress
portal
vergroten
antwoordde
mappen
uniform
round
yoga
bediening
plaat
hoorde
slaap
vergoeding
kleurrijke
boerderijen
versterkt
leert
streven
hoeveelheden
broeders
pakken
configuratie
##di
leiders
licentie
voldoet
##ysteem
gemakkelijkste
behuizing
gedragen
toegelaten
##mo
drugs
garen
gsm
verbeterde
##hi
beluisteren
##he
trekt
ziekten
rijkdom
iii
tepels
##aan
inrichting
##els
specificaties
onderkant
pure
essentiele
onderscheiden
##beeld
herfst
kraan
org
parcours
geselecteerd
vooruit
gluurder
verstrekken
westerse
filosofie
meertalige
voordelige
element
ontstaat
zekerheid
##ters
eerlijk
express
stil
village
##prijs
initiatief
kussen
stimuleren
draadloze
omringd
koninklijke
dichter
gekleurde
potentieel
reserveringssysteem
bel
##plaat
monumenten
zover
opname
##middel
noodzaak
zinnen
git
beurt
display
pageviews
afzonderlijke
##bad
term
bijgewerkt
life
##im
aires
tickets
poorten
testament
flexibele
gemonteerd
symptoom
##zuur
##ding
buenos
liefst
##mi
schepper
uv
consument
ab
bestandsformaten
positief
spoedig
button
maakten
opzetten
weerstand
##line
houding
micro
servers
zwembaden
immo
##cm
one
##spel
gelezen
horloges
release
gegarandeerd
usa
eruit
private
verantwoordelijke
vietnam
baai
spieren
vertalen
geleidelijk
iphone
korea
wetgeving
individueel
jaarlijks
verzonden
foute
verscheidene
fantastisch
garnalen
os
aantrekkelijke
koningen
wederom
am
gelden
magazine
##tes
afval
functionaliteit
compacte
##achtig
balans
scant
montage
groothandel
publicatie
catalogus
expertise
verrassing
##straat
herinneren
##ice
bedekt
waardevolle
bezoekt
##boek
benadering
bewijzen
katholieke
kortingen
mam
##industrie
##iet
afrikaanse
kernel
flash
dalen
gekoppeld
##rie
tiener
converteren
planning
toiletten
beltoon
gevangen
kopieren
winnaar
denemarken
pcmag
welzijn
groenten
metaal
gemeenschappelijk
samsung
santiago
werkzaamheden
alternatieve
inspiratie
sell
ploeg
verloop
hans
parlement
horloge
installeert
magnetische
card
alanya
bestandsassociaties
energieen
heren
##beleid
cirkel
sprake
terminal
full
laptop
zeilboten
1998
rechte
##hout
trek
kleiner
glock
off
##een
groeit
oefeningen
zeilen
at
bio
indahnesia
arm
haag
extreme
##pagina
dubbelklikken
##ms
harmonie
modus
poging
varieren
geinspireerd
xxxdan
##up
pop
certificatie
voorwaarde
entertainment
liefhebbers
##iek
gast
momenten
tijdelijke
oren
##lla
handmatig
klok
tablet
##ijd
extreem
reiniging
##naam
##way
circuit
inspanningen
mails
raam
softwareprogramma
telkens
won
afdrukken
woestijn
certificaat
lag
passagiers
aangedreven
wedstrijden
##hotel
national
stuit
bestands
suites
##ko
plaatse
vaatwasser
voorzichtig
grondstoffen
achterkant
winkelen
dansen
relevante
kalender
gebaseerde
kanten
fundamentele
noorwegen
overigens
valse
vijfde
nogal
jeugd
slaapbank
wellness
##bar
begeleiding
gebleven
overdracht
resolutie
verslag
afgesloten
gezondheidszorg
schrijver
ibm
binair
waaruit
minuut
vieren
voltooid
sleept
vlaanderen
leek
boeg
benen
virility
beschadigd
gerechtigheid
meningen
baden
oekraine
ok
laatst
stelde
tijdschrift
verkeerd
eenpersoonsbedden
playa
voorkant
bewegingen
apostelen
bovenstaande
oordeel
700
particulier
toestellen
vakantiehuisje
##by
analyseert
verzending
communiceren
artsen
kanalen
wallpapers
terrassen
virussen
centra
clubs
office
maaltijd
##huizen
vastgesteld
primaire
gelegd
iso
profeten
american
##pel
green
ipod
kamp
volvo
hoeken
classic
wielen
##32
gelooft
gepresenteerd
amarillasdominicanas
bestemd
favorieten
meet
praktisch
verteld
boedapest
sterker
##isering
bedraagt
boodschappen
##hof
##ul
presenteren
turbo
zuidelijke
petrus
combell
geheim
##wa
incl
waarlijk
conferentie
florida
functioneren
gekenmerkt
##lingen
##ui
tatoeage
uitgebracht
asfalt
opvragen
reizigers
groeiende
aanvallen
muzikale
tradities
meerderheid
##km
bellen
lokaal
mailadres
exporteur
freebsd
aspect
diagnose
item
##ue
fles
##laag
##un
broer
federatie
circa
nauwkeurig
kanker
reinigen
##ans
decoratie
monument
sea
stoop
##olie
bungalow
brand
afwerking
bord
##bus
grijs
yun
schapen
kielpomp
kristallen
platteland
charme
dynamische
##niveau
performance
campagne
stacaravan
stijlvolle
thomas
smart
herkennen
##ny
animatie
medisch
therapie
beantwoorden
veiligheidsstatus
make
consumenten
mark
recent
us
ziekenhuizen
domeinnamen
nogmaals
stippellijnen
##baan
ongedaan
aanleiding
betaalt
knoppen
gevoelens
keten
##stuk
alpen
gestuurd
eropt
doos
voelde
co2
marina
##vakantie
stuks
particuliers
verspreiden
schakelen
converter
maild
omtrent
duisternis
vitamine
wegens
##ou
##air
riep
duurzaamheid
bestandssoorten
donkers
flexibiliteit
##nde
gram
apostolische
zekere
agent
##zaal
geschiedde
harig
uitdagingen
##ang
softwarecomponenten
bussen
ontmoet
verbeterd
smalle
bestandsanalyse
liep
gestart
ijs
cyclus
produceert
##leven
verwijdering
##ay
html
##port
blijf
bovenkant
engelen
gelijke
adviseren
##kken
eet
schitterend
webpagina
benodigde
gebonden
professioneel
##ley
douches
platen
##wagen
hersenen
kwaliteiten
vaker
katoen
sporten
##ssysteem
bekeken
levend
lidstaten
##uw
gebeurtenis
gitaar
stabiliteit
ticket
moeilijke
##stad
wettelijke
kenia
wint
vergeleken
scenario
dames
ondertussen
texel
budapest
hel
tafels
##groepen
snijden
klassiek
##ties
chirurgie
geserveerd
betrouwbaarheid
draadloos
windstoten
2e
gepland
erkend
power
roepen
straf
volkeren
getroffen
trouw
##ius
teams
##pad
##ron
loterijen
##ap
abraham
letterlijk
lettertype
maatschappelijke
##ation
persoonsgegevens
##field
brandstof
breken
volgend
mis
beleven
herenhuis
kralen
evaluatie
genezen
verstrekt
wandelingen
##boom
inlogt
stam
zwaard
##tisch
##zer
rio
regelmatige
##licht
ingezet
instantie
wateren
verwijderde
supplement
toer
betrouwbaar
script
##maker
85
dos
gedachte
vandaan
zak
loire
factory
oor
adam
romantische
golven
grotendeels
berekend
print
toonaangevende
firma
chauffeur
passie
beinvloed
do
sms
varen
voert
wastafel
##dagen
linker
verhoogde
dertig
##ud
wassen
dromen
hof
minimale
south
analysis
literatuur
identificeren
dimensie
verleiden
cultureel
verschillend
jacht
rapporteert
dealer
duren
neus
tas
dieet
datacenters
investeringen
maaltijden
rivieren
gebeurd
heiligen
ml
zandstrand
hoor
makkelijker
verscheen
##pakket
##wood
##pers
##sche
beoordelen
hydraulische
signaal
twitter
bezoeker
broek
speelde
stuurprogramma
verhoogd
##ds
uitzonderlijke
amerikaans
bestond
interview
verdwijnen
islam
##ham
handige
tijde
arbeid
behoorlijk
tenminste
##informatie
overvloed
royal
uitstraling
##ura
truck
discussie
stevig
##ving
zijner
ernstig
volgorde
bagage
infectie
##iging
ontwikkelt
applicaties
beinvloeden
weerspiegelen
vervaardigd
guiamedicasalud
##machine
wakker
##kaarten
engel
borden
noodzakelijke
stoel
structuren
gebruikelijke
ijzer
rekenen
kast
geprobeerd
pensions
simpele
mijnbouw
verwachtingen
##ief
bijbehorende
beslissingen
aanzien
eeuwig
room
##periode
inn
rubber
romeinen
tm
amarillaspuertorico
traditioneel
oprichting
rijpe
toernooien
borst
mollig
regelen
beschrijven
geregeld
##20
1940
eindigt
krant
workshop
point
kaas
london
plotseling
steek
##ser
oorzaken
strippen
www
afslag
zonnige
##rijk
opel
samenstelling
##museum
eigenaars
onderste
zakken
aanwijzingen
klinieken
levendige
comite
pot
rijdt
ermee
hetzij
erkenning
kopie
support
deelname
concerten
gesneden
handleiding
heiligdom
##blad
beschrijft
schuld
##recht
deels
geschapen
individu
jackpot
toezicht
voorgesteld
##lin
betalingen
gerust
authentieke
luchtvochtigheid
nat
eeuwigheid
beddengoed
porselein
rustieke
##baarheid
vertegenwoordigers
chocolade
toenemende
winkelwagen
yahushua
##stelling
tentoonstellingen
ms
oefening
planeten
alvorens
bakken
meren
santi
verhoogt
wijngaarden
##aars
re
stadje
vreemdgaan
condado
hals
emoties
gebeurde
smartphone
ringtone
sant
sap
gerelateerde
raakt
##chap
gevaarlijke
eigenaren
telt
college
geesten
zaal
##meer
gereedschappen
collecties
gemakkelijke
wapens
aanvragen
district
utrecht
##ford
aanbevelingen
eenheden
gedeelde
##iers
hectare
shell
specialisten
waaraan
intelligentie
midi
gelovigen
aktieve
wenen
beurs
blad
introductie
##jaar
##ix
uwer
voorbereid
voorheen
gemengd
nauw
slipje
hoogtepunt
besteden
bepaalt
fashion
overslaan
potentiele
georganiseerde
plugin
##functie
klinische
porto
specialist
terugkeer
hangen
page
tank
types
bruin
voorstelling
69
bouwmaterialen
tandheelkundige
##oren
##productie
azur
##bak
priesters
von
daadwerkelijk
event
leidde
##volle
##druk
##°
gat
particuliere
##ino
late
uitwisseling
volken
##ity
paden
tennis
openbaring
eieren
gemaakte
##val
besloot
gewenst
vouw
omgaan
verstand
perspectief
##vormige
daalt
garandeert
tooltm
##ieten
##logie
betekenen
elders
##ders
maandelijkse
uzelf
omzet
toestel
hierin
noordelijke
pakketten
stedelijke
##gt
kapel
magneten
voornaamste
universiteiten
##uze
specialiteiten
vliegtickets
vochtigheid
##ens
beslist
broeder
malta
spoor
woonruimte
zelden
onvergetelijke
paus
snelweg
##sing
gebroken
rit
look
by
##gaan
overnachten
slots
bedienen
gered
id
adressen
residentie
aangebracht
stierf
weergeven
aftrekken
richtlijnen
vroegere
##ea
##jo
first
elegant
##stoffen
minute
sla
strak
strategische
autoriteiten
lounge
oh
slimme
spiegel
fans
staanplaats
monte
behoud
bril
##ping
creatie
marine
onszelf
typen
##delen
meubilair
turkse
##bomen
mohammed
uiteindelijke
##aire
leverbaar
##ore
##ss
goedgekeurd
sensor
vakanties
wijst
implementatie
zoekfilters
1996
puur
reist
thermische
##ag
singapore
nadruk
record
satan
verzekeren
leg
mobile
sta
##sh
aangewezen
antiek
venetie
voorziet
##gebieden
corruptie
exact
middels
oefenen
##gang
gezamenlijke
zoekopdracht
gold
latere
speel
bikini
##ky
##llen
1997
atmosfeer
oostenrijkse
verbeteringen
##werken
sessie
hulpmiddelen
##goed
1995
ad
documentatie
batterijlader
getuigen
simpel
anysex
##set
oma
rotsen
##gebouw
noemt
hemelse
##iden
##lie
nabijheid
constante
exacte
##ard
##machines
tempo
##iseerd
aziatische
##plan
ernaar
firefox
schadelijke
verf
ultieme
gezonden
overlijden
verbetert
toebehoren
gevoelige
oproep
##gaat
##vel
organiseert
university
sportieve
bijeenkomst
discipelen
alan
verdwenen
##plein
banen
bungalows
procedures
referentie
verwarmd
wolken
kelder
sectoren
##ok
pizzeria
carriere
stevige
vijand
landelijke
1e
bespreken
wand
cabine
daartoe
permanent
opgelost
##meter
keizer
komst
poolse
verpleegster
jurk
stilte
##tic
matig
spuiten
ligplaats
roland
aardse
star
tevoren
##model
verwijder
geneesmiddelen
mar
drager
munt
tekens
xcafe
essentie
geaccepteerd
aangenomen
finish
lichamelijke
rijst
aantrekkelijk
gemeten
vaders
##ua
promotie
cafes
functionele
serieus
financiering
koran
servies
lege
hulpprogramma
reviews
systems
zuiver
##stand
robert
diversiteit
binnenlandse
seconde
gardena
hot
lampen
stralen
uitbetaling
award
vocht
##vrij
bekomen
altaar
tegemoet
url
##sproces
geconfronteerd
leeg
dal
medium
overwegend
oracle
opbouw
antonio
pre
bestuurder
##geld
overeenkomstig
vervanging
voorstel
welvarende
besproken
side
behoudt
volkomen
waarna
##ff
zwitserse
blokken
zeldzame
overeen
##ite
aanbieding
abonnement
anker
daden
vreemd
aansluiten
tweepersoons
voegt
werelds
##aren
hierover
recovery
verticale
geholpen
belastingen
##kast
afdelingen
close
credit
harte
hete
kit
72
buik
##deren
##ber
##fe
bacterien
inzetten
##og
daniel
stille
##ex
mahler
toename
verbond
brachten
capsules
finale
miguel
boeren
klinkt
pasta
sterkte
score
washington
foundation
gevangenis
sluiting
##box
1z0
informeren
koppeling
public
vloeistof
aangekondigd
getrokken
leraren
company
vervuld
afspraak
feestje
kunstgras
verhuizen
aandeel
road
##gemaakt
artiesten
eindigen
podium
vorming
vrees
bruiloft
charmante
##dt
casting
dna
noten
original
parameters
tocht
protocol
auditie
naties
stukjes
emotionele
gedood
vereiste
aangelegd
depressie
dik
gent
koningin
geestelijk
gustav
antieke
golden
vaderen
##mie
malen
verzoeken
tekeningen
tijdstip
vlaamse
##ille
##lijnen
amarillaselsalvador
inkomen
maxutilities
##vormen
ligstoelen
activeer
individuen
vermindert
omstreeks
belangen
heerlijkheid
analyseren
financieel
verfijnen
doorgaan
matige
schrift
bestuderen
herinnering
verschenen
workshops
##50
chrome
gespecialiseerde
onderworpen
deeltjes
jersey
letters
prestatie
galeries
##technologie
digitaal
finland
plantaardige
bioscopen
creeert
isolatie
enigszins
nice
rapporten
graf
jozef
kennisgeving
dekking
gek
kwartaal
indicator
##stukken
##uk
##ei
feesten
level
noordzee
stammen
concentratie
theaters
federale
hoofdzakelijk
inspanning
vacuum
##platen
industrieel
opgesteld
interactie
zoete
aangetoond
index
##ini
compatibel
dierenarts
##soorten
ashemaletube
##of
gedwongen
next
verwijzen
geheime
publicaties
orgel
flatscreen
inc
palace
vereisten
##si
betaal
lijsten
ontwikkelaars
frequentie
stijlen
eerdere
fetisch
schijnt
verklaard
your
handicap
trend
##nie
##oon
##ras
beginners
gekend
gunstige
stockholm
adem
carolina
decoratieve
keuzes
magische
melden
vierkant
repareren
legde
speeltuin
winnende
aldaar
studeren
aroma
begrijpt
box
geroepen
ingeschakeld
lcd
piano
frisse
geverifieerde
overgang
vandaar
materie
spannende
trendy
uitgenodigd
verbindt
##sector
principes
tientallen
atlantische
besluiten
verklaren
schilderij
##bi
laarzen
overleven
springen
erbij
percentage
silver
slagen
technologische
gel
gesprekken
cote
mozilla
beperking
ulieden
alarm
mouwen
160
wisselen
##bed
ogenblik
answers
vijftig
##urs
stijgen
##af
moncler
zuurstof
body
go
overwegen
##bureau
bevestig
opgevoerd
tile
bezitten
inkomsten
zijden
##ita
klimmen
onbekende
toegevoegde
365
grafisch
sex
verzekerd
neiging
biologisch
diego
panoramisch
geluiden
geraakt
munchen
parken
##van
waterkoker
hetwelk
lichamen
schatten
aanzienlijke
beslag
ontbreken
samenwerken
smaken
uitgave
publiceren
randen
soortgelijke
uitdrukking
##cy
##nce
##uit
pompen
sera
##gel
research
saul
##ive
boeddha
vechten
voorgaande
##bach
presenteert
surfen
syrie
genereren
kong
passende
testomgeving
##40
##lle
losse
##oi
juan
weder
definitie
lamp
ongetwijfeld
organische
zuivere
##istisch
kleinste
excursies
intelligente
latina
vlag
day
nld
arbeiders
festivals
agenten
zwanger
taiwan
mineralen
##bestand
doorheen
draai
verander
##aties
accu
transacties
##ah
##ct
creditcard
toets
verdeling
vernietigen
##patroon
blok
verwachting
##sch
ram
waarschuwing
##cs
eco
reserve
stuurt
vegas
mount
platte
programmeertaal
vakantiepark
investeren
slim
gezamenlijk
##ira
##vol
catalunya
gezocht
vergroot
goedkeuring
marie
slachtoffers
reputatie
georgia
gangbang
minibar
rel
steel
toetsenbord
bruine
##vrije
aramese
gmt
laboratorium
machtige
slaat
getal
toegewijd
##out
##winkel
aanpassing
binnenkant
daaruit
garandeer
geschenk
overleg
##od
ingevoerd
malaga
tsjechie
braindump
doelstelling
gunstig
profielen
##kers
overtuigen
zwangerschap
##over
transformatie
##zaam
down
immobilier
maps
vincent
vintage
retro
wonder
1990
aandoening
##lia
aansprakelijkheid
bijwerkingen
haute
indrukwekkend
troon
##dy
kijkje
verliest
vliegtuigen
##bord
annulering
scooter
##komen
belgisch
tijdje
180
##tten
##zo
moslims
##mann
##ks
akoestische
ecuador
plakken
spectaculaire
ertoe
vezels
##ese
creativiteit
haal
hosting
ken
vrucht
gebeden
log
##mp
dunne
overdekte
toepassen
##tocht
begeleiden
buitenkant
canaria
respectievelijk
360
generaal
kluis
verspreiding
aanmerking
breiden
roept
wisten
conditie
duistere
##fen
horizontale
##waarts
generaties
##ming
hersteld
##ung
1992
1994
verdrag
vrouwe
with
doorgaans
laagste
mars
gemeenschappen
laboratoria
stijging
galerij
gerealiseerd
140
nabijgelegen
##gehalte
integreren
vangen
beschouwen
export
klas
languedoc
hong
tapijt
##waarde
qua
rusten
sokken
chips
rose
##hal
golfbaan
stadium
telefoons
zweedse
##onderzoek
modules
nood
simpelweg
volgde
zette
##town
350
belangstelling
gevaarlijk
gokken
moge
onmiddellijke
stock
##ho
nord
##rijke
afspelen
bovenaan
opgezet
steunen
ziek
bioscoop
leest
##wand
consumptie
pan
##igd
culturen
pierre
vijver
##tel
kopers
sindsdien
##ijk
beton
rom
place
king
##snelheid
##staat
paardrijden
supermarkten
##und
bevrijding
ontvanger
pogingen
spreek
bing
chat
kompas
ondergrondse
oppervlakken
perusur
verplichtingen
##nte
amarillascostarica
commodore
uk
central
verlicht
huishouden
koninklijk
meditatie
regelgeving
intense
screen
vendere
keramiek
ontmoeting
tours
##ons
getuige
wijten
hits
probeerde
schilderen
transparante
verklaart
dossier
##ssen
dildo
kosmische
kunstmatige
niettemin
au
gemeenten
architect
copyright
plug
vertalingen
voortdurende
ontving
westelijke
##rk
network
##md
dode
ego
enthousiast
sd
##ane
##club
conclusie
geinformeerd
scene
alhoewel
cel
editor
gegeten
sanitaire
##ator
klim
maagd
proef
sales
uitgaven
##team
##rand
##stenen
meerder
premiere
##teren
kerst
marrakech
minst
ontwerper
trok
voorafgaand
##station
bravotube
irak
uiteenlopende
vleugels
68
cruz
eeuwse
scherpe
secretaresse
##service
soldaten
strijkijzer
drukke
##activiteiten
gepost
onderaan
aanbrengen
doek
beschadigde
schat
verlaat
##bestanden
gehaakte
lading
zingen
##ieve
##ringen
binnenplaats
##ologie
##tafel
omgevingen
opdrachten
pak
verplaatst
gedacht
light
waardering
stopt
tijdschriften
monitor
george
gmbh
victoria
illinois
instant
junior
pixels
track
verschijning
farmaceutische
intensieve
ouderen
trainen
veranda
##zijde
versturen
bepalingen
heleboel
toewijding
220v
##est
ongewenste
professor
nylon
zegen
zevende
grappig
klachten
kleren
hartelijk
hoorndrager
stabiel
blokkeren
onderscheid
yahuveh
gracia
steroiden
##slag
##als
##cellen
geintroduceerd
redtube
##iseerde
formaten
metrostation
navarra
plafond
ecologische
galerie
overgebleven
supplementen
beroemd
##ys
67
belofte
heidenen
jack
jazz
ondergaan
stabiele
hoer
ophalen
##school
##zijn
branden
voorwerp
mallorca
mobiliteit
richtingen
beslissen
tests
toegekend
##prijzen
lippen
lezers
east
social
##plaatsen
adriatische
overwinnen
continue
kerstmis
##gekomen
compact
goedkoper
handleidingen
borg
onthouden
tekening
##foto
##sten
elektronica
investering
##woord
dergelijk
hotes
omliggende
zip
##ata
christian
##muziek
##ratie
##tuin
gamma
verkiezingen
##pi
belangrijker
langdurige
hierna
geboekt
grot
honger
pass
voeden
metingen
##stroom
beweeglijke
combinaties
ringen
roemenie
62
toeslag
vernietiging
##cia
##code
##maken
barbie
kat
regeling
vertegenwoordigen
aanvaarden
koopt
penis
robuuste
verzorgen
brits
eene
ferry
kabels
christendom
gezag
vriezer
##vermogen
roodharige
state
view
garden
namiddag
omzetten
staande
zoetwater
kapitaal
zoet
camper
geregistreerde
variabele
bulgarije
redelijke
winkelcentrum
watt
islamitische
jacuzzi
maastricht
uitgeschakeld
vn
##verlies
plaatsvindt
pyrenees
uitgelegd
aansprakelijk
gijlieden
verlenen
##kwam
audi
my
##12
getallen
getuigenis
besteed
concurrentie
drogen
pijl
aangeduid
bleken
player
slang
blossom
dorpjes
overeenkomsten
wonderen
##ise
cisco
##uwen
66
dage
gezelschap
onderhevig
trappen
##ian
afzonderlijk
brieven
end
houder
valley
vlakken
##ere
##kerk
##laat
##lde
autoriteit
natie
drukwaterinstallatie
turquoise
activeren
mediterrane
mercedes
verslagen
you
helling
verleiding
##lagen
agaat
vergelijkbare
administratieve
1944
beijing
boog
centimeter
tenten
##eten
130
breien
olien
partitie
##sprogramma
meesters
roussillon
debat
car
grijze
nergens
bisschop
##aten
##stof
backdoor
wiel
##30
parkeergelegenheid
uiterste
vervullen
browservenster
geslaagd
ontdekking
papieren
##ano
##ov
herinneringen
progressieve
verbeelding
automatisering
textiel
uitgesproken
ups
zuster
##alen
##beelden
aanpassingen
an
neuken
etnisch
that
##raad
australische
louis
vrolijk
apostel
auteurs
gevoelig
##ora
spectrum
##vis
berlin
boottype
hongaarse
pillen
##ware
conflict
##era
more
mozaieken
stadion
stations
##jarige
##rende
dankbaar
kroon
##vloer
arme
dikte
kostbare
omschrijving
toevoeging
blockchain
bruid
hulpmiddel
zintuigen
##time
aandrijving
parkeerplaatsen
verkoopt
anna
chambres
haat
ontvang
river
##erden
oem
##eken
straling
voltooien
##vo
bewonderen
dikwijls
norm
terugkeren
vereisen
batterijen
doorbrengen
heritage
koraal
precisie
##heim
fysiek
lever
single
aantallen
aaron
disk
expert
wortels
##ord
armoede
erotisch
wallpaper
afmeting
pand
departement
heerst
moeilijkheden
here
panelen
vertel
resterende
variant
##igt
straal
waarderen
componist
stromen
##sme
##zaken
aandelen
colombia
natuurpark
institute
opdrachtgever
toelegt
##ach
##bs
gehaald
haren
moed
chronische
klassen
slowakije
##oog
ftp
verstelbare
##organisatie
duinen
gogh
indeling
identificatie
partnerschap
filters
tellen
verdient
youtube
##wagens
abroad
commentaren
condoom
image
mobiel
toestaan
##well
vrachtwagens
waargenomen
900
menigte
##kel
##project
keukengerei
leidende
moeilijker
volop
##vorming
champagne
##gegaan
##problemen
pennsylvania
##houders
aanvankelijk
overeenkomt
bestandanalyserapport
tenerife
teveel
zichtbare
##cc
aanvaard
##makers
hill
schiereiland
##onen
noemde
waarover
##des
beweegt
drank
lezing
jammer
vastgelegd
bretagne
omgezet
trends
##toren
gewend
respectievelijke
talent
vogel
begraven
overheden
sterrenhotel
bak
gedefinieerd
onbeperkt
posities
scheppen
##boot
dichtheid
technology
1993
hunne
vice
110
danken
pomp
##wijk
hotelkamer
resulteert
##deel
administratie
flora
operationele
weefsel
##ef
##nia
##so
educatieve
hallo
##lang
brussels
european
schroef
telefoonnummer
dialoog
spullen
##rische
eettafel
keek
kruising
rook
wetenschappen
##oot
63
granada
hiv
zaten
##kwaliteit
cash
vuil
zoektocht
olijfolie
windsnelheid
##apparatuur
##lon
afgestemd
geopenbaard
slachtoffer
alexander
erkennen
handschoenen
kubus
voorafgaande
##ose
##ppen
##sport
kunstwerken
##po
bleven
blijken
music
slotte
verzorging
feestdagen
toegewezen
verpakkingen
zijns
duitsers
rechtdoor
root
##kunde
##rij
havana
win
##ito
gebruikelijk
parasols
uitzonderlijk
urantia
vermindering
##back
3000
anale
fontein
rots
sleutels
geactiveerd
ontwerpers
uitmaken
verwerven
##centra
##tas
hemelen
homepage
main
verheven
willekeurige
°c
##vers
takken
herhaal
mentale
oever
anderzijds
bedragen
straalroer
weigeren
buis
voldaan
haast
vip
braziliaanse
invoeren
piercing
sexu
vivud
##lopen
bestellingen
uitgangspunt
##velden
bovenop
knechten
aangekomen
deksel
hclips
poeder
rondleiding
zusters
aangekleed
eenvoudiger
flat
greep
schriftelijk
omega
parking
##komt
definitieve
engineering
optische
cruise
latijns
prins
vertaler
access
kortom
liften
plaatje
uitspraak
##nis
karakters
openingstijden
praag
verwijdert
zesde
kastelen
overeengekomen
studeerde
pizza
vergelijk
jakob
offer
schieten
##60
zijne
61
wijzerplaat
arabisch
optioneel
1945
academie
drinkwater
grondig
serviesgoed
##ci
archeologische
dauwpunt
olympische
ondernemen
panorama
synthetische
vertraging
front
lastig
mengsel
afstanden
exemplaren
infecties
plat
##kunst
beheerd
huishoudelijke
symantec
voormalig
bestek
collectieve
omvormer
illegale
samenvatting
signalen
##grafie
inkt
kritiek
kwalificatie
vertegenwoordigt
2020
buitengewone
date
kunsten
landhuis
vergeven
konings
##behandeling
##boeken
##ted
betrapt
beweren
##rol
fiestaza
productiviteit
debian
getagd
deal
reisaanbiedingen
aquarium
zond
19e
pool
salomo
##ate
##reis
##ule
1991
var
daarentegen
fonds
##ec
##zorg
afgerond
onbekend
vrijwilligers
optimaliseren
stijlvol
boter
duik
indiase
veertig
besteld
bluetooth
commercieel
entree
haalt
oneindige
recreatie
bangkok
kasten
lancering
ramblas
ruimten
afgeleid
ontsteking
pauze
visa
##zone
democratische
inheemse
interpretatie
vernietigd
touch
vertrekt
cilinder
santo
##ast
beheerder
beveiligd
multimedia
schriftelijke
buizen
graven
handhaven
misbruik
ontsnappen
berekenen
ijsland
nijmegen
drtuber
kliniek
ontstond
toetsen
##ox
##ude
nek
tom
uws
##lis
##ola
##ystemen
borsten
1500
aandoeningen
ceo
don
godsdienst
allereerst
diesel
dual
horizon
molen
betrokkenheid
woonde
##ort
bijkomende
come
gedoopt
genoten
vluchtelingen
##iger
##mar
##steen
levensmiddelen
oogst
vb
conventionele
groningen
verbergen
##winkels
##yn
recensies
uitzichten
bevelen
dieper
toscaanse
zeilboot
##gedeelte
##ji
hack
hybride
regeringen
uitermate
ac
family
morgens
verwarring
source
##chen
##hoogte
##ieren
job
luister
zelfstandig
##llo
blijkbaar
diens
raakte
##wegen
concrete
klei
verlossing
buigen
geweten
hoogst
remote
##ines
gelanceerd
suggesties
uitbreiden
bol
geplande
mist
royale
volwassene
bestandssysteem
gastenkamers
graad
leerde
waarborgen
zenden
bibliotheken
logistiek
toorn
werkende
bruiloften
speelgoed
##avond
brochure
internetverbinding
##con
##traat
james
sprong
concentreren
dutch
enterprise
richard
storm
verdedigen
##ab
betaalde
verzorgd
hamburg
omlaag
read
routebeschrijving
uitstoot
grotten
mer
opstarten
verricht
##eling
dranken
intellectuele
vloeibare
daling
gecertificeerd
zonsondergang
##art
eiwitten
buitengewoon
verdriet
##positie
1989
achteren
unesco
##smogelijkheden
##€
98
bocht
farao
gidsen
monitoring
##las
earth
rama
varieert
zodoende
##bes
ballen
nauwkeurigheid
landelijk
chalet
concepten
flessen
lied
verlagen
##ht
##kleding
##type
blootstelling
elite
naarmate
talk
initiatieven
verlichten
aanbidden
hanger
campers
ph
bevel
nauwe
toyota
ark
overgenomen
pvc
wol
bewerkt
cross
hp
panty
virtual
vlakke
es
levensstijl
monster
bedrijfsleven
restauratie
##ijden
dolfijnen
##leden
##mers
##name
global
opzicht
##han
knecht
vermelding
dimensies
lieten
ruwe
store
tassen
##wijze
hunner
##haven
exemplaar
grande
great
kwijt
opnames
uitschakelen
vertegenwoordiger
chassis
fasen
vvv
##15
gebogen
mama
nul
uitdrukkelijk
##bal
##installatie
##kundige
stacaravans
lopende
positielichten
werkje
class
kritische
ontbreekt
verzet
beschaving
overnachting
scherp
versierd
daaraan
drankje
gezegend
peper
tong
duivel
lezingen
siena
veranderde
##taal
admin
transparant
verenigingen
excursie
koffiehuis
##test
tanks
vertrouwd
adapter
duister
erkende
middeleeuwen
vertrouwde
dezelve
party
datgene
gaande
zoom
##genoten
##structuur
draagbare
rechterkant
aanwezige
doorgegeven
verpakt
##elt
camp
hitte
xtreme
##mans
duo
glad
kandidaat
keus
semi
zones
##meester
genetische
kuiltjes
prinses
printen
afspraken
beta
chateau
chirurgische
bijeenkomsten
globale
long
unit
##ogen
conform
uwe
wijken
##ance
##oe
invloeden
kolom
kopje
decennia
elf
mits
scheiden
##handel
##ziekte
aangaande
medussa
pk
sa
sloeg
verrichten
##ara
##gas
##oppervlak
financien
verderop
gedrukt
instructie
spoelbak
##lag
extract
mechanisch
prestigieuze
stemming
aardig
figuren
nature
##dale
##gers
christen
##ros
aangifte
insecten
pearl
rente
##motor
ah
antenne
beroemdheid
reservatieaanvraag
##ben
##nten
jordaan
uitvoer
verklaarde
##aden
omwille
##ula
bestuurders
correcte
verhoging
voorschriften
grieks
voorzijde
chip
grafiek
negatief
tweepersoonskamer
##ante
annuleren
exotische
unix
##map
boulevard
opvallend
sierra
##enen
albert
mochten
toonde
mountain
rechtbank
1980
annonce
tekort
virginia
erfenis
opduiken
voorspellingen
##waarden
bali
congres
domeinen
sanitair
schouder
##kte
beveiligde
cup
provider
##apparaat
##bescherming
dg
gestorven
zoiets
##64
##room
democratie
gestopt
passeren
distributeurs
kranten
leeuw
prioriteit
residence
enzovoort
gereed
nodigen
se
vlekken
zoudt
##ico
genezing
natte
pen
property
reageert
veelzijdige
##sy
fenomeen
geografische
hoorn
##dheid
gewassen
or
tech
zetel
##feest
##ong
output
toegenomen
western
deskundigen
premier
vingeren
##ram
eenmalig
hoofden
##ye
alta
tel
luik
illusie
richtlijn
rp
smal
##planten
##spanning
alweer
contactformulier
conversie
##01
##netwerk
koppelen
ontdekte
kandidaten
maag
meters
ongelooflijk
trucks
beheersen
explorer
frankfurt
opgemerkt
og
afgewerkt
gen
ipad
iv
opbouwen
uitgegroeid
vee
vloertegels
erover
geslagen
masker
solide
easy
gerichte
vertegenwoordigd
##ada
nut
units
versterking
##techniek
afgezien
coating
laser
nochtans
reguliere
riem
stuurpositie
tweemaal
##loop
besef
geglazuurde
leefde
##16
##dieren
beschermde
gemengde
paars
bruggen
em
mb
romantisch
treinen
afstandsbediening
geschenken
sol
branch
uitgaan
vingers
##jn
##teerd
beseffen
fitnessruimte
huurder
piazza
tweepersoonskamers
aangevuld
amarillashonduras
hierop
nevada
normandie
oprichter
vrijgegeven
##kamers
airco
core
verlichte
##scholen
add
##instellingen
kip
wintersport
##festival
1942
geheugenkaart
roos
##rad
##via
begeleid
burgerlijke
strenge
##vissen
contrast
bevrijd
##bron
aanmaken
arena
maker
mengen
opmerkelijke
immobilienanzeigen
populariteit
toenemen
westenwind
controleert
dubai
gemarkeerd
huisje
kwade
roep
treedt
##ial
##tta
gereserveerd
koos
winnaars
##don
creatief
lidmaatschap
rijen
hogeschool
inzichten
mat
console
contactgegevens
katten
zijkant
livescore
verstaan
zithoek
zoo
standpunt
ultra
##are
architecten
milaan
##ness
sensoren
##voer
dozen
ohio
plaatsing
zwaartekracht
##vlak
buitenste
dynamisch
excel
producent
##gat
##geschiedenis
##leiding
##tz
annonces
burger
koloniale
lederen
catering
parallel
voorbereiden
woonwijk
##ick
##zin
bike
geheimen
gewichtsverlies
put
space
afgebeeld
ernst
grove
offerte
##wel
medewerker
vaten
##del
##pas
dronken
merknamen
##laan
##slagen
dure
nathan
properties
##basis
##ii
strategieen
archieven
goedheid
invullen
##dorp
aannemen
demo
godheid
lettertypen
vorst
##route
vervolg
avi
glans
noot
bogota
##sis
flink
gooien
krishna
kwesties
zomaar
78
gaming
gewoonte
ma
urine
##ics
bedacht
dealers
gauw
##ala
aankondiging
color
linnen
moe
morele
schelp
##kop
pack
sandalen
sat
paneel
processor
snelheden
stone
##lieden
daad
habana
router
##ificatie
##tand
piet
vermelden
zeevruchten
cf
corrupte
justitie
oorlogen
pond
##cher
ciudad
praktijken
zonne
elektronisch
varianten
vetten
zeep
chef
gestolen
kenmerk
organen
sao
zeekaarten
##ile
##vi
andre
dublin
bingo
leuven
##erij
##oos
74
bezet
bloei
mr
tieners
apartment
buren
caravan
decor
pa
##ich
definitief
lezer
lissabon
mega
vertrokken
ei
printers
uitschuifbare
##eet
##lessen
##los
amazon
wolk
##zetten
athinai
bijbelse
tamelijk
lichten
magneet
werkplaats
backup
hebbende
noordwesten
bezorgd
configureren
portugees
voorgeschreven
sagrada
tak
medicatie
onderling
onderricht
quick
samuel
troepen
agios
brabant
broers
gebergte
nabije
prettig
reiziger
special
versnellen
##bronnen
genot
must
vernieuwing
##datum
dosis
getekend
softwaretoepassing
beeindigen
british
intensief
nest
wijs
##hr
##rend
##vallen
arizona
board
mondiale
producenten
springs
uitgesloten
ventilator
achterzijde
eerlijke
vertonen
vijftien
ferries
venezuela
watersporten
booking
dell
gevierd
haken
toelaten
##ets
ingediend
kende
kocht
sfeervolle
c64
informatieblad
berekening
scheiding
beschermende
mijns
opstanding
thc
user
familia
implementeren
labels
news
offline
##glas
bescheiden
plaatselijk
sky
##ins
eindhoven
gepaard
vanzelfsprekend
##bos
##therapie
from
middelgrote
palet
ranking
##11
##banden
##eringen
handelaar
hoofdgerecht
pieter
trojandownloader
tuinmeubilair
verminderd
woud
450
alpelino
bewuste
enerzijds
expositie
moskou
onvoldoende
potlood
voedingsmiddelen
zeventig
##rn
digital
herhalen
sun
##ves
aankomt
beurzen
lingerie
nepal
overgedragen
##reizen
geschieden
skyteam
tube
verdelen
conditioning
douane
gedreven
key
##sville
coordinatie
geschilderd
letter
##ary
##filter
##mon
1939
benaderen
torens
verbazingwekkende
glorie
tranen
zurich
##papier
1986
3e
chaos
double
hielden
mg
ondernemer
##24
invoer
pensioen
bid
import
pijlen
##ase
##ervaring
1985
eethoek
opgeven
roman
trage
wijnkelder
##erende
deeg
intens
verzamelde
heiligheid
plagen
zeiljachten
balkons
gegarandeerde
jachtcharter
koers
uitnodiging
##fs
##oven
gewaardeerd
joseph
organismen
ruimtelijke
vriendschap
bezetting
hoed
knopen
ost
verfijnde
##projecten
##chi
##oo
gb
koeien
spam
##seerd
droeg
und
wissen
##complex
##uin
##zing
exchange
gerestaureerd
oprecht
vergeving
##ova
congo
gebakken
ruines
vlakvulling
##oien
aanmelden
amarillastexas
gedaante
gelaten
nova
rijn
woonplaats
##grond
##jaren
bmw
oostelijke
prijsklassen
##analyse
##lift
fysische
reizigersbeoordelingen
textuur
raid
shirts
siedle
aangeven
annunci
culinaire
folie
ingebouwd
order
riviera
spraken
tsjechisch
lekkere
pittoreske
##zak
benadrukt
galactische
houdend
jury
limburg
sovjet
vrezen
##kundig
bordeaux
campus
evalueren
feitelijk
groeide
jarenlang
mont
verlopen
650
api
matteus
motieven
schrijvers
sub
suriname
77
motorjachten
superieure
vat
wortel
##ade
125
ford
godin
treffen
bijstand
efficienter
spirit
zuidwesten
##kant
##rechten
71
lijm
magie
##ontwikkeling
##tan
aankopen
been
chroom
fax
hall
michel
familieleden
plafonds
aanbetaling
afgelegen
werpen
zolder
##ond
gave
honing
kwatrijn
persoons
toscana
##tt
renaissance
stimuleert
trip
##if
##nam
ana
staart
stijgt
vrijstaande
##vogels
dating
gevaren
sevilla
verzocht
genesis
karakteristieke
plotter
stoutmoedig
voorts
##kabel
bouwde
fascinerende
glimlach
keerde
powerball
zulk
##able
##voorwaarden
experimenten
wandel
zus
##faciliteiten
##oc
##tis
gotische
logistieke
opbrengst
trojans
geschriften
porseleinen
##ries
##rum
bilgepomp
gebruikersnaam
onderwater
precieze
shanghai
vergezeld
dynamiek
entre
hek
programmeren
tirol
wettelijk
##her
agentschap
eindigde
levertijd
operaties
vak
##last
container
docenten
gastvrijheid
milf
verblijft
##ep
fris
glanzend
moeders
verklaringen
##hop
angeles
bedanken
experiment
verloopt
verzendkosten
##lan
horizontaal
maleisie
privacybeleid
##brug
##verkeer
allebei
begrijp
development
tag
amarillasmexico
bekendste
gedrukte
general
##modellen
##mond
##uitrusting
corporate
gestaag
kroatische
lucas
now
secundaire
willekeurig
##verbinding
achtige
adobe
bedlinnen
chemicalien
etage
jongere
meenemen
##dom
bestrijden
host
serieuze
sperma
##ings
cadeau
praat
speed
##ona
bijeen
certificaten
eva
valle
##iel
##zet
particulieren
tegenstanders
orkest
vergaderingen
opende
conflicten
optionele
##lamp
erger
gelijktijdig
makers
netjes
volkswagen
##etten
aflevering
gevoerd
steile
toegewijde
wanden
##laten
##tra
bach
besturen
geneve
leeftijden
michigan
mysterie
rvs
teneinde
73
ibis
pick
soepel
gans
netto
wandelroutes
##skosten
1984
91
dc
lichtgewicht
##stijd
##teerde
eigenschap
standplaatsen
verwijzing
##ela
##nik
gpupdate
managers
##cultuur
##min
belast
neder
opkomst
union
dateert
fauna
indrukken
lening
presentaties
replica
sheshaft
tabblad
war
##apparaten
##ures
cruciaal
fotograaf
geliefden
genen
plak
wandtegels
##dos
afscheid
dochters
gedownload
herinnert
importeren
subtiele
usd
willem
##80
##bury
##gi
##vin
analyses
bas
beoefenen
definieren
genre
goddelijk
helderheid
opstaan
verplichte
verwelkomen
zocht
bouwt
containers
metal
motorfiets
schatting
low
wekelijkse
cala
middelbare
1988
fox
kustlijn
pisa
titels
vertegenwoordiging
vestigen
voedingsstoffen
aangemaakt
della
information
intensiteit
poesje
weefsels
zeldzaam
##eus
passage
zweeds
##let
96
bijwerken
derhalve
geduld
intern
resten
1970
based
druiven
lay
orgie
verrassend
##list
fraaie
tone
varierend
gerenoveerde
historie
inleiding
stereo
verdragen
fabricage
maison
politici
##ku
riad
##smiddelen
bevrijden
opzet
rokers
zoekwoorden
##manager
81
behandelt
##regel
sardinie
schotel
square
verstuurd
benzine
betonnen
community
namens
verbruik
verticaal
zestig
##meren
##nda
prof
uitstapjes
##met
##tiek
pandora
rechtvaardigen
vitaminen
##70
##stromen
5000
bevordert
compositie
perceel
weliswaar
##mes
gevangenen
herbergen
stapelbed
##blok
84
colorado
geschonken
ios
love
rozen
1987
edge
lesbische
##ges
drankjes
polyester
uitgezonden
1941
leningen
logboek
ltd
rechtvaardigheid
schilder
volgelingen
##logische
mov
resources
richtte
airlines
lens
schroeven
##groei
##namen
##post
##rit
##vaart
boekingen
legendarische
opstellen
redding
strikt
##hard
aanleg
ai
boer
delft
gebouwde
screensaver
trekker
##elde
behang
genoegen
hitler
productgegevens
psychologische
##ain
behalen
diploma
espresso
factuur
gepolijst
hobby
oclc
offeren
origami
tunnel
##ow
##top
amiga
cottage
elisabeth
falls
familiale
foutcode
nodigt
tik
trui
woordenboek
##house
##liefhebbers
onderzoeker
populairste
transactie
verdediging
paypal
size
snellere
stiefmoeder
times
##dorf
bronzen
integriteit
meubelen
tram
variatie
##az
##ique
##noten
##pomp
bekleed
bevestigt
marc
maya
sony
buffet
gordijnen
ict
ingeschreven
##oli
book
schoonmaak
town
vrachtwagen
##waren
ads
kwr
range
talenten
fluke
kussens
verstandig
##menu
##waar
bepaling
gaulle
geacht
gladde
jesaja
overtuiging
spier
voorzeker
contracten
kloof
trainingen
schoonmaken
##gewicht
##ions
broodrooster
huisdier
split
86
beoordeeld
hoorden
hygiene
immobilien
noordoosten
ontbijtbuffet
renovatie
tjechisch
woede
zonlicht
##draad
##pompen
##zel
##ari
##voeding
alternatieven
behaalde
blind
ne
segment
zoekmachine
##organisaties
##rijden
geabsorbeerd
opmerkelijk
vrijblijvend
yodot
dom
driver
natural
drug
posten
voorkeuren
contacteren
peloton
safari
veranderende
##pot
gelegenheden
stadia
verleend
herinner
melding
self
vleugel
##pur
amerikanen
jegens
lichamelijk
paspoort
raadpleeg
verwachte
##blokken
afdaling
drukte
merkte
promoten
voorsprong
##cker
hoofdkantoor
##dor
##pelen
canadese
luxueuze
radar
##maatschappij
##sse
binnenste
effen
gemeld
turks
vestiging
##gids
behoeve
brons
controles
eindeloze
gazon
##ink
jachten
meldingen
passend
##dek
##houden
elegantie
ingaan
opstand
plastische
##fabriek
##gevallen
emiraten
gezichten
knoflook
planetaire
realisatie
verbod
##ell
##lers
aansluitingen
benutten
fantasie
fc
trouwde
uurwerk
verrast
vlaggen
##ctie
begraafplaats
dun
gehalte
gratuite
pijp
##ous
concurrenten
part
sets
stelen
testosteron
##nische
aircosysteem
eixample
floor
mijl
rechtstreekse
blootgesteld
cyprus
gehandicapten
illustratie
litteken
lobby
pedro
senior
verlegen
##ette
76
schijnen
verschilt
driehoek
jonger
mechanisme
onverwachte
palm
sydney
zeespiegel
bezochte
religies
##ao
##tijden
busstation
deelnemer
gigantische
staf
uploaden
zandstranden
##fer
bereikte
dek
islands
opgewekt
science
##view
92
destijds
eiwit
gevestigde
kids
variaties
##iya
dagboek
dns
kampioen
seizoenen
slaapplaatsen
slijtage
vloot
##25
##ado
##instantbooking
##iseert
##mel
deken
din
fr
##patronen
hemels
inspireren
lachen
ssl
toeval
##dra
##verbindingen
bewaking
halverwege
##sniveau
dollars
hellingen
sicilie
vhf
##het
##kleur
##plant
sound
vagina
##enten
##itis
delhi
leon
mensenrechten
ongecensureerd
toevlucht
vlam
##wiel
kopieer
verworven
glazuur
methodes
regime
tsjechische
##tein
83
alsjeblieft
banker
intentie
skype
vlinder
220
bedenken
controller
ere
sessies
##balk
##its
##ute
avatar
magazijn
minibusjes
schouders
wapen
opkomende
tevredenheid
gereden
liefhebben
meesten
uitgestrekte
##iale
1950
accessoire
burgemeester
diabetes
favoriet
graphics
il
kok
leverde
onderzoekt
slangen
tafeltennis
##zame
##zien
gecertificeerde
##loog
dachten
ellen
rijken
##capaciteit
##gne
##merk
##telling
hop
locale
optredens
stamapostel
veelal
##fase
##veren
alex
contant
schilderachtige
##13
##banken
##schoenen
ir
motief
naartoe
niks
twintigste
bushalte
commit
naakt
verschaffen
##bereik
##mat
##ris
chevrolet
dam
detecteren
gelijkenis
kb
opleidingen
vervuiling
##week
assen
hanteren
jachthaven
messing
preventie
sri
verdwijnt
##fd
##ikt
##methode
##ml
babel
enthousiasme
harry
lokatie
marihuana
personal
standard
##oom
##point
aangeeft
afwezigheid
meting
volt
1943
bakkerij
hoogwaardig
invoering
onafhankelijkheid
stroomt
weersomstandigheden
##ars
##stijl
##zi
kampen
klacht
strijden
bridge
remmen
straatjes
venus
89
omgekeerde
ritme
updaten
##doen
79
hoogtepunten
jassen
koreaanse
orale
volks
winsten
##grootte
##zicht
jeremia
neerslag
racing
##oy
buy
iemands
monitoren
ongelooflijke
tachtig
tegenstander
voorwaar
welvaart
##duizend
93
atleten
elastische
gevarieerd
grondslag
hoogseizoen
ierse
ile
voorstellingen
##gebracht
##maal
alicante
jarenlange
mevrouw
bedrog
bewolkte
login
visserij
##gb
##ost
elkander
keert
ondernemers
produkten
uitgaande
##eo
daarover
delta
geslachten
langdurig
##doek
##eurs
##resultaten
binnenin
cap
maatschappelijk
##eden
##gs
1200
concurrerende
oogpunt
united
volksgezondheid
lust
werkwijze
##beweging
##maat
dordogne
inschrijving
vasthouden
voordoen
watersport
heerschappij
energieverbruik
garderobe
handling
havens
journalist
pups
wisconsin
##cel
##cha
##kanker
benoemd
bits
electrisch
gerenommeerde
koel
krediet
750
draag
dubrovnik
scan
veelgebruikte
vermijd
waterparadijs
##soort
care
esthetische
faciliteit
klimaatverandering
oproepen
vult
##pjes
##sluiting
hieruit
kapitein
lotnummers
nader
verwelkomd
waarschuwingen
##ici
competitie
draden
leed
middags
toelaat
toevallig
##schip
##uis
##work
eden
melkweg
nv
##oa
##poort
accounts
baas
cool
etiketten
strepen
voortaan
##lip
afwisselend
besturingssystemen
clienten
columbia
liefdevolle
standbeeld
stopcontacten
cookie
miwe
snijd
##ene
##tig
arameeers
bries
consultancy
enquete
ondersteunde
verschuiving
voorgrond
##vraag
gastronomie
geisoleerd
humor
ingenieurs
php
rss
verrekijker
##iviteit
herhaling
lawaai
luchtvaartmaatschappij
spannend
##management
94
aanvang
afwijkingen
kwart
najaar
schepselen
##taat
##versie
beantwoord
beloning
effectiviteit
omgekeerd
verbaasd
verzorgt
##anen
algehele
beschrijvingen
bonussen
continent
fan
infrarood
intelligent
steekt
##icht
beheerders
das
##bre
##functies
##ors
betekende
dierlijke
ofschoon
reed
standaarden
##oplossing
campanile
codes
soft
##gie
afrikaans
atelier
geliefd
logisch
spectaculair
struiken
thans
##lier
drop
opleveren
renner
##ish
1960
aangrenzende
aankomen
noordwestenwind
persoonlijkheden
solutions
##brengt
##omstandigheden
comunidad
huisvesting
mt
navigeren
snack
veroordeeld
##gedrag
##link
##our
evolutionaire
lan
tweedehands
aanbeveling
ag
barbara
bovengenoemde
ceramic
functioneel
boze
gevarieerde
jozua
toerist
uitdagende
##srecht
lichter
palma
##sia
academische
ervaar
grill
spiritueel
storting
##feld
equipment
##eerden
##ionele
##ru
##schrift
afsluiten
borstel
pin
seksueel
wijngaard
##ngen
merkt
nike
fabrieken
geidentificeerd
weinige
##ney
aanbiedt
gay
heirscharen
paragraaf
pistes
search
theoretische
##sburg
benadrukken
dj
onthullen
stelling
veeleisende
##tation
openlucht
##gerichte
etherische
fietsers
hilton
nadeel
natuurgebied
parc
trillingen
vergemakkelijken
vermoeidheid
##leider
arnhem
dwingen
eenvoud
hongaars
istrie
pasen
swinger
vermogens
88
barmhartigheid
bewerking
cricket
diende
grondgebied
telecommunicatie
uitstek
vissers
##tica
koeling
nimmer
plaatsje
tvs
##installaties
101
gif
omschreven
punta
##45
##ella
##raat
ps
stelsel
vloeistoffen
ziektes
##hs
argumenten
astronomische
indisch
jongste
ontwaken
pisten
rok
streeft
voortgezet
##my
anabole
daaronder
ensemble
halte
hopelijk
speelautomaten
taart
##stoel
corporation
icoon
idol
##fa
##rm
1983
bob
eenpersoonsbed
grasveld
82
boos
##90
##eg
##landschap
chemisch
exporteren
hut
relevant
spins
vriesvak
##offer
lima
negentiende
onzichtbaar
opsturen
puntarenas
schakel
almachtige
auteursrecht
broederen
ethernet
iegelijk
inloggen
paraat
rechtvaardig
afwasmachine
domain
som
sterling
veiliger
wijd
##bakken
etnische
snacks
soep
steenworp
##ces
##richting
intussen
manifestatie
rooms
verplichting
argument
installeer
wasdroger
paren
strategisch
deense
delf
ellende
fotografen
johan
mes
sainte
wisselend
##14
##beveiliging
##ffen
2de
berouw
fondsen
gastronomische
lineaire
pays
voorspellen
##sels
matrix
vochtige
woonden
zuur
gehoor
ruw
transformeren
##controle
bdsm
collectief
im
nederlanders
onwetendheid
promoties
spring
vender
##activiteit
##gebruikers
##use
edinburgh
nagenoeg
ongerechtigheid
schakelaar
zonnestelsel
##seizoen
aarzel
files
tezamen
component
divisie
gestelde
health
kitchenette
luchthavens
opeenvolgende
volumes
##liteit
##omgeving
##rek
##zaak
input
muzikanten
oevers
vouwen
ambachtelijke
conf
gevoed
trainer
##fort
grijpen
registry
vorsten
##tochten
##wedstrijd
dolfijn
drijven
axis
held
lock
platforms
plotselinge
portret
registreer
##ena
##zee
gesticht
hostels
verminderde
##anten
bijhouden
loon
rechtsaf
rs
tempels
verlangens
fit
marche
pater
##grafische
##oplossingen
birmingham
ongerepte
ontspannende
##aien
kluisje
schenken
teen
wolfraam
##voorzieningen
italiaan
wikipedia
aanraking
frequenties
milde
monaco
anuncios
attractie
doorgeven
dosering
evenmin
gemarkeerde
oudheid
railway
schuldig
##lezen
##tering
drops
psp
##car
##dig
##overeenkomst
architectonische
filistijnen
gewichtspercenten
middelste
nieuwsgierig
preventieve
rechterhand
uitzien
vibrator
zoekmachines
##boten
bag
executive
innovaties
see
trading
voorgestelde
zitplaatsen
##kamp
waaier
athene
cpu
guatemala
lab
ratings
trio
uitmaakt
ve
vinger
vloertegel
whitening
bloeddruk
geloofd
jupiter
uitwerking
zeekant
##igheden
##kend
aanbidding
breinld
discussies
documentaire
gepersonaliseerde
lanka
streng
uitvoeringen
blackjack
country
nota
organisator
periodes
plicht
scanner
upgraden
vi
##ip
##risico
##seren
egyptische
firmware
gedetailleerd
gegenereerd
referenties
voorlopig
gerecht
hoef
luis
verzamelt
werkdagen
ceremonie
chain
chique
dekken
oase
ringtones
##kanaal
##vriendelijke
astrologie
kochten
##iz
fiscale
pay
rondleidingen
ui
vegetatie
##mont
manchester
scatter
viering
##ulatie
##yo
abu
bet
charentes
intieme
steeg
##ida
##pakketten
##temperatuur
kilo
portugese
##verlichting
beleef
commerce
designer
geisoleerde
karton
opgeleid
philips
##71
##erie
globaal
lost
onzen
raadzaam
roulette
universeel
aangemelde
advocaat
carlos
detectie
gedroogde
grondige
nazi
paarse
##werking
1982
bijzonderheden
formele
gaudi
karma
robuust
slovenie
vielen
bruikbaar
geringe
hills
limiet
lines
resp
thaise
traject
##ama
##ool
adembenemend
bevindingen
dagblad
dekens
gebreide
gelijkvloers
gestegen
lam
plaatsgevonden
poten
quinta
ss
variabelen
##we
##win
evenwel
jas
massachusetts
meldt
relatieve
##21
##dal
18e
avonden
browsers
doop
drama
getrouwd
gevoeligheid
gift
heelal
helden
herstelt
neen
onderlinge
verstelbaar
##deur
##eid
ankerlier
apartments
aruba
avenue
dichte
kledingkast
lesbienne
saus
wall
##bewustzijn
##camera
97
broncode
inkoop
linksaf
veelzijdig
aanduiding
gehuurd
watervallen
##02
##eloos
##tank
afvoer
association
compressie
deskundige
energy
hydraulisch
kranen
landaansluiting
meng
overgebracht
rechtvaardige
##ax
##cus
dewelke
ray
rechthoekige
##gebergte
##mt
##ral
##verzekering
begroting
bible
discipline
ijzeren
longen
run
voerde
zelfstandige
##macht
##oze
##sters
aangetrokken
gekwalificeerde
illustraties
parfum
recentelijk
thai
vervulling
aardappelen
handgemaakte
ingreep
reparaties
tinten
viertal
william
##bit
##ueel
beeldende
betaalbaar
brugge
gehoorzamen
immuunsysteem
robot
trinidad
vel
##matig
aangeraden
bedreiging
dienaren
durende
interviews
lucia
minnesota
serveren
naald
##oid
##staan
##voorziening
accomodatie
beest
beheerst
brouwerij
geleverde
gezorgd
gynaecoloog
oneindig
##ski
##vragen
avonturen
echo
jungle
strekt
##kasten
1981
inschakelen
marco
medicijn
pakistan
##com
ademhaling
click
manifesteren
perioden
structurele
wagens
##illa
170
1900
onzichtbare
pink
vaginale
voortgang
##tad
1978
besturing
drukt
gebod
instanties
koele
residentiele
rhone
roma
voltooiing
##voet
boete
indicatoren
madeira
motivatie
ondertekend
uitleggen
wachtwoorden
##terrein
##uro
demonstratie
klopt
lyon
oordelen
sportschool
vensters
vergunning
alvast
gastheer
kook
kunstwerk
overnachtingen
shape
stervelingen
##see
cosmetische
dossiers
meegenomen
selecties
##ime
benjamin
call
eye
wizard
##board
##card
albums
boeddhisme
geografie
likken
tracks
##fi
bloeiende
darm
droger
dt
geschatte
groente
middelpunt
nachtleven
verordening
##ight
hieraan
minerale
sebastian
vies
##18
##mark
##markten
leerling
vermoedelijk
##bert
##ild
##knop
105
clash
gebruikten
herstelde
kookplaten
steunt
uurs
##paneel
##ug
brak
misdaad
neukende
overblijfselen
stranieri
##klasse
##ques
1975
dualiteit
gebak
naargelang
veren
vervoeren
##rio
henri
reikwijdte
veiling
##geeft
##ran
bedoel
gratuit
##bol
##spelen
adviseur
aids
beweert
handeling
legaal
smaakvol
##ente
##sie
##stellen
##vereniging
14°c
bijgewerkte
kruispunt
nucleaire
potten
psychologie
achteraf
genoot
schotland
##head
##logisch
bands
brusselse
fa
formatteren
phoenix
smartphones
##nemers
bondgenoten
faculteit
herkomst
ineens
innerlijk
trad
##tus
braziliaans
latijnse
onthoud
verhuren
##lengte
##ont
ingenomen
sjaal
##book
##houding
bod
condities
elimineren
andreas
beglazing
feestelijke
##ologische
##wn
beinvloedt
charmant
diepvries
eentje
ochtends
schadelijk
##svermogen
##weergave
connect
events
he
karakteristieken
lands
miami
paraplu
uitoefenen
versnelling
vervallen
zijkanten
##ank
##dia
##hut
##pje
##rose
chicago
fsbo
gecombineerde
identiek
total
##aa
##din
##genoot
##technieken
##vat
##zaad
uitgewerkt
##tuur
buitenzwembad
melbourne
resulteren
wiskunde
zwijgen
##kingen
##methoden
##profiel
##rekening
##tour
fundamenteel
gedeeltelijke
meedoen
stuurde
wolf
##letjes
##lige
activa
calcium
cijfer
dakterras
fish
han
handelaren
introduceren
primitieve
respecteren
zero
##meel
##seerde
87
beloofd
liggende
massief
planken
statische
weekends
grip
legende
not
pictogram
schoot
uitkomst
umbrie
verlengen
##nas
3de
afloop
cat
constructies
diefstal
falen
gepatenteerde
litouwen
##ede
##product
##vormig
defect
fraai
geoptimaliseerd
koppelingen
ni
overname
routine
zojuist
##lichten
##rapport
bekleding
lus
merendeel
ontdekkingsdagen
##17
##hu
##ias
bouwbedrijven
eis
mandala
voorste
##gezet
##ght
##verwerking
geblokkeerd
happy
morazan
verlost
vooraanstaande
werkgelegenheid
##gever
##geving
tand
tapijten
tochten
vorderingen
wandelaars
##ijs
bevoegde
dewijl
dusseldorf
gewrichten
lely
monniken
tabellen
ascentie
inventaris
levieten
stick
waarschuwen
##bon
##sc
230
act
avontuurlijke
bespieden
bewegende
breder
drink
geneesmiddel
heil
hiertoe
lenovo
vestigingen
##jan
##pro
0222
etappes
gassen
gevecht
jagen
pijnlijke
##vak
analytics
classificatie
dakar
lukt
mijne
ondergebracht
shampoo
##film
catalaanse
deelnemende
gegoten
immobiliari
naakte
onderscheidt
zuigen
##ez
##hen
##reren
##stone
##verhaal
analoge
cholesterol
luchtvaart
obstakels
plateau
verbranden
##akt
##mmen
##muur
appel
bijgedragen
bochten
gekeken
istanbul
liederen
made
ontwikkelaar
voordelig
zorgde
##gene
##stein
aangetroffen
classe
pits
society
##ae
##belasting
##hl
##landen
##zelf
bewogen
communistische
erkent
juwelen
korter
marmer
scheepvaart
vergrootglas
##rin
ingewikkelde
mijzelf
modem
werknemer
##drive
corrigeren
fetisj
gangen
gemakken
klassement
aardewerk
castle
desbetreffende
gebruiksvriendelijke
ocean
scripts
verkopers
will
##elementen
##kantoor
314741
gekookt
immobiliare
synchroniseren
vormde
##ijke
##log
##lot
can
chianti
dienaar
holiday
juridisch
neutrale
poezie
stage
tuinhuisje
##kh
##low
##wezen
functioneert
gezwollen
leader
tarwe
##haus
##int
##pak
##rode
appartment
bevroren
omgang
sants
vreest
wandelpaden
##formulier
advanced
engine
grafieken
heten
messias
verzoening
vetzuren
volmaakt
##cio
##gd
##ison
##kering
arabie
benelux
bowling
continental
ramp
schuim
storingen
detector
fraude
intuitieve
kweken
laura
noordenwind
vlaams
zozeer
##kom
base
boodschapper
giro
living
poitou
sas
##aam
##buis
1979
bediend
behulpzaam
boekje
galaxy
geboortedatum
ingevuld
missouri
performer
safe
voorop
##ios
##pan
achtergronden
achtergrondinformatie
afghanistan
allereerste
burcht
literaire
tunisie
weiden
zender
##ace
geuren
monteren
sabbat
vermelde
verslaan
verzen
##amen
##vervoer
##woning
bemanning
complexiteit
eenvoudigweg
gbp
levendig
serveert
##light
##wen
mary
startte
transfers
##houdende
##krachten
##ode
##uma
hit
opgelegd
perfectie
vertoont
##gram
##zalen
daken
grootse
ie
leugen
lotus
louter
naai
zalen
##zakken
asfaltweg
autopilot
expressie
hartje
kaartje
leugens
welken
##gh
##show
docent
gekleed
huwelijken
omringende
ontmoetingen
opslagruimte
realtime
rue
spiegels
vervaardigen
##gar
##oor
guanacaste
koekjes
koreaans
maximinum
revitol
##ave
##rale
antibiotica
jamaica
portfolio
uitgeroepen
conferenties
cryptogeld
dei
elizabeth
tape
##bestendig
edelstenen
geloofden
ibiza
liepen
ontzettend
zekerlijk
##gesteld
bandbreedte
geautomatiseerde
hoover
##weer
128
aardbeving
gebruikmaken
gibraltar
patio
vakantiebestemming
wav
##personen
echolood
hoogleraar
migratie
visueel
##cabine
##halen
##ners
##wan
ervaart
gelopen
indische
naaste
napoleon
prestige
terra
tumor
ventilatie
##houdt
##ulaire
gevel
zagreb
##partij
bezittingen
daagse
firewall
gedroogd
gegroeid
inspectie
kennismaken
momento
spot
vroegen
##uck
advocaten
brava
fast
geplaatste
intel
motto
ophouden
opladen
waterval
##legging
automotive
balken
eigenlijke
herhaald
old
sloten
trade
uitgedrukt
waardig
waartoe
##vlucht
inschrijven
otto
##03
##gon
##strand
ardennen
beschrijvinghuis
diezelfde
medina
opzoeken
pissen
schoen
##gingen
##ika
##wanden
20e
adembenemende
gedraaid
rooster
songs
##egen
##kleuren
##ziekten
anderszins
bulk
colon
contacteer
dichterbij
onderhandelingen
photoshop
vrolijke
##wald
17e
groepsseks
optreedt
publiceerde
##non
dankbaarheid
ebay
##lid
##ochtend
amanprana
fair
gebleken
hetzelve
jacques
lijdt
putten
rolstoel
##jet
##keten
##tief
15°c
bosch
collection
grenst
machtig
pyreneeen
zanger
##aard
##scherm
##wijzen
##wt
abdij
cent
diamanten
verloor
weelderige
zuidoosten
##arm
##bruin
beschadigen
marokkaanse
onderwijzen
realistische
vertalers
##ggen
##wijn
daglengte
horny
kachel
mededeling
rekeningen
tegenovergestelde
trim
zomervakantie
##chten
##illo
bistro
edward
experimentele
machten
minderen
pictures
sterft
verenigen
visum
##risch
basiliek
composities
trouwe
uiteinden
verondersteld
waarnemen
##kijken
##lly
alledaagse
amsterdamse
berekeningen
dringen
lee
maandelijks
reddingsvesten
vasten
verlengd
##banen
##geerd
capsule
johann
kampioenschap
koperen
lucca
tentoongesteld
uitspraken
waarheden
winkelmandje
##35
1800
active
negeren
notities
worde
xcomputer
##agt
aanbieder
indicatie
lady
onderstaand
pleinen
verhandeling
vermoeden
vloek
voorspelling
vrijwillig
waardevol
woordenschat
##mb
##regeling
##sdag
##teit
1972
1977
accepteert
klederen
langste
##itz
##modus
bot
disney
honda
opeens
sunday
doelgroep
moedigen
shift
##waardig
4e
cards
cosmetica
gehoorzaamheid
handmatige
nadenken
persbericht
powerpoint
stempel
storage
trailer
##site
##was
aanbevelen
acryl
crayon
extern
overkant
parts
stal
valenciana
verrijkt
##kennis
moord
pub
##unt
##wedstrijden
ankerketting
biodiversiteit
groeiend
lodge
onjuist
rha
ri
strakke
veroorzaakte
beer
beleggers
kam
mario
roll
vaardigheid
warschau
wereldberoemde
##brengen
calais
gr
klokken
mountainbiken
overbrengen
cataluna
clara
correctie
doucheruimte
huisgemaakt
tomaten
##44
##oft
##processen
bewijst
bood
caming
formulieren
guide
haalde
hoofdschakelaar
italia
kinder
bladzijde
botten
catalog
cirkels
eric
gelukkige
marmeren
maximaliseren
nadelen
##issen
bieren
gecontroleerde
geloofde
kondigde
kudde
ploegen
porno
stralende
vastleggen
verwoest
##eek
##iten
##tine
array
bestudeerd
bruisende
dark
gemeubileerd
handdoek
illust
kwatrijnen
lak
market
stromend
this
##bladen
##reerd
##sleven
##ssystemen
krim
##poeder
apen
inspirerende
juistheid
keulen
pannen
tower
##aansluiting
##gebonden
bestrijding
cruciale
domaine
piemonte
verkozen
zegeningen
delicate
folder
hoofdstukken
laptops
smith
string
vakantieparken
worm
zomermaanden
##ero
##lende
##som
bestanddelen
diamant
draak
gewoonten
krk
leiderschap
minimaliseren
mysterieuze
palau
uitkomen
##04
##nummers
aanraden
director
hartslag
jonathan
piramide
plekje
recreatieve
##ijnen
adviezen
arc
baaien
bespaar
kosteloos
noorse
opvolger
steve
bijpassende
col
druppels
kenmerkend
lof
lood
parkeergarage
schuur
surveillance
aanvaardt
assistent
boren
canon
cv
guiaconstruccion
how
human
spin
vastbinden
vrouwelijk
##19
##borden
##borg
##neemt
##ock
##platform
giet
hdmi
innovatief
jul
personages
##data
##mine
##wind
capaciteiten
sedert
transparantie
vlot
##adres
##omen
##ooi
##sleden
article
indienen
skiverhuur
voegde
##komst
##xi
##zinnige
moeiteloos
optimalisatie
toiletartikelen
tuinmeubelen
universa
waterdicht
##can
##lijsten
##mus
##tions
aantrekken
badplaats
belooft
bijlage
eenpersoons
rc
roer
vermaak
waarneming
winters
##kkel
##stelsel
1973
carnaval
kw
ontkennen
zoons
##zig
dcf
leefden
middernacht
oosterse
2500
brown
garant
pools
slavernij
touw
varieteit
verwijzingen
vruchtbare
##etjes
##pte
aqua
bewoond
geworpen
rob
saturnus
summer
uiting
##ares
##iaal
##ket
##scentrum
##ues
##weefsel
beheert
blouse
creaties
donau
duidelijker
seksspeeltjes
versterker
##base
##eien
##ieven
##leggen
bezichtigen
handtekening
hospital
itg
kwaadaardige
rovinj
stedelijk
toneel
verde
##auto
##training
beek
fusie
gnu
kopenhagen
onmisbaar
opwinding
pi
klinken
mechanismen
mijner
ongevallen
verbazingwekkend
##eke
1930
ambtenaren
diepste
johanna
macro
vochtig
voorgrondkleur
##levering
##smiddel
acculader
apotheek
ce
chris
cover
garens
gewaarschuwd
kano
ontdoen
profiteer
sloot
verwezen
vulkaan
##31
betrekken
comments
fotoalbum
gezichtzitten
granen
klank
papa
schudden
schulden
aanwijzing
blijvende
evenementenorganisatie
expeditie
fragmenten
huisjes
opgeroepen
oversten
sclerose
under
verschijnsel
##nan
##verdeling
geconfigureerd
gereinigd
hutten
journalisten
tiende
toespraak
uniglobe
vos
##geven
##ima
##olen
##sers
begaan
bevonden
defensie
overleed
patch
slepen
toegankelijke
verkondigen
volmaakte
##hield
##matige
##play
##reeks
##roep
##voering
gekwalificeerd
integraal
ontmoette
overig
werkplek
zieke
##center
##ila
##verhouding
awards
overeenkomen
spijt
zuidoost
##cent
##dige
beige
koorts
motorboten
ontario
opgeleverd
voorbije
##nisch
building
kap
latex
marseille
noem
tablets
uiteinde
vaart
verheugen
xml
##ib
cordoba
dwars
paz
samenstellen
##assen
##wisseling
calorieen
dalmatie
ed
kaarsen
kreta
nieuwbouw
passeig
##una
caravans
dance
gedaald
gezondigd
henen
kwalitatieve
lassen
may
overste
verouderde
volgden
##05
##cing
##die
##hy
##nk
##trekken
##volume
academy
ambassade
geinstalleerde
leken
markeren
##venster
beschouw
geldige
getuigenissen
megatube
pokerstars
program
gate
immobiliere
ingedeeld
inname
introduceert
paleizen
##merken
anoniem
behaald
beloofde
blanca
citroen
handelt
karl
koord
onderverdeeld
provincies
samenhang
stelden
vervangt
zomers
##dan
##regels
13°c
4000
achtergelaten
afgebroken
craps
gasfornuis
ondersteunende
placa
plas
verschaft
wenden
zakelijk
##iele
##oma
##plek
campagnes
centurien
dansers
onjuiste
setup
##cal
##keren
##zetting
astra
av
bekroond
brahma
corsica
gateway
giftige
match
regie
rubriek
uitvalsbasis
verdeler
##neming
mannelijk
offers
onzekerheid
voetgangers
##tto
betrekkingen
bredere
eindeloos
gist
haan
ping
psalm
ruil
werkten
##less
##ult
1976
achtergrondkleur
afb
dezer
geconstateerd
gefinancierd
library
melodie
philippe
weddenschappen
##speler
##ub
breekt
genocide
interpreteren
kopieen
mmi
onthuld
panel
slaven
vennootschap
##73
1ste
aantonen
grieken
hormonen
lijf
militair
orders
puzzel
rubberen
vertragen
voldoening
##melk
authentiek
beveiligen
geplant
henk
nudisten
schiet
stadhuis
trouwen
vliegt
##72
##iste
##lichaam
##teen
1969
anthony
beker
doopsel
dynastie
mastercard
plata
proletariaat
studentenhuis
vruchtbaarheid
##aanbod
##locatie
achtste
encryptie
hecht
ladder
lg
opzichten
paraguay
sud
verleent
vervoerd
##maakt
##pper
audit
hoofdkwartier
modulaire
plank
syndroom
##ato
associatie
breidt
exploitatie
investeerders
operator
sicilia
verhoudingen
viert
##oto
##sson
16e
240
afsluiting
gt
precipitatie
varkens
voorbereidingen
##gericht
##vast
customer
degelijk
francois
knoop
stoom
vaststelling
verte
voorwaarts
##natie
doorsnede
fun
sports
zichzelven
##vader
alfa
aller
databank
gelderland
naderen
openlijk
protection
romp
tennisbaan
transmissie
vanzelf
verbanddoos
weerstaan
##ctor
##lus
##ontsteking
19de
afkomst
artiest
bijgevolg
groothandelaren
luc
temidden
toppen
vette
##erbaar
##keuken
##lli
a4
flinke
indiana
maarten
mouw
spiermassa
spoel
##acht
##kwamen
##onia
##ruimtes
1920
bogen
frames
gemeen
hoogten
institutionele
keukens
little
ondergang
overtuigingen
##gy
##reden
bisschoppen
civiele
gegooid
geometrische
religieus
rozenkrans
spoelen
toegejuicht
zondaars
##eta
##oen
##verblijf
ch
cream
gabriel
ingewikkeld
kortere
lettertypes
manufacture
##iteiten
##lling
##motoren
##nden
##side
##sk
##ws
bentley
geconcentreerd
mauritius
nieren
storten
surf
tussenkomst
vera
zweet
##22
##kleurige
arezzo
bied
binnenland
boquete
gevormde
illegaal
kritisch
limousin
sim
tabernakel
wing
##gaande
##lijkheid
##middag
##ches
##rijzen
##ses
artritis
expo
noach
rosa
terugbetaling
zitting
##bergen
##gemeenschap
##rus
ambachten
dramatische
drijvende
herzien
knie
partities
wee
##ani
##erige
area
barokke
bonen
medical
versterkte
verwelkomt
##materialen
##uwe
aanschaf
achterste
dashboard
getraind
lakens
onvergetelijk
petersburg
pr
respons
##65
##ekt
##vlees
bh
bliksem
campingsonline
cluster
gite
pont
##oning
##wd
chakra
coldwell
europeanen
gesitueerd
hi
vertegenwoordigingen
zuidelijk
##bc
aa
head
hoopt
jeans
maatregel
marathon
statistische
tab
trachten
vastgebonden
victor
zakenreizen
##artikelen
ademen
beginner
criterium
dhabi
gesteund
gevorderde
ingangen
olijfbomen
onschuldig
plattegrond
sprint
werkgroep
##molen
##ppe
##stel
115
alpha
bedreigingen
blinde
dijk
knieen
mpeg
rotterdamse
seine
wireless
abba
bezorgen
componisten
groeten
hoofdpijn
judas
leef
moto
rar
##echt
contenta
daags
gezeten
inchecken
jobs
landstroom
uci
videos
##schepen
##zon
bevordering
blijdschap
carte
inbreuk
nep
schilderkunst
telefonisch
voorouders
wien
##geslagen
##roepen
aangelegde
casas
challenge
doorlopen
gevolge
moskee
october
overtreding
profetie
straalt
##verklaring
bill
htc
ingedrukt
beschadiging
donatie
liefdevol
ondervinden
pasvorm
playstation
wier
winkelcentra
##kelijk
##oop
handelsmerk
karel
startpagina
verheugd
##bedden
##gevoel
##lex
##rug
##sproblemen
crashes
dagje
hamilton
kolommen
spontaan
tu
verwarmde
##beek
##liet
##tar
cache
leidingen
loopbaan
medicinale
opgehaald
prettige
quebec
reserveer
samenkomst
shopping
vermoord
wonderbaarlijke
amper
barometer
features
handelsmerken
herkend
kettler
oprechte
superior
uiteen
beloond
bosnie
campingplaats
chief
conclusies
propaganda
##gehaald
##lies
geweven
hollywood
hr
limited
meld
vervolging
zenders
##viel
autonome
gebruiksvoorwaarden
microfoon
nadien
prognose
sparen
therapeutische
wasserij
##bewijs
informatica
jarig
ongeval
reflectie
schalen
wraak
zaklamp
##ais
##lage
##letje
##nn
##print
##uch
##yi
ec
enhancement
montenegro
observeren
percelen
sorteren
##ame
##ein
##geschreven
1968
innemen
klinisch
ligbad
omvangrijke
splitsing
waddenzee
##bond
##collectie
##elijkheid
##eve
##massa
##vanger
bidt
cad
getiteld
good
meegeleverd
oftewel
riolering
stapel
##lk
##mis
##teert
america
garonne
geanalyseerd
gloednieuwe
keramisch
korintiers
ongewone
sterkste
tegenkomen
vermaken
verschrikkelijke
##broek
compatibele
jakobus
ngo
opvoeding
secties
vanavond
verliet
##kanalen
##shire
##staal
actueel
alto
gevechten
grootschalige
opgeheven
quartz
vaatziekten
##bloem
##even
##wekkende
itinera
loslaten
masters
mooier
moslim
sp
twin
wim
##aro
cabal
cam
estland
ins
kraag
luid
luidt
massale
samenvoegen
soepele
teelt
vakantiegangers
worldlingo
##ther
aanscherping
cortes
girona
grind
hampshire
kaspersky
libanon
muizen
stainless
suggereert
verschrikkelijk
##sbeleid
##sproducten
bevoegd
born
cilinders
dirk
impuls
verantwoord
##elingen
##graven
##sman
##zinnig
135
desondanks
distributeur
eeuwenoude
gerekend
knippen
recensie
zichtbaarheid
zuiverheid
##entie
##filters
##uizen
agressieve
althans
blarcom
ji
licenties
m3
ongemakkelijk
oppositie
##cherm
##vert
arrangement
boutique
golfbanen
magic
mexicaanse
parels
schild
stijgende
##gevend
##lder
##toepassingen
##tuk
cape
herkenbaar
marcel
nakomelingen
opstelling
passagier
salzburg
true
##lozen
##ntie
##vet
##wijzer
bessen
jacob
parade
pitten
toeristenbelasting
##lig
finse
magdalena
mountainbike
soera
verschijnselen
vertrok
wasbak
##aine
##etje
domingo
facetten
harder
koste
leder
lenin
olieverf
promenade
tennessee
verantwoordelijkheden
work
##hon
##ilen
##meerd
##sruimte
ann
broodjes
directie
enthousiaste
raadhuis
rally
renault
rondes
seriele
worldcat
##atuur
##leidingen
##reerde
connector
developing
secretaris
shepherd
trokken
vernieuwde
##ijen
eiken
emc
tokio
verhinderen
##onderdelen
##waardige
##zingen
diegene
israelische
leveringen
motorboot
patrick
tim
vasteland
zenuwstelsel
##dd
##ged
1974
bidet
helm
hervormingen
implantaten
lenen
luchtmacht
opvattingen
prototype
torre
acne
li
marne
messen
milieuvriendelijke
monumentale
##ontwerp
armbanden
grammatica
groten
luchtvaartmaatschappijen
naleving
orientatie
productieproces
##heen
##speriode
aanbieders
bakker
bedreigd
bug
expliciet
picture
reus
tcp
vitiligo
##derd
##down
afgesproken
auvergne
bewaart
chalets
gelijkheid
ingestelde
praha
toeristisch
verlaagd
wandelt
##urt
armsgat
brochures
buitenlanders
kapitalisme
postkantoor
roeping
scenes
strip
veneto
zegenen
##beurs
##erend
##gn
##kinderen
##svoorwaarden
a1
aangemeld
agriturismo
animaties
duplex
geneigd
inches
javascript
oregon
piloot
spiritualiteit
##centrale
##matische
##ook
##pie
baksteen
databases
dog
holes
local
marbella
ondernemerschap
verval
vuurwerk
zeil
##100
##account
##dak
##sion
##software
ball
bevond
geleefd
havenhandboeken
mand
relais
rene
romantiek
##ffer
##nder
##varen
palazzo
parallelle
verbrand
villas
##ume
##wart
##weerstand
102
bestandsgrootte
get
incident
maas
millennium
##42
##aad
##iva
##lampen
##old
doorgebracht
gediend
relations
syrische
vergt
verlosser
vormden
##ester
##ical
##latie
##leerd
##open
##persoon
##tige
affiliate
gestructureerde
imago
solidariteit
straffen
tibet
trojanspy
uitzending
weide
wijde
zachtjes
##afdeling
##ffe
beklimmen
bernard
betreden
clit
gewas
koepel
mercure
runderen
tapas
zeeen
zending
##28
##49
loggen
orgaan
repertoire
uitgereikt
##ban
##dier
##gereedschap
##nne
##rde
##schema
aquitaine
begrippen
belgium
cambodja
duwen
gm
graancirkels
her
night
supply
tabletten
uitproberen
##breedte
##partners
##uf
bedoelde
besparingen
dial
kokosolie
lord
rv
spare
beheersing
letten
vals
verrassende
wilhelm
zalig
##bewerking
##orde
afgenomen
christelijk
cycli
faq
geslaagde
heerser
prince
rechthoek
reele
werkgever
##media
emissies
heredia
hoofdweg
klassieker
leerkrachten
oudsten
pil
travestiet
##har
##jt
dragers
drives
gepolijste
kampeervakanties
mare
schuiven
spraak
uitgekozen
weegt
yahoo
zang
##06
##golf
##vc
##woorden
bewaken
doorgang
geldende
gemerkt
helen
meertalig
stack
tegelpatronen
##33
##rekken
##vuur
horse
integendeel
plugins
raw
uithoudingsvermogen
vendre
zwemplatform
##ait
##polis
##prestaties
concentraties
license
stengels
vallende
winlijn
##fde
##gem
##kelen
##kust
##schrijven
aangevallen
cairo
complicaties
dochteren
opgedragen
rambla
toegankelijkheid
vila
##hausen
bolivia
branche
deluxe
diepere
list
mike
quality
tabak
waarnaar
waarschuwt
##bevestiging
##menten
190
aantrekkingskracht
binden
geimplementeerd
gratuites
huurders
koe
libertad
mercurius
strikte
tietloos
tijdig
uitvoert
##pijn
##resultaat
##spelers
beginselen
bloeien
bush
fungeert
install
kleinanzeigen
pula
window
##automaten
##cd
##rf
1600
fix
socialistische
suggereren
##kie
annuncio
bereidt
beroemdste
dia
geschied
herder
luistert
onderdak
portemonnee
vermeden
verzekert
virtueel
vondsten
zeezicht
##rant
adviseurs
afgespeeld
beschavingen
cement
herhaaldelijk
learning
liedjes
opschrift
timing
titanium
vrijstaand
##digd
##lied
##module
##procedure
##zaamheid
formules
kaars
kwetsbare
opgedaan
verlangt
##gedaan
##partijen
##voor
abs
agrarische
bladen
calculator
gevulde
handvat
internetaansluiting
pal
scheuren
uitsluiting
valleien
veroudering
##36
##77
##commissie
##situatie
##types
atlanta
boegschroef
focussen
kerkelijke
kookgelegenheid
lanceert
oom
##meters
##tanden
##tro
botanische
gouverneur
hold
oogsten
probleemloos
prullenbak
regionaal
seminar
toestaat
##ail
##ith
1967
disciplines
gebreken
leringen
prostituee
relief
symbolische
uitbrengen
bewaar
emotioneel
gekopieerd
kaartjes
klanken
leo
maritieme
montana
oceanen
trial
uitgevonden
vloerbedekking
wekken
##automaat
##bouwen
##feer
##lar
##routes
attributen
bahia
brandstofverbruik
gevoeld
verfijnd
##boord
##rel
basketbal
erik
feed
force
gelovige
marktleider
matcha
meneer
moleculen
reader
sam
sterfelijke
toegepaste
##keuze
##loosheid
##splan
##vezels
discriminatie
emilia
gedicht
koolstof
letsel
##aid
##logen
##nberg
5e
alt
fotograferen
kijker
mas
opmaak
qatar
qts
steroide
tropisch
##gio
##graaf
##ied
##kit
aangevraagd
acteurs
herkent
internettoegang
league
lonsdale
rotonde
sprekende
tracking
vitale
voorspeld
zaligheid
##akken
bernina
cesar
dar
geraadpleegd
kring
nieuwere
santander
toeren
turkoois
uiterlijke
##ografie
bbq
bloedvaten
boeddhist
drivers
enzymen
flow
gangbare
glass
idyllische
naadloos
nagels
pe
portaal
pp
template
verhuisde
waardigheid
weerspiegelt
werkend
##osa
aanrader
activering
ethische
monofone
##fo
asturias
esther
fransen
gedronken
kruisen
shadow
ultimate
##oord
braken
daglicht
gestaan
herziening
koppen
##nus
##plus
##py
bevattende
gemist
geregisseerd
kinderbed
salesforce
teleurgesteld
toeneemt
verzonken
##daagse
##deeltjes
##eu
##tone
##zers
age
hechten
mais
onrecht
peking
rail
regelt
schiep
verheffen
vm
##chepen
##key
##video
aangemoedigd
chatten
diamond
duurder
extensies
monastir
onderdrukking
realiseerde
salade
seo
verfrissende
vernieuwen
vrijwillige
vulling
wereldsteden
##amo
##feesten
##kap
##mas
##saus
##ussen
dimensionale
opinie
pijnlijk
poppen
##27
##bussen
##visie
face
gedekt
latijn
parameter
plekjes
speelden
vedische
verschuldigd
##agd
##opslag
##probleem
##tin
afkoelen
archeologisch
clip
daarbuiten
drinkt
kaukasisch
kindervriendelijk
kleppen
piste
reductie
selling
windsurfen
##dragen
##fers
##tekst
duckduckgo
feitelijke
lombardia
objectieve
overwonnen
picasso
posters
programmering
rauwe
stemt
uitgegaan
##icus
##ils
##mail
##vd
##verhuur
550
carbon
consulting
entiteit
homo
hoogland
panoramische
piek
press
solarium
veroveren
##dis
##lock
action
creditcards
debuut
diepgaande
ditmaal
elektromagnetische
functionaliteiten
kapitalistische
tegenwoordigheid
veertien
virgin
##mba
##oide
##oud
210
beschouwt
consultants
credits
kantoorruimte
marcus
prikkelen
schuif
technici
traag
vlinders
walvissen
##34
beschermer
eersten
geannuleerd
iowa
opgemaakt
reisde
schuin
tijdperken
verpleegkundige
##erbare
##gan
##nale
compensatie
cultivatie
duiven
gaia
interacties
leeuwen
onderwezen
overvloedig
passages
slippers
wiskundige
##tti
##werkers
compatibiliteit
huilen
magnetisch
motorfietsen
schepsel
stip
young
##chip
##dering
##greep
##mand
##tre
afgedrukt
afrit
beeindigd
chauffeurs
maryland
negende
song
verdiend
##gaf
##kens
accent
alliantie
fossiele
geduldig
koelen
medaille
secure
slip
uitslagen
##amp
##dijk
##ject
achterhalen
chemie
diana
koffer
kuiper
kwetsbaar
multifunctionele
rein
ssh
##plannen
##shi
##snijden
##toerisme
##toon
achteruit
lazio
legale
letland
omheind
straks
001
alice
aminozuren
angsten
filosofische
indirect
mannetje
metallic
moleculaire
##bat
##gia
##tter
##wi
ambitie
gestoken
kleurrijk
noodsignaal
queen
versnellingsbak
##grens
##ome
broederschap
cusco
efficiency
hebreeen
imposante
indirecte
sterkere
vellen
voorlopige
waarachtig
zondigen
##æs
barceloneta
biologie
eyck
gilead
koolhydraten
nigeria
rijzen
rituelen
significante
tante
##mme
##vriendelijk
aanstaande
helena
indonesische
keylogger
montreal
organisme
sprekers
tuinieren
vertrouw
##uld
1965
beeldscherm
fes
indie
kleedkamer
klem
robots
servie
toro
vegetarische
voorziening
wales
zaaien
##cks
cars
masarykplein
militairen
pacific
ronden
technologisch
thuisbasis
##boerderij
##ellen
##gevers
##hulp
##iano
##igde
##sterkte
appels
arrangementen
bacteriele
blote
cake
electrische
gestemd
incidenten
mc
sorry
terreinen
uitgeven
##niveaus
baarmoeder
continenten
deals
farm
filmpje
heersen
jos
luidspreker
meegemaakt
spyware
theorieen
uitgangen
verhit
##chte
houtkachel
inhoudt
keukenhoek
mariene
portretten
toegeven
zulks
##78
##lp
advertising
bloot
boeket
dodelijke
format
koppels
liguria
onregelmatige
openingen
opnamen
strijkplank
text
verzamel
wou
zwangere
##86
##deuren
benaderd
hoeden
hulpbronnen
jpg
kenmerkende
maskers
mazda
sightseeing
toepasselijke
veer
versus
wijden
zuiveren
##eit
##ill
##koppeling
##pool
benz
bin
davids
have
sponsor
wsop
##esh
##yer
egypteland
huisartsenposten
images
murcia
negentig
veelgestelde
waarnemingen
##lands
##tron
##ype
1971
belevenis
pakt
samengevat
verhuurlocaties
zend
zmovs
##66
##ray
##sterren
104
abnormale
boost
cc
deelgenomen
gespannen
kinshasa
olifant
permacultuur
pols
registreert
taurus
voorganger
##hoven
##kin
##nsen
##staand
barcode
emotie
geavanceerd
noden
onderbreking
peer
pornoster
schiphol
tutorial
vertaalt
##ess
##leiders
##toestellen
aangeboren
accenten
afwijken
breuk
etages
genereert
geverfd
holm
verhuis
vreemdeling
zowat
##61
##ition
##lopend
##making
##schijf
##uele
##vlies
##voeren
eetlust
gereduceerd
geweigerd
opgelet
opzij
overlevenden
roboform
snorkelen
startpunt
uiten
##aux
##hos
##ory
begreep
duim
facturen
kolonie
kopgroep
operationeel
schept
schijnbaar
storing
toog
vergeef
werkgevers
##graad
##leen
##ller
##nic
##rier
##rst
##verbruik
##wijs
calle
onderbroken
oxford
prioriteiten
puglia
uitvinding
vervolgen
##ern
##kalender
##onie
##worth
afvalwater
afwijking
geteld
gewist
meta
mind
novotel
probeerden
tunesie
##doos
##lucht
##pass
andalucaa
benaming
betekend
bewaakt
bouwpakket
huiskamer
kyoto
littekens
nadere
ongelovigen
rimpels
roterende
verward
##eenheid
##folie
##onderwijs
##regio
conservatorium
koor
mo
verzwakt
wekelijks
wetenschapper
##41
##43
##bedrag
##eau
##ense
##familie
##igo
##smaatregelen
123
blazen
buitenshuisbinnenplaats
daadwerkelijke
dol
glanzende
gravel
slaagt
tilt
vaatwasmachine
verwante
weigert
werkzame
##ees
##ible
##kes
##teksten
beantwoordt
beesten
beginnende
bevoorrechte
cinema
draaide
geintrigeerd
guest
hendrik
jet
mengmodus
nieuwjaar
oostenwind
regelingen
steil
stretch
voorhand
aanhangers
afvragen
buitenaf
campo
device
divers
gelijkaardige
grindweg
holle
kritieke
palmas
spray
uitzonderingen
zeewater
##23
##horn
##wet
betoverende
gerechtvaardigd
soja
typ
verworpen
##klep
##lay
##normen
##works
acute
algen
archipel
casual
lotharingen
nuvid
ontvingen
oslo
blijvend
dekt
pilaren
schakelt
teller
vesting
zelve
##drager
##dringen
##laire
deltaweb
repository
vlek
##000
##67
##aria
##tatie
child
equivalent
garde
hervorming
hostal
industrieen
marktprijs
obama
rede
samenkomen
toenmalige
##bio
##cursus
##dische
##kleden
##werkzaamheden
achttiende
beauty
behagen
concurreren
disco
eren
lagenpalet
modernste
prominente
relaxen
verkleinen
worstelen
##bie
##bility
##gesloten
##mische
aardige
blanc
cicero
erfdeel
filteren
formeel
fotoreizen
gedichten
genetisch
lorenzo
ongeevenaarde
profit
venezia
voedt
##bele
##swaardige
english
gekweekt
hub
manden
oplevert
pneumatische
specerijen
vision
wandelwegen
weggenomen
xl
##37
##grafisch
##steken
##vaste
aangesteld
afleggen
alert
ardeche
artikels
bezorgdheid
crash
drastisch
entiteiten
geformatteerde
gene
jpeg
nb
ongemak
opslagcapaciteit
verlenging
verrassen
##euren
##eva
##ocht
##riem
##spunt
##star
aangetast
abstracte
adviseert
ceramiektegel
drempel
ergonomische
fm
fotos
ingelogd
publiceert
smelten
uurtje
vacht
vloeibaar
##ift
##vrouw
##zones
256
bis
boeiende
corrosie
donkervoort
ether
extension
halfpension
merknaam
overleving
resorts
shuttle
sitges
##fc
##gue
afgeleverd
arbeidsmarkt
contactpersoon
gebreid
lasten
oostenrijks
psychische
simulatie
slaaf
terstond
zwemladder
##eisen
##frame
##red
aansluitend
cocktail
division
expansie
felle
landing
meel
muzikaal
natuursteen
stefan
vloed
##0m2
##74
##ann
##been
##beurt
kentucky
liefste
sonja
uitgeverij
vanwaar
##75
##agne
1914
aankomstpunt
arthur
beslaat
canal
gelang
koffers
logs
overeenkomstige
paasaanbiedingen
plasma
verwarmen
vishnu
voorbehoud
##rig
##sky
abruzzo
bekendheid
blogs
county
fonteinen
gratuiti
guinea
hdzog
herders
laagdekking
onthult
restitutie
usr
##bin
##draaien
##kg
##sdienst
bbc
bedekken
concreet
dringend
gehoorzaam
isla
kruid
servicehandboek
stok
theo
verwoesting
##68
##fonds
##inrichting
##verse
##zy
6000
allergische
brasserie
ergonomisch
jam
kerstaanbiedingen
metgezellen
pet
regeerde
satelliettelevisie
switch
terme
##golven
##pijp
106
1918
afgeleide
afzuigkap
bezwaar
chun
db
draaiende
eigentijdse
hernieuwbare
onrein
orthodoxe
profetieen
romaanse
samengevoegd
##aas
##eres
1963
280
adviesbureaus
anonieme
domeinextensie
ecosysteem
eenzelfde
eg
erp
gmail
graan
jackson
kim
klagen
psd
tilburg
verliefd
vertrouwt
webbrowser
##aw
##pische
##rok
##staande
bestedingsbedrag
eurozone
geglazuurd
informatiecentrum
interventie
klep
mali
nadert
paniek
pixwords
vacatures
##all
##allen
##kels
##raal
##stische
##tieve
##zar
103
dobbelstenen
fitnesscentrum
fragment
inca
informatieve
instelbaar
overweging
priveshow
rapportage
salaris
stroming
zetels
##cca
##kia
##paden
##stations
afhankelijkheid
elementaire
fresco
gelijknamige
gesp
heffen
kooi
nick
opgravingen
polypropyleen
pracht
preview
ritueel
vaticaan
xls
##oria
##zijdige
alabama
caribische
communiceert
gereedschapskist
gewichten
goddelijkheid
ingredient
initiele
organisatoren
terrorisme
vormige
zadel
##aya
##genen
##laar
##uut
bocas
doc
jood
orange
privato
protocollen
streken
universal
webshop
zuivering
##ball
##lles
##sduur
bungalowaanbiedingen
ecologisch
giovanni
meiji
verificatie
weigerde
ziende
##boven
##drijven
##gerechten
##world
alajuela
andrew
bekeren
dusty
gerestaureerde
kaap
kou
memory
objectief
ontwikkelingslanden
oplopen
reduceren
soldaat
swiss
uitvoerig
utility
##fiets
##rite
batch
facial
forest
fractie
gitarist
levels
ouderlijke
porta
rotsachtige
stk
streep
uwen
verstoren
##wandeling
aanvaarding
bi
geschat
kringen
medewerking
olijven
shemale
##antie
##eigenschappen
##geen
##isse
16°c
brandstoffen
cacao
guia
markering
puppy
regenboog
sleep
son
staanplaatsen
streaming
tarn
teruggebracht
uitkering
volstaan
zochten
##agen
##gde
##jer
12°c
1948
citaat
goddelozen
lint
ontdekkingen
phen375
ruitenwisser
schadevergoeding
segmenten
sion
vervolgd
vest
voice
zakenreizigers
##hond
##reen
after
artistiek
bloedcellen
henry
magnesium
organiseerde
retail
select
##groen
##nee
##rl
##teken
##tentoonstelling
atomen
cabin
dreiging
plaatsvond
styling
tegelvloer
##69
##ats
##bracht
##ider
##mming
##uda
circuits
consequenties
elkaars
gemeentelijke
huishoudens
kalm
marx
mededogen
misdaden
montjuic
veroorloven
verspreidt
verwant
verzadigd
waarmede
zalm
##lio
##mc
##panelen
##rollen
20ste
afnemen
alsnog
banner
desalniettemin
gronden
handgreep
hemelvaart
ieders
invasie
johnson
luchtwegen
municipal
neutraal
nk
overkomen
races
topic
twist
vernoemd
wma
zelfmoord
##26
##eloze
1966
benut
coffee
eerbetoon
experimenteren
georges
gordel
heersende
hoofdgebouw
makkelijke
nationaliteit
rafael
rennen
schipper
uitgevoerde
##aliteit
##plezier
church
mantel
richter
technologies
verwezenlijken
vliegende
##iding
##olo
##orf
##ston
archeologie
atlas
fine
hebreeuwse
omloop
onnodig
sofia
stofwisseling
tarragona
tevoorschijn
voortplanting
##cyclus
##fouten
##ieel
##oiden
ar
bitdefender
bnp
brein
filosoof
galilea
hardheid
kleed
like
rem
schaamte
toegeschreven
verantwoording
volleybal
##dingen
##eed
##formaat
##hn
##instrumenten
##pp
##rich
##veiligheid
bruikbare
frequent
friesland
kampeerders
kostuums
omtrek
substantie
these
vecht
zegel
##47
##bor
##bu
##dium
##laden
##maatschappijen
##sdiensten
##sta
15e
antigua
boekhouding
cs
custom
daalde
datacenter
groots
haarlem
identieke
linkerhand
overgaan
push
rang
rechtermuisknop
schande
schending
sneakers
utah
verbruikt
verlossen
vreemdelingen
yoghurt
##bet
##jon
112
durven
fauteuil
geopende
ham
musici
onduidelijk
redactie
verbroken
##cer
##nye
##sap
afgegeven
afname
intact
kenmerkt
kloppen
reusachtige
toelating
##aandrijving
##avonden
##db
##ites
aanpasbare
beeldhouwkunst
braun
dorst
flamenco
gemotiveerd
nicolas
parket
paseo
phone
seed
skiliften
topje
verdween
##mos
aten
connectie
coordinaten
geformuleerd
katholieken
puno
relevantie
vinyl
zitkamer
##bridge
##dm
##geerde
##tuig
1917
gefeliciteerd
geinvesteerd
gluten
grappige
handbereik
koh
kunststoffen
lenzen
olifanten
ongekende
schil
verkeren
vermenigvuldigen
vooraan
woordvoerder
##api
##arium
##computer
##ove
##sfeer
##wick
ballet
consultant
mans
monetaire
nokia
ontelbare
spanningen
##balans
boosheid
gewijzigde
hollandse
kloosters
makelaar
meerwaarde
un
zuidenwind
##eck
##fel
##goten
##nal
##rem
alpine
falun
menschen
ongewoon
opvatting
uitoefening
##51
##naal
##sp
assistentie
assyriers
creeerde
kool
methodologie
overtollige
table
tolerantie
werkwoord
##max
aangeschaft
anderhalf
atrium
beth
edmonton
gebruikersinterface
hevige
mausoleum
sponsors
terugkomen
volbracht
zonnen
##63
aangedaan
aanpakken
biertje
donaties
evenwichtige
karakteristiek
kraal
miljarden
stallen
veelvuldig
wezenlijk
zwaarder
##chet
##kleurig
##liggende
##tingen
##wall
betrokkenen
gering
grootst
mailen
munster
superieur
voorpagina
washok
wave
weelde
zelfgemaakte
##gaven
##instelling
##kkelen
##lden
##ueren
begeleidt
branches
gearresteerd
hotelkamers
interfaces
pag
privat
satellieten
tweehonderd
zonneterras
##79
##ark
##blauwe
##klimmen
##nor
##sensor
##uri
##web
##zag
afwerkmateriaal
avondmaal
bedroeg
branding
deburen
idealen
kennelijk
lisa
oklahoma
pier
schimmel
uitwisselen
##ava
fysiotherapie
gedetecteerd
geleerden
godsdienstige
laagseizoen
naalden
nicaragua
penthouse
sofa
standplaats
waterstof
weegschaal
##anda
##hz
1938
anus
bevoegdheden
clean
cockpit
death
geprogrammeerd
gieten
heart
herbergt
jesus
looptijd
mp4
sardegna
spinnen
upornia
verstoord
vormgegeven
vrijwilligerswerk
##08
##bediening
##hoofd
##kar
##lat
##ration
##steden
##steun
##tent
balk
canvas
fe
instelbare
plage
rails
rolluiken
vatten
vlakte
vpn
zenuwen
##bia
##ezen
##noot
##zine
2019
beloften
bittere
firenze
fungeren
gal
realiseert
spiraal
turken
zelfvertrouwen
zeventiende
zitje
##erijen
##gesneden
##werkt
119
2x
boston
chirurg
eenvoudigste
gigabit
graaf
opgewonden
overdragen
##agde
##houdend
##kan
##mechanisme
blanke
ethiek
experience
innsbruck
iscsi
naadloze
pakte
solid
spontane
toronto
verhuisd
##disk
##foon
bodybuilding
cauca
dineren
doorbraak
geschillen
kwartier
napels
neo
paviljoen
polar
ruiters
tea
##cion
##eker
##lader
##oppervlakte
108
320
anzeigen
bezoekje
geometrie
heette
instituten
kyriad
reservoir
synagoge
tree
vicente
wanhoop
wedden
zinvol
##haar
andorra
bereiding
evaluaties
geadviseerd
hertogenbosch
maatwerk
modder
nieuwsbrieven
pocket
schriften
socialisme
zuren
##bels
##spraak
##uleert
##verkoop
bandjes
beleving
bond
botsing
council
creeer
doeltreffend
duiden
eindschoonmaak
gelukt
haakwerk
kinderstoel
kozen
oostende
overdreven
roger
terminals
troost
uitlaat
verbranding
verkeert
zen
zure
##afel
##comfort
##onde
##racht
##usa
##werpen
afscheiding
bamboe
behoorde
boy
chronograaf
duikers
forex
hands
kampioenschappen
mal
mild
ovens
produkt
verwerpen
vibratie
wederzijdse
wisselende
##grepen
##pelijke
##tia
bevestigde
chios
como
cyber
dart
droogte
eifel
guesthouse
preventief
regisseur
served
veeleer
vervult
##46
##iter
##ouw
allergie
silo
slaapt
sleutelwoorden
verona
vertrouwelijk
zangers
##ake
##bewegingen
##pl
##sweg
##wing
802
amp
appartementencomplex
bezien
droegen
eenzame
kittens
lanceren
luidsprekers
maldonado
missies
samaria
siliconen
stier
terrier
##62
##eenheden
##ssa
aanhoudende
ingenieur
resource
schimmels
showroom
uitgevers
videobestanden
vion
zestiende
##swijze
ambitieuze
ecc
fictie
prostaat
reptielen
stikstof
toaster
toeschouwers
##cties
##itas
beenderen
geenszins
ligbedden
matras
nespresso
nt
onderhoudt
profiteert
reisbureau
setting
sql
tegenwoordige
terugkerende
##camping
##gewassen
##itaire
##jnen
##war
##zelve
afgesneden
aub
badlinnen
buffetten
carmen
e20
filippijnen
fundament
glasgow
knip
male
opgeladen
sjanghai
spijsvertering
theologie
tl
vooraleer
##ald
##lek
beroepen
boodschappers
command
herman
industrial
kinderbedje
maritime
noorderlicht
overheen
promotionele
sk
synchronisatie
trauma
vergemakkelijkt
vraagstukken
##kantoren
##nos
##rice
168
aromatische
barriere
canyon
edities
explosie
molens
natuurreservaat
oeuvre
omstreken
passieve
raster
stapt
vertrekpunt
zadar
##48
##effecten
angel
bestelde
bijdraagt
cruises
gastvrije
middeleeuws
oke
opgestart
symposium
synthese
viool
zoekopdrachten
##cco
##economie
##kort
##schappen
accurate
centro
consequent
ecofys
http
niche
onderdrukken
puzzels
radicale
weldra
##actief
##aus
##bles
##core
##lopende
##tors
bart
checken
clients
gunst
kamerprijzen
kippen
plaatste
processing
vakmanschap
verbouwd
##gebouwen
##how
##iff
##oit
##raden
bewerkingen
brandt
continentaal
geevalueerd
journal
kamertype
knooppunt
loopband
mendoza
mijnwerkers
revisie
specialiteit
stadsdeel
stoombad
treasury
trotski
wetende
##treden
##veerd
aannemers
ali
bewerkstelligen
bouwjaar
gevraagde
massages
sirius
staatssecretaris
tandheelkunde
taylor
verhuurder
##53
##55
##bericht
##host
##itatie
##kanten
##pasta
##rc
##uigen
##watch
1933
aanslag
arequipa
berust
displays
netherlands
onrust
oversteken
regenwoud
suggestie
tennisbanen
veerboot
voortzetting
##39
##essen
##geworpen
##mijn
##pes
##ree
##rken
##ual
##vang
cocktails
eurotrotter
glijbaan
herhaalde
mentaal
only
paulo
reddingsring
vergroting
wegnemen
##ack
##gehouden
##lappen
##parken
##ust
airsuspension
codering
giften
inwendige
manuel
people
resulteerde
statistiek
trail
vakken
zweren
##ami
##biliteit
##du
##ement
##gebouwd
##kleed
##ogie
##rekt
##tarief
##voorzitter
1953
aangaan
acteur
brandende
creek
doorstaan
egyptenaren
etsy
inlichtingen
ionen
savoie
tanger
winkeltjes
##85
##99
##dikte
##dracht
##ery
##leren
##schade
##ulier
1964
bezochten
conference
header
heal
houders
nordic
onschuldige
paradise
stamboom
use
voortvloeien
zestien
##bladeren
##ggio
begeerte
geneeskrachtige
genegeerd
informele
kansas
kassa
manipulatie
riepen
rm
slaagde
##eria
##oth
##ph
##ronde
##uik
##verschil
2d
antillen
basisinformatie
benieuwd
doctor
jordanie
kosmos
lavazza
nis
oekraiense
scharen
stopcontact
terugbetaald
uitziet
verergeren
way
##jarig
##metingen
##nier
accuraat
bakstenen
detailhandel
energetische
evolueren
familiebedrijf
inflatie
joab
kaliber
noemden
rijd
rolex
sloegen
verwondingen
vuurtoren
##door
##igers
##streek
bubbelbad
cassette
decennium
decoraties
ensuite
harbor
ion
metallurgische
mythe
opgave
overblijfsel
ppp
roem
rolls
small
sunny
zink
##afstand
##cat
##euze
##ony
ardenne
diarree
gewaarborgd
kabeltelevisie
mgr
navigatiegereedschap
reisgids
vermengd
vzw
##aris
##douche
##legt
##schakelaar
##uleren
aansluit
astma
besparing
bijwonen
blikken
engelstalige
geaardheden
gecodeerd
groet
herziene
legers
planet
racen
reikt
relax
slanke
toegestane
##eiland
##gelegd
##vergunning
aantreffen
bedoelen
bespreking
bevoegdheid
dress
eenmalige
flower
indigo
ketel
ministers
notre
oil
ovale
platinum
sculpturen
ubuntu
verwennen
vlug
##gezegd
##hing
##iens
##iu
##meting
##rch
##suiker
##taire
##tructuur
##vaardigheid
##yl
bekering
klap
language
organisch
portefeuille
saldo
wonden
##52
##fotografie
##leten
##mpen
##netwerken
##tha
##tive
berging
dianabol
eenzaamheid
hawaii
opkomen
so
subsidies
uitbetaald
##aanse
##behoud
##hall
##mia
##oire
##troom
aanspraak
ankara
bedoelingen
drang
ep
kostbaar
krassen
matrassen
natuurkunde
pic
pinksteren
potentie
tussentijd
vreselijk
##day
##oir
##transport
##zhou
aap
aas
chora
grondwet
if
immer
intuitief
kiev
lifestyle
privati
rotatie
save
topkwaliteit
verdachte
vleugje
vr
wal
wasmachines
weergeeft
werkwoorden
##zool
ban
camperplaats
eersteklas
encod
gaatjes
gemalen
glijden
heijmans
maine
rijbewijs
si
skigebieden
toulouse
uitkomt
##appartement
##lam
##nologie
##ografische
##xy
bundel
channel
gare
helsinki
kostenlos
lunchgedeelte
mississippi
naaien
perceptie
pinguins
shoes
vanille
verrassingen
viptube
vreselijke
woonhuis
zwelling
##bra
##emd
##magneten
##oni
##salon
hotelreserveringen
lijmen
nm
products
trilling
upgrades
vaas
werpt
zendt
##benodigdheden
##emen
##form
##gelopen
##partner
##uwd
##varing
aandeelhouders
afkorting
behandelde
bekendgemaakt
bevalling
break
buitenwereld
deens
fel
gehecht
gewezen
keerden
mailbox
middenin
par
recorder
seizoensgebonden
turing
veranderlijk
verbazing
voordoet
##ington
##rator
##uer
##wisseld
commissaris
dertien
diners
effectiever
intuitie
louisiana
overnemen
plekke
specificatie
verhuizing
verstrekte
volheid
##films
##isie
##isk
##stellingen
1958
aanraken
court
doeltreffende
eindgebruikers
herzegovina
langzame
medio
mengsels
merkbaar
naburige
overstekende
svb
violette
vitaliteit
##cam
##delijk
##ervice
##gegeven
##itie
##ogisch
##onne
##tina
3m
ambt
berlijnse
bugs
geimporteerd
hermitage
hope
kondigt
leegte
opgesloten
schaffen
vergaan
##rium
##weren
afgewezen
algoritme
computing
electronic
gestimuleerd
gewond
persen
poster
publishing
saffraan
stak
##aka
##olis
##ret
13e
acceptatie
aux
ballon
bemiddeling
binnengaan
consortium
cowgirl
demonen
diskette
kinderzwembad
markeringen
points
regeren
stank
toegewijden
trekking
verblijfplaats
zandvoort
zitplaats
zorgvuldige
##aans
##bloemen
##kaartje
##opties
##regelaar
##seffecten
##vlakte
1962
4de
apotheken
claims
hartstocht
imperial
inter
jade
joods
lopend
ononderbroken
patches
postscript
reproductie
voedingsmiddelenindustrie
vriendelijkheid
wierp
##ages
##akte
##lings
##platz
##swerk
##tec
##urd
##zzo
aardbevingen
columbus
ctrl
gelooven
handhaving
ice
scoren
scott
traceren
##gave
##gra
##sd
##tegen
##uni
atlantis
bollen
gardameer
genadig
history
impliceert
jules
katoenen
lol
olympisch
onverwacht
palestina
toeschouwer
toetreding
universitaire
werelderfgoed
##deerd
##dp
##fl
##goederen
##herstel
##lips
##opleiding
##yan
aanschouwen
achterlaten
brandoffer
capital
daaropvolgende
engcon
malaria
paprika
parkeerterrein
polo
schok
verkiezen
verpakken
verven
wasservice
##bas
##pm
##structuren
##verschillen
##zie
beeindiging
gedefinieerde
handwerk
kapot
kleintjes
lac
mio
steinel
trucs
uien
vakantieappartementen
winden
##etische
##hors
##rte
##spunten
dele
eerlijkheid
geiten
hf
linda
meent
que
stamt
supermagnete
tijger
volmaaktheid
vracht
##ader
##ati
##bij
##concept
##fr
##more
afwisseling
auschwitz
bruno
cheerleader
injectie
krafft
lucky
mannetjes
perspectieven
plots
receptor
verdien
##actieve
##correctie
##inen
##the
##uan
##verbod
##verf
afgeronde
ambities
coordinator
crm
doeken
geluidsapparatuur
geprezen
hpe
kerkje
koophandel
lichaamsgewicht
lichtjes
liverpool
mkb
palmbomen
palmolie
passeert
schunck
tanzania
tumoren
tweeling
xbabe
zoogdieren
zuidwestenwind
##95
##creme
##dert
##ioneel
##mannen
##mensen
##missie
##rna
111
beveel
diagram
financial
gezelligheid
immense
kenden
onbewust
panda
pijltjestoetsen
raketten
repair
vega
vegetarisch
vertelden
voorraden
who
##register
1954
1961
aangeklede
autonomie
bladmuziek
continuiteit
duidelijkheid
ica
marino
multilingue
onderscheiding
onwaarschijnlijk
organisatorische
palen
step
vermeldt
##38
##derende
##leer
##mpt
##oestel
##opening
##profielen
##skracht
##smateriaal
##stoornissen
bovenal
collier
geschiedt
kabelbaan
kinderbad
massieve
numerieke
opereren
pm
polyfone
santos
terreinverlichting
toelichting
verken
versieren
zuiger
##ete
##gestuurd
1936
1959
260
apartement
blaadjes
britten
educatief
franz
kamerskeuken
morontia
prints
reinigt
scheen
seminars
uka
vervelend
voorpand
vulkanen
zijnen
##dragers
##iko
##wielen
aanverwante
afgelegd
bewaarde
celsius
enzovoorts
fda
gerangschikt
gerepareerd
sleeptouw
tijdrit
verstoring
werkloosheid
##baden
##einde
##groeid
##ole
aken
baal
badkuip
bindend
bouten
est
integrale
liberia
mountainbikeroutes
mura
significant
##ction
##doeken
##doeleinden
##fie
##had
##vakanties
##vig
##wering
1956
borstvoeding
carl
congregatie
conversatie
hapimag
radicalen
remedie
republic
vmware
voltooide
voortkomen
vreedzame
##rest
##teams
##wil
allerbeste
buigt
cia
dafa
elektronen
extracten
gelijktijdige
inbouw
opwarming
pis
romagna
schattige
sfeervol
vibraties
waterdichte
##ett
##rwijs
##wetenschappen
1947
20°c
aangelegenheden
bruto
carlo
ezel
kettingen
kleurstoffen
magazijnen
miniatuur
mystieke
nikon
pelgrims
reconstructie
tarma
warmer
werkkamer
##here
##loopt
##lust
##mende
##nacht
##ndi
accommodatiedetails
bourgondie
gelicentieerd
inzien
orlando
ports
producties
sit
##stoelen
##theorie
##zijdig
connecticut
fire
gepaste
liefhebber
sleutelwoord
tegengestelde
##dc
##ize
##taan
arnold
fiumicino
garmin
geproduceerde
leefruimte
meeting
plichten
riemen
roemeense
sibenik
stream
wennen
##blazen
##leet
##mmer
##rma
##tv
640
abc
bevolen
bloeit
chinezen
deelde
druppel
klaslokaal
luxembourg
ondertekenen
overwogen
persoonsbed
ritten
vlieg
##epen
##med
##mper
##nburg
##peld
##reert
##wekkend
better
darts
dharma
diagnostische
indianen
pastoor
pilot
schotse
statement
ste
tracht
veelheid
verschuiven
veterinaire
##digt
##geneeskunde
##klassement
##lberg
##sar
##ska
##verenigingen
avant
binding
demonstraties
echtpaar
fat
flip
gulden
huize
libido
pod
polyethyleen
rechtop
toegangscontrole
wordplanet
##bestrijding
##eeld
##gende
##lak
##pert
##vy
adventure
avenida
daarboven
dreamstime
gezuiverd
groote
hormoon
inhouden
inkomende
kunstmatig
productieve
reel
schreven
trefwoorden
weddenschap
##flex
##god
##overdracht
##poten
##rige
##voudige
bouwmachines
financieren
hars
inmobiliarios
jeep
manipuleren
mindere
onnodige
openbaren
vervelende
##combinatie
##nica
##ois
##shop
##voertuigen
175
17de
diet
elia
kamerbeschrijving
ledematen
plukken
presteren
rekken
uitdrukkelijke
voedingsindustrie
##aker
##communicatie
##constructie
##gate
##hoeken
##iere
##spellen
##theater
1955
antarctica
boden
ds
eeuwenlang
legering
ondergaat
onderhandelen
overgave
royce
sale
toevoegt
voorhanden
##avia
##bine
##ioneerd
##sgegevens
##tak
##uil
buffer
kronieken
lymfoom
reiken
schare
schoolwerk
skiers
vezel
zieken
##behoeften
##rom
##rra
ap
belt
bologna
colombiaanse
connectiviteit
dienstbaarheid
dominante
finance
harbour
paribas
protest
rechters
temple
tri
tweeen
verzetten
##ash
##food
##gedreven
##kking
##palen
##put
##sniveaus
11°c
afgezet
children
debatten
deco
dragon
handgrepen
jo
klassiekers
lammeren
leonardo
massaal
migranten
palermo
password
prompt
ratten
smaakt
vergaderzalen
wenselijk
##gedrongen
##ijkt
##lten
##mode
##neden
##opt
##rood
achterpand
bepaal
beschaamd
buchot
claim
ethereum
gebruiksvriendelijk
genoteerd
howto
indaver
kronen
manege
nederlaag
opleggen
ronald
rugby
sensatie
snowboards
systematisch
verzend
wekker
##96
##brief
##daan
##klimaat
##randen
##ric
##sgebied
##strategie
andrea
antennes
cnc
consistente
educacion
eigendommen
engagement
geschil
halloween
introduceerde
kartonnen
kas
koninkrijken
lago
lastige
meid
offshore
pret
snelzoeker
tandartsen
terroristen
triple
uitgeput
verbieden
vloeiende
wasserette
##leerde
##oxide
##sreis
##uge
18de
amber
antwoordt
bijen
ecosystemen
evenveel
formatie
halszijde
lego
mysql
rijkdommen
sigaretten
slotje
vancouver
verkiezing
walking
wrijving
ya
##atoren
##elig
##gaten
##geest
##gesprek
##heilige
##master
##swaardig
akkoorden
atoom
bell
geinspireerde
gewoond
interesses
monnik
onzeker
schoeisel
tandarts
zeehonden
##any
##boro
##gelegen
##gerelateerde
##restaurant
##seenheid
##uten
afgewerkte
backsplash
bevatte
gebruikershandleiding
gebruiksgemak
gerespecteerd
graniet
grondstof
moedig
nikkel
opgeblazen
preparaten
##race
109
144
beleefd
bois
dev
konijn
mechelen
mensch
platformen
populatie
wervelkolom
##getrokken
##iken
##pisch
##studie
##ugh
##vangen
##vest
##xt
afgescheiden
barok
beleeft
billen
eigendomsrechten
geruchten
hogepriester
hoofdstraat
kut
leber
mislukt
mocaic
ongelijkheid
regent
subtiel
vloog
##ikken
##ukt
##verband
##winning
amarillascalifornia
besteedt
cabo
ecologie
expats
gerechtigd
harley
iconen
matt
nelson
ontbijten
opgetrokken
overbodig
ransomware
raspberry
receptoren
romige
strips
urban
vervagen
werktuigen
werving
##hia
##locaties
##sbedrijven
##sfunctie
##verslag
beha
bremen
briljante
goedgekeurde
iris
kabelbanen
landbouwproducten
ondernomen
stippen
tango
toshiba
tourist
two
##garantie
##gracht
##lim
##nemer
aquitanie
balie
besluitvorming
blaas
dalmatische
dhr
gordijn
hosts
klantenkring
lekkernijen
motie
omgebouwd
plegen
teeth
tegenkomt
varkensvlees
verzamelaar
vitaal
vooruitzicht
walter
##contract
##ech
##houten
##lator
##nig
##rp
##zu
abortus
absorberen
bancos
consumeren
geinterpreteerd
picardie
roeien
salades
theebeurs
tyrreense
voorhoofd
vooruitzichten
##actie
##ew
##ional
bijnaam
bitter
districtsapostel
dwaas
eeuws
fender
gevorderden
guy
hierarchie
lanzarote
muts
noordelijk
samengestelde
schakelaars
schetsen
verankerd
verraden
wijzigt
yang
yin
##eco
##eters
##games
##hand
##horen
##paradijs
##uningen
armolia
bereidheid
doorgestuurd
filipijnen
haltes
hongkong
intenties
inzettingen
opgeleide
overstromingen
porsche
priesteren
sweet
vastgestelde
weinigen
wink
##grijs
##iana
##jten
##luiting
##strasse
afdalingen
ambassadeur
b2b
bescherm
catharina
etiket
fietspad
gewelddadige
graafmachines
metgezel
mid
raakten
schilders
shrimp
veelzijdigheid
vile
##berichten
##cap
##chat
##gos
##ments
##ovo
##spieren
##vlakken
alom
atlantic
bangladesh
edele
exotisch
gemeentehuis
lido
motorola
omzetting
opsporen
successen
trainers
wederkeren
wisselkantoor
zamen
##vic
bankrekening
biografie
doorgevoerd
governance
markeerder
petit
policy
ruilen
salsa
stoornissen
verkeerstekens
voorziene
##07
##dad
##fix
##iserende
##koeling
##nemen
##sinformatie
##sprijs
##ury
aanvraagformulier
banketzaal
bytes
deventer
dream
fietsverhuur
fins
fujifilm
gitaren
gooi
gunste
md
netten
parker
rondje
slechter
sportief
stuttgart
verlengde
xbox
zeerste
##ded
##eilanden
##file
##kader
##par
##ullen
##verzorging
##vliegen
1949
aanmoedigen
authenticiteit
compromis
gesorteerd
habitat
joh
krachtiger
versailles
##gerekend
##mmel
##ops
##toevoer
##vloeistof
breda
efraim
elba
epoxy
gekke
hebreeuws
heir
luxueus
motel
schenkt
scores
toegediend
transporteren
za
##doet
##eller
##kker
##pakken
##sgraad
##wo
1300
9001
antwoordden
azijn
field
gerst
overweegt
sid
twijfels
weduwe
year
##grad
##grenzen
##san
##selen
117
eed
foutloos
gedomineerd
gevogelte
guangzhou
hoteltarieven
inzendingen
konijnen
linnengoed
overtreden
overtredingen
rouge
soevereiniteit
volstaat
voucher
##crisis
##rda
##tp
##vac
##zekerheid
afwijkende
bordje
curator
fokker
geformatteerd
generieke
gestuurde
gewapend
int
jurken
mattheus
opvolging
opzettelijk
periodiek
sarajevo
thermale
verjaardagen
verkochte
verzamelaars
zingt
##500
##bossen
##stralen
##vigheid
##ziet
designs
eindige
erectie
inwoner
moreel
ontleend
sleuf
stekker
suikers
uitverkocht
volbrengen
##gordel
##kig
##koppen
##sbaar
##skaart
##ulair
1952
afhangen
anton
dominant
gardens
hilversum
kers
koesteren
lithium
milieuvriendelijk
va
vloerverwarming
vw
##bodem
##gger
##kaas
##own
##soft
##zige
1957
bewoonde
bezighouden
blues
critici
delegatie
geschoren
gezongen
iot
lourdes
terugvinden
uitspreken
uniforme
werf
winlijnen
##09
##blauw
##ekens
##nova
##oes
##stra
##voudig
17°c
borduurwerk
charleroi
folders
gepubliceerde
gerechtelijke
getrouw
koren
kostte
leukste
oman
steak
td
thematische
vrouwtjes
wijzig
##54
##bourg
##handeling
##nc
##rokken
##wacht
afgevaardigden
agressief
bc
beschreef
creative
doper
error
este
exposities
genomineerd
gevels
hoofdscherm
integreert
ko
mast
money
ondiepe
opwindende
paddestoelen
sara
su
taartjeswinkel
theoretisch
wieg
##76
##chemie
##eizoen
##gieten
##ido
##oda
austria
compileren
dhl
dochterondernemingen
dock
geslepen
getuigt
gezworen
gtld
kado
kusten
lagos
linkse
misthoorn
nieuwsberichten
ondergedompeld
presenteerde
schreeuwen
tearoom
toevertrouwd
valentijnsdag
verdreven
werkomgeving
windmeetinstrumenten
##80u
##aliseerde
##ism
##nykh
##toets
##vruchten
##wer
107
architecturale
blokjes
cameron
diagonal
dwalen
efeziers
gecontacteerd
getransformeerd
kinderopvang
mandje
nissan
officer
persberichten
pubs
rider
sarah
uruguay
versnelt
##cratische
##letter
##meubels
##plekken
##schakeling
##skerk
##urg
consult
correcties
flyer
gfdl
interraciale
joint
jordan
lekken
madonna
mezzanine
mislukking
ontvangers
verhelpen
weest
wille
yale
##away
##codes
##componenten
##ept
##fm
##led
##nderen
##registratie
##tics
aangepakt
adidas
breipatronen
drievoudige
esthetiek
gard
haut
itunes
kokend
lelijk
ssd
stopte
thule
webwinkel
zondaar
##bekleding
##gedragen
##klok
##lton
##ropolis
##sha
##wist
actoren
benaderingen
gecodeerde
geldigheid
gong
humanitaire
raar
rendabel
saai
seminarie
sportliefhebbers
verbondenheid
versa
vertrouwelijke
vink
zoekcriteria
zondige
##cafe
##disch
##gaard
##groeide
##ieerde
##illon
##inger
##leeft
##mappen
##sets
##testen
bedoelt
byzantijnse
hannover
indonesisch
intellectueel
isle
onderdrukt
openheid
para
patent
plaag
process
schaduwrijke
uitgekomen
vierkanten
vurige
##leg
##lein
##ssi
##stelt
##svorm
##tend
##tussen
##zelven
bereikbaarheid
cambridge
haalbaar
hoes
millions
opa
overseas
pictogrammen
pluto
sc
vaag
virtualisatie
wezenlijke
zwaarste
##amer
##iba
##mde
##oed
##proeven
##studies
##tana
ach
beloningen
bladzijden
breedband
cafeine
cognitieve
french
herault
hindernissen
kees
kortste
laminaat
larven
membraan
mijnen
opbrengsten
staven
stokken
volstrekt
williams
zelfklevende
##29
##roken
850
artist
bari
caribbean
charlotte
georgie
indra
kuuroord
misselijkheid
radarreflector
stalin
sticker
systematische
toepasbaar
toevoegingen
voering
vrijheden
##erver
##keld
##oux
##pand
##printer
##wf
1890
6e
afdruk
circus
cleaner
coatings
fysica
gewogen
ghana
hekken
jorge
leerden
leidraad
lidstaat
naamwoorden
och
pu
stenige
strengen
tang
waarborg
waarderingen
##boren
##cijfers
##emie
##ineerd
##lu
##tos
##uve
##vik
analytische
andres
beloven
berekent
bourgogne
deugden
doelmatig
duw
gerard
joystick
obesitas
onvermijdelijke
orden
redder
spreker
verzekerde
vitamines
vriendje
##ales
##dr
##frequentie
##haken
##satie
##teelt
##typen
##vre
10°c
118
1946
360°
cher
clans
deposito
doorlopend
eist
geprefabriceerde
mentaliteit
stenig
stromingen
subject
syriers
triniteit
vastbesloten
verhuurd
vork
wereldse
##brood
##liep
##ori
##provider
##rijf
##ulin
##urn
##voegde
1929
afwachting
antalya
antoni
bella
bios
enzym
fietspaden
ingegaan
lip
makelaars
manen
ontdekten
primair
scsi
telescoop
##achter
##aft
##hem
##jd
##lisatie
##oftware
##tech
##zan
7e
befaamde
coaching
commercie
draagbaar
elzas
hooguit
modeljaar
offerande
opgestaan
overwegingen
prefecture
vrouwtje
zelven
##adt
##ass
##digen
##kende
##klaar
##sos
##terras
##uring
##villa
##vulling
1400
1700
antioxidanten
beoogde
burgeroorlog
cartridge
dessert
gesmolten
hackers
mozart
noors
overgrote
overwinningen
pixel
rachel
ruine
speelplaats
verdacht
verifieren
vonk
zonnepanelen
##beheerders
##getekend
##rot
##szone
##tex
1934
annuleringen
communie
dankt
geologische
gezondheidsproblemen
hedendaags
inflammatoire
kwaliteitscontrole
operating
ready
schijn
seattle
veelvoud
vergelijkingen
workflow
##bewoners
##maatregelen
##netje
##riet
aftrekbeurt
bb
beroemdheden
deep
devolo
geleidelijke
glijbanen
houdbaarheid
immigratie
kliffen
moeilijkste
ouden
standen
terugwinning
verbergt
zogenaamd
##ioen
##mig
##ob
##ucht
1x
25°c
brandblusinstallatie
fascinerend
goddeloze
gp
helpers
klare
melchizedek
mengeling
pong
proxy
referendum
region
roomservice
rugzakken
textielindustrie
verbleef
verslaving
versteld
vervloekt
wederzijds
zogenoemde
##beer
##bm
##cale
##craft
##jana
##lend
##sland
##slid
##straal
##terde
##wikkeld
assemblage
bedding
bedrukking
brian
citaten
criminele
franklin
harmony
just
opgehangen
overweldigende
oxidatie
parochie
ps4
reddingsboeien
saudi
scooters
settings
sophie
v2
werkdag
wmv
##ctuur
##iv
##lijking
##maan
##mit
##och
##rade
##u00
##winst
achteraan
bbp
dictatuur
embryo
felco
gelaat
horeca
jubileum
kiosk
limit
nieuwsgierigheid
outs
pamplona
recycling
snapshot
verlaagt
vloeiend
voorsteden
##cilinder
##erig
##ities
##ules
##weken
##yle
8e
alaska
besmetting
cheque
clear
dateren
internacional
liggend
natuurgebieden
oudsher
pilatus
pinnen
priesterschap
rechtbanken
tokyo
trainingsprogramma
##gratis
##morgen
##store
##toffen
##uca
##werende
270
aura
bestonden
cargo
charmehotels
corrupt
darmen
gespecificeerd
hair
haiti
hartfalen
joshua
lion
metabolisme
observatie
opvang
overtuigend
tony
uitbreidingen
verenigt
verouderd
vervolgt
##ema
##houd
##rine
##stap
##werker
baltische
bristol
buitenaardse
ciampino
dlan
exodus
gewijde
haakvideo
hare
hvar
jib
mijlpaal
minderheid
pitch
pull
regulering
saturday
swap
voortgebracht
zeilers
##hin
##iner
##itor
##paard
##rooster
##vu
dogma
gewoonweg
goedkopere
kalk
lengtes
mantra
produktie
rate
trump
veilingen
vertragingen
##iro
##lare
##ningen
##tr
filmen
jager
mai
martina
missionaris
noordoostenwind
opmerken
package
periodieke
remedies
russell
seamonkey
tryboobs
uitgezet
vierkantjes
werktuig
##acties
##ath
##ijns
##ijnse
100m
c2090
dead
denis
gehandhaafd
haten
lieden
ontstoken
opdrachtgevers
poppy
reddingsvlot
schuren
steven
streamen
verplaatsing
vic
##metrische
##steek
##trische
##ular
##vervuiling
1937
consistent
dusver
fly
francis
geprijsde
grootheid
heavy
heights
joe
layer
miss
r2
satalietnetwerken
toerentalmeter
##aja
##bogen
##fabrikanten
##kas
##lager
##neerd
##snede
##vleugel
achterhoofd
arkansas
cut
delete
dringt
enkelvoudige
flop
future
gehard
gokautomaat
immigranten
instagram
lichtere
meesterwerk
piloten
robin
springt
voelden
zambia
##blijven
##circulatie
##dine
##label
##spatronen
##sus
##svormen
##uen
##wateren
##wk
1559
agentschappen
eender
fietstocht
gember
glen
ide
ijdelheid
lader
levenden
liefdadigheid
oscar
overschrijving
pedaal
programmeurs
rif
samenlevingen
stickers
werven
##dicht
##pels
##sdatum
##tc
##voorstelling
14e
aanschaffen
charente
croatia
deposit
dreigt
enter
geachte
glucose
ijver
jeuk
kuip
mystery
orleans
overblijft
paal
piraten
poble
ratio
reguleren
simple
verbouwen
vereenvoudigen
verhuringen
vermeer
verstopt
##dadige
##hip
##lische
##pathie
##ural
12e
afdalen
africa
aow
avignon
begrafenis
belle
boss
comment
ferrari
hoofdhuid
ideologie
jones
kleden
kondigen
kwantitatieve
laurent
opgevangen
rampen
therapieen
viking
voordien
voortreffelijke
##ficatie
##ieerd
##kring
##lange
##lem
##ozen
##ress
##vie
1935
1a
adware
beginnend
borduren
bouillon
cms
franciscus
gebood
gepleegd
havona
ilo
jim
medici
nazca
noodzakelijkerwijs
nora
rijkelijk
safety
scheidt
souvenirs
uitstrekt
vulkanische
zwaardere
##bestemming
##contact
##deling
##eni
##gestuurde
##moedigheid
##personeel
##vey
buitenshuis
charm
commandant
confrontatie
duidt
eindig
feature
frequente
kerkhof
legden
reset
revalidatie
turijn
##essie
##legger
##lering
##nken
##praktijk
aloe
bestuurd
compenseren
congressen
eindresultaat
huishoudelijk
kreunen
ontstonden
phentermine
roestvrijstalen
snij
standpunten
stilstand
verfijning
zgn
##58
##ekers
##inatie
##lap
##spoelen
circulaire
etenswaar
fur
geoptimaliseerde
grof
hygienische
kerstboom
lewis
mashiach
mekka
mislukte
norte
oesters
ontwikkelden
parasol
porte
ruiter
truc
uitdagend
uitgaat
verantwoorde
vereerd
verstreken
visual
webserver
werkers
##doel
##info
##lf
##nest
##offers
##ondersteuning
##rro
##schot
##u30
##vice
##wording
asia
bat
binnenhuisarchitecten
follow
gedeelten
geperst
gerund
hz
kvarner
luna
mest
newton
northern
pour
strijken
swarovski
targets
tentoonstellen
warmwaterinstallatie
wildernis
##boog
##chaal
##enburg
##eon
##holte
##reus
##server
##services
##verhalen
114
1912
ace
antioquia
arad
aragon
bains
beginsel
bsod
cola
isp
izak
jasje
matthew
meegeleverde
neef
ondergronds
schot
tournee
verdrukking
voorgelegd
##bod
##ctisch
##deed
##hc
##honderd
##ificeren
##moedig
##sgroep
##shuis
##sluit
##trekking
##une
##waard
1915
aanwezigen
aviv
bakoven
bedreven
beproevingen
binnenzwembad
brahmanen
claude
definieert
doucheruimtes
forwarding
handboek
irritatie
ivan
makend
ontspan
pijlers
resterend
sandra
shemalez
sporters
voorrecht
waarschijnlijkheid
##bewuste
##brenging
##effect
##eti
##overzicht
##place
1921
agency
ballonnen
beruchte
bewaring
cannes
coordineren
cubaanse
eik
exo
gallo
ing
jericho
maatschappijen
markers
mineraal
moraal
pai
premie
rustiger
sex3
spektakel
terugreis
##achi
##artikel
##bellen
##igden
##ioneerde
##lui
##stock
##stop
##tadt
1905
1928
activeert
alfabet
alwaar
atmosferische
bekabeling
bijhorende
burkina
canarias
dienstmaagd
essaouira
franstalige
getoonde
katalysator
kevin
networking4all
tendens
territorium
uitkomsten
widget
wils
zalving
##81
##geluid
##nel
##pin
##toestel
##try
##vaardigheden
##zout
aanrecht
albanie
arriveren
begrijpelijk
drijft
font
forums
fund
geautoriseerde
geplaveide
getransporteerd
hebzucht
hergebruik
importeur
ingrepen
moezel
nederzetting
omaha
oprichten
overtreffen
scheveningen
study
worst
##bt
##care
##eda
##ized
##kussen
##laken
##magneet
##situaties
##stal
##stan
aantekeningen
actrice
apache
bewondering
copy
damascus
dienden
electriciteit
enhancer
gedateerd
gefascineerd
gehuisvest
gepast
glasvezel
herdenking
kabinet
katholiek
kin
kutje
mitsgaders
motion
navo
oogopslag
rugzak
smakelijke
stadjes
stimulatie
tillen
zuilen
##blik
##clubs
##loot
##ruit
##ument
1923
aanhouden
audiovisuele
beklimming
bureaucratie
combi
dierbaren
fruitbomen
gelijkwaardig
guell
holocaust
interactief
joan
nagaan
overvloedige
participatie
sha
snowell
sprongen
spuitgieten
verdiende
verplaats
wetsvoorstel
wp
##ali
##craten
##draagt
##erson
##kkers
##kraan
##oerd
##oratie
##ube
afbraak
authenticatie
besefte
boottocht
caddy
cannabisgebruik
disc
formuleren
hulpnaald
iva
lagune
natuurliefhebbers
navolging
pigment
reservatie
ven
verdiepen
verharde
womens
wow
##aken
##doening
##eam
##ingt
##mal
##nac
##nta
##org
5de
aankondigingen
arbeidersklasse
arburg
benidorm
beoogt
geautomatiseerd
geraffineerde
gestructureerd
kerstman
kilogram
kolen
leaseweb
milano
optisch
po
speelse
uganda
verzacht
wallonie
##bestendige
##ified
##irs
##oever
##tect
##vergadering
##ward
1951
aardgas
ambacht
behoorlijke
bull
daily
dusdanig
enigen
erotische
fotografische
gespierd
golfen
herinnerde
jeroen
keken
native
opgaan
pascha
spoorweg
spoorwegen
vreze
wei
##fietsen
##jas
##kaartjes
##sbouw
##telijk
##verhoging
##yse
aanmelding
bco
cups
faso
goedertierenheid
macbook
millimeter
muziekinstrumenten
networking
parasieten
plezierige
segway
terugweg
theme
validatie
vertoond
vrijwilliger
weekendje
##mouth
##orden
##press
##urne
##voorschriften
1850
aanzet
amandelen
bedrijfsvoering
cartoon
circulatie
clips
corniche
geneukt
hangers
huisarts
kamertemperatuur
kist
korps
macau
manifestaties
mindervaliden
mylust
nfs
ontwerpt
onvoorwaardelijke
raadpleegt
roy
t1
teweeg
thessaloniki
waterkwaliteit
##arts
##ators
##brook
##elle
##fles
##gau
##ires
##late
##loden
##pn
##verlening
##wapens
##winnaar
agli
baard
beslissende
datzelfde
garcinia
gefotografeerd
gezonder
grepen
kattenkop
kwartet
opheffen
pendeldienst
recreatiemogelijkheden
redacteur
splitsen
toonhoogte
##cast
##dam
##ever
##inale
##lommen
##ulus
##ush
##uta
aanvullen
bahn
ballast
burg
doods
fietstochten
houston
kmo
knooppunten
kostprijs
med
mysteries
neerzetten
officier
pianist
raak
scandinavische
schedel
spanjaarden
spreuken
tijdloze
verbintenis
versnelde
weersverwachting
##game
##jf
##mix
##mu
##ship
amarillasbuenosaires
ambiance
august
bereikten
coco
darwin
feestdag
gerookt
huawei
karaoke
macintosh
nette
nutteloos
proefperiode
toonden
trailers
upload
##jaagd
##mini
##seert
##veling
are
bekroonde
bezaaid
crem
deskundigheid
distribueren
dringende
education
eenzaam
eml
glutenvrij
jaguar
mexicaans
naamwoord
nachtelijke
ordening
ro
satijn
toekomstig
vdl
visser
##arde
##berry
##dimensionale
##gelegenheid
##hagen
##neembare
##perk
##printers
##tentie
192
beeldhouwer
binaire
contractuele
dienstverleners
menten
nbn
overschrijden
sensueel
serra
tif
vergelijkt
zwakte
##egd
##elheid
##geschoten
##hoorn
##hutten
##zoon
afgestudeerd
afnemer
alain
bestendig
bewakers
boeddhistische
catherine
doodde
fernando
levi
newcastle
omheen
operators
overmatige
overschreden
pce
prehistorische
projectie
raket
renee
reserveonderdelen
synoniem
trans
uitnodigen
voorstelt
zittend
##aca
##belen
##need
##oorn
##sessie
achterhuis
amarillascuba
amusement
australia
bedekte
bestanddeel
catalogi
chronologie
deutsche
electrolux
grootvader
kennismaking
oeroude
ondermeer
opblaasbare
plezierig
provinciale
scania
schaap
twaalfde
uitdrukkingen
vertaalde
##82
##ations
##breekt
##geren
##icatie
##raken
##vision
1925
assisi
aws
begeleide
broden
communisme
dallas
doodt
drukknop
eucharistie
huurprijs
moeilijkheidsgraad
nikwax
puy
sanskriet
seksualiteit
veda
voortbrengen
voorzitterschap
##grade
##ides
##isa
##sl
aanvullend
boel
cursor
donald
erom
limon
oplosbare
postzegels
quad
respectieve
terrasjes
tunnels
versnellingen
verstrekking
vlotte
voorbinddildo
##bruine
##eb
##oer
##okt
##reer
##slaan
##zed
adequate
allerhande
atos
br
chang
egeische
gestalte
guyana
hing
kameroen
kinderarbeid
liegen
louise
opgevat
staand
stralend
symfonie
tobago
uitdrukken
verwanten
vijvers
vinci
westkust
##abel
##borstel
##ctische
##leveren
##opname
##stadt
automation
bekken
curve
eindproduct
electronica
enigerlei
facet
geanimeerde
ginseng
landes
liechtenstein
manu
maurice
meesterwerken
opperste
pallet
paso
pl
rwanda
sir
swing
uitgezonderd
wolfgang
##dn
##illen
##ineerde
##kelijke
##kening
##oordeel
##uter
##vluchten
afwisselende
blackberry
catania
category
coast
cycle
delivery
evenzeer
filmpjes
gehechtheid
keizerlijke
moogt
rustiek
satellite
terugkeert
verbazen
voorrang
##dat
##netten
##ogd
##ptie
##toria
alcoholische
beeldend
beweerde
bourget
brac
geleerde
getto
kits
langzamer
lux
mamut
mono
motorvoertuigen
near
openbaringen
snoep
stortingen
strass
tc
verheerlijkt
verstandelijke
vestigde
voordeur
zogeheten
##bot
##documenten
##eng
##erts
##kranen
##oneren
##pc
##percentage
##rdo
##reiniging
##ritz
##zitten
1932
afgrond
bedroefd
beschuldigd
blokkeert
ethiopie
federaal
fenomenen
gastvrij
gekoeld
gewest
hertog
madagaskar
magisch
moedertaalsprekers
onderzijde
ontoegankelijk
pennen
polijsten
rechterzijde
reeksen
reglement
sanchez
snoeien
subsidie
trouwt
twijfelen
universitair
vastgehouden
verdeelt
vgl
voortzetten
zilverkleurige
##atische
##cina
##fabrikant
##onder
##rge
##rts
##sverkiezingen
##unch
##xx
aandachtig
amarillasespana
arabieren
bezienswaardigheid
crazy
cryptocurrencies
emmer
erven
gereduceerde
hiel
ingevoerde
middenklasse
modellering
movie
polyurethaan
proteine
schrik
speelkamer
sturing
theepot
uitzendingen
verzamelingen
what
##ades
##bische
##vereisten
argentijnse
ba
baja
beeldvorming
boeketten
borstels
bukkake
concurrent
configuraties
cybersecurity
enkelen
helderder
ingesloten
maanlicht
onvermogen
prijslijst
problematiek
realtones
tegendeel
tekent
vertraagd
##conferentie
##jven
##lda
##resten
championship
dopen
douglas
drukwerk
excuses
flex
georienteerde
germain
gimignano
gode
hiernaast
huancavelica
hypotheek
inmobiliario
jeu
muller
omringen
retour
ruiken
stierven
uitgesteld
vendee
zonsopgang
##92
##consumptie
##groene
##iaanse
##inhoud
##rey
##trainer
##ulen
1910
420
bom
dienstbetoon
doneren
gastenboek
gecorrigeerd
gevouwen
kick
koopwoningen
lussen
macedonie
plassen
pup
scotia
telefoonnummers
transposh
verslaafd
vervang
zachtheid
##3u
##98
##aliteiten
##ateurs
##delijke
##dit
##gg
##hangen
1911
330
bedenk
belize
bezienswaardig
change
gebaar
gekoppelde
laagje
moon
ontslag
openbaart
opgetreden
rating
##achtigen
##ento
##igingen
##imo
##schijven
##tabel
##tage
##xe
165
babylon
banners
dali
educatie
geheiligd
gewacht
leidden
lo
ornamenten
petra
picknick
prediken
stephen
vergunningen
verschijningen
##aanvallen
##anca
##factor
##kluis
##raten
##strijd
##tle
##uga
##valt
23°c
achttien
bankbiljetten
binnenkomen
buitenzijde
cannabinoiden
deux
electronics
fred
geheugenkaarten
iconische
leipzig
lunchen
marge
mhz
ontkomen
opgegroeid
overgelaten
rab
solar
stapelbedden
veiligste
voorspoed
xxl
##gels
##gemaakte
##gewerkt
##itische
##nge
##raam
##sso
##ution
##werelden
##wricht
121
beduidend
definities
doorbreken
folklore
mediteren
meervoudige
nano
oprit
ouderdom
qsync
telecom
tomas
veelbelovende
verbouwing
voerden
##ados
##arna
##cursussen
##thema
##usse
##verwarming
aanloop
aantrekking
achab
andaluca
apt
bonte
cbd
concours
dick
familievakantie
gewapende
kindertijd
know
node
onderstel
ontlasting
poosje
reisbureaus
sosua
strook
teruggekeerd
toonaangevend
wk
##asa
##geheugen
##handeld
##izen
##mijnen
##sbank
##vliegtuig
##vogel
beieren
bewering
bobcat
breiboeken
brunswick
commits
coral
geborduurd
hamer
minecraft
ongebruikelijke
ontbinding
purple
quilt
reistijd
stro
terzijde
verdubbeld
voornemen
voorzorgsmaatregelen
wedergeboorte
weilanden
##chemische
##ectie
##hoop
##kov
##lington
##luiten
##rry
aangehouden
alberta
bommen
elcometer
erfelijke
geclassificeerd
gedraagt
geteeld
kaneel
kleurige
laos
madison
manasse
mi
moeilijkheid
overgeven
reizende
vakgebied
wormen
##3d
##cate
##chem
##cho
##gr
##lm
##ruk
##trap
##wonden
algarve
australian
balkan
blanco
bouwwerken
decoratief
dikker
heling
lanceerde
leuker
modieuze
parochiekerk
particulares
registers
reisinformatie
soul
tonijn
uitgeoefend
vaartuig
verwachtte
##alia
##binnen
##geel
##lecht
##pack
##sorganen
##studenten
##uo
##var
afronden
armeense
fee
gezegende
halfgoden
harmonische
kenbaar
kleinschalige
law
markus
minigolf
mondelinge
onthaal
report
revalidatiecentra
schokken
snaren
tijdvak
vrijblijvende
webmaster
wonderlijke
zanders
zangeres
##cos
##draden
##eking
##geur
##gevende
##issie
##lst
##minatie
##montage
##nit
##onnen
##sberg
##sprocessen
18°c
abstract
bonn
configuratiescherm
coupe
demonstreren
energiebesparing
gegevensbescherming
gui
handtas
importeurs
kamerswoonkamer
kwetsbaarheid
leesbaar
letterlijke
loof
ongelukkig
rugleuning
sterveling
verkoopprijs
version
versneld
verteren
vertoeven
##bier
##dde
##fu
##gassen
##home
##keer
##melen
##menteerde
##wissel
116
amen
bagle
bestandsnaam
binnenzijde
compressor
css
dot
espanya
groeperingen
herinnerd
hormonale
lng
maximaliseert
mosselen
moulin
ondertekening
overgeleverd
parque
projector
random
toezichthoudende
uitwendige
uppen
varieteiten
vienne
voortvloeit
willemstad
##get
##hima
##maten
##nter
##ono
##trip
aangevinkt
bachelor
beproeving
bert
cremes
doorgaat
geemailleerd
geinteresseerde
interval
isabel
kledingstuk
majestueuze
niger
overgewicht
rapporteren
short
studios
tb
ure
verovering
viewer
##ballen
##bezoek
##ieu
##lation
##niem
##ukken
##uurde
1927
21°c
analoog
begeven
conventie
doorlopende
driehonderd
dwingt
ecliptica
edelsteen
grootmoeder
haakjes
impulsen
lava
leerkracht
onderscheidende
opneemt
paper
respecteert
tijdige
transportbanden
vergoedingen
vuile
wlan
##bruggen
##digde
##fra
##gens
##oro
##pop
##rate
##schild
##shoek
##sturen
##vos
basel
belicht
betrekkelijk
bloemkleur
cuenca
dichtst
dramatisch
gedenkteken
gelet
genua
invulling
janeiro
major
optrekken
overeind
promolux
samba
schaduwen
schelpdieren
serveer
slijpen
verbannen
versleutelde
vreemden
weidemann
zimbabwe
##das
##gerecht
##hein
##hill
##iant
##istent
##kje
##kolom
##reel
##sveld
##tafels
##wende
##zaamheden
afstemmen
agadir
automatiseren
bouwer
castilla
fluit
franco
gevorderd
kolonies
lotion
loven
maestro
mariguitar
memorial
nederlander
note
onaangename
ontwierp
pine
speakers
uitwisselingen
wederpartij
werkbalk
##caire
##elia
##erland
##erlijk
##ibel
##presentatie
##ramen
##uel
##unie
##vas
abancay
amazone
charlie
doordringen
f1
gekruisigd
julia
leeuwarden
lincoln
mijlen
omschrijven
orion
palestijnse
schotels
transitie
trenbolon
uitgelezen
uitpakken
uitverkoren
verrijken
visualiseren
vroegste
wake
wenkbrauwen
wintermaanden
##afval
##cratie
##maak
##oestellen
##power
##tof
administratief
adsl
afgevoerd
agressie
automatic
bekennen
bo
christmas
con
criminelen
dergenen
derivaten
echografie
elisa
festiviteiten
harmonieuze
hat
intelligence
managing
pionier
productions
revolutionair
ron
six
spoorlijn
voortbestaan
##aks
##front
##gerold
##hoord
##laars
##legd
##meesters
##muren
##paleis
##portaal
##rail
##stitutie
belo
biljart
build
evenwichtig
ganzen
gekookte
gironde
gray
hole
joegoslavie
kanaan
ondeugende
oplage
opmaken
overzichtelijk
pb
vruchtbaar
yacht
zodanige
##elende
##guard
##huid
##ju
##space
##sregels
##taken
##verde
##vist
##xia
122
1919
aanplant
actualiteit
afleiden
bevorderd
binnenuit
blu
campinggids
coderen
cr
discovery
emulator
gelijkmatige
melodieen
mesh
miles
mixen
noodlichten
ontsnapping
oostzee
orly
trips
uitzoeken
vaderland
veroordelen
vervorming
##57
##arme
##cologie
##gis
##ntin
##slaapbank
##tat
##tier
##wetgeving
##σ
127
139
andes
belachelijk
coca
cursisten
erfelijk
fetishshrine
grondstuk
hol
huiselijke
langlaufen
lineair
lokaliseren
manhattan
onderdanig
onzer
overweldigend
sdl
sluier
stort
target
uitstappen
uitwerken
vage
vector
vijftiende
zondvloed
zuivel
##aantal
##agent
##selementen
##trie
##wit
10mm
belijden
bewustwording
bovennatuurlijke
bovenverdieping
cafetaria
chemotherapie
douchen
excl
forte
genegenheid
goebbels
invoegen
jollyville
motors
peruaanse
petitie
sjablonen
suv
take
tandvlees
tekortkomingen
tenen
uitgestrekt
verkondigd
##56
##bessen
##groot
##laus
##oker
##patie
##patienten
##rven
##terd
##tico
##werving
1926
aanvaardbaar
bewind
dop
examens
formulering
four
getalenteerde
globalisering
helikopter
heupen
ho
meldde
nederigheid
onrechte
provisiekamer
rent
restaurantjes
riet
spelletje
sterken
voorgerecht
##eral
##fluit
##inus
##moderne
##su
##telsel
##wassen
134
22°c
badplaatsen
bedrukt
bergtoppen
betekenissen
campania
criminaliteit
daemon
distributies
eerbied
emissie
hang
kde
levensmiddelenwinkel
manuele
mededelingen
offertes
overgegeven
pur
ruach
schroefdraad
senioren
spamfighter
stunts
uniformen
vangt
verdrietig
vermeende
volledigheid
##aardige
##coating
##denken
##formaten
##haak
##ister
##maand
##merkt
##pd
##rennen
##stijlen
##tudie
afspeelt
alliance
beproefde
bijgebouwen
broeikasgassen
concilie
consumentenelektronica
deugd
disclaimer
discotheken
fohn
ka
leent
lille
oa
rotor
schuilplaats
smelt
superenalotto
tropez
working
##asten
##ching
##eloosheid
##hart
##hd
##kampen
##plank
##rina
##voordelen
aankwamen
absalom
burgerlijk
buurman
claire
correspondentie
cost
desgewenst
haagse
ionische
loog
luka
misbruikt
myanmar
nadrukkelijk
ontwaakt
opvallen
productinformatie
psychotherapeuten
releases
ren
saone
stoornis
stoten
straatsburg
toebehoort
ventilatoren
verkrijgbare
##achten
##concert
##control
##geert
##gesproken
##hes
##hol
##oring
##roos
##sinstellingen
##spreekt
bevallen
bouwden
bureaus
claus
dierbare
football
gap
geplaveid
halfrond
kale
overheersing
pest
psychologen
redt
ruimere
schelpen
sculptuur
sportveld
theologische
txt
vernieuwende
verwezenlijking
vrijelijk
yoro
##aler
##fte
##gangen
##lezer
##links
##rust
##swijk
bekwaam
bezwaren
blijk
concentreert
elfde
flats
gebruiksaanwijzing
geexporteerd
gegraveerd
gestraft
hoertje
homoseksuele
modi
rijeka
romans
samenspel
serum
verenigbaar
##alisatie
##chema
##elli
##gal
##ionale
##liefde
##nger
##tests
##urie
##veer
132
9°c
amateurs
andy
athens
automaat
badjas
begeleider
bijzonders
blijde
chincha
consensus
consistentie
espana
gedecoreerd
ingegeven
lokalisatie
merge
ovaal
pins
prooi
roundup
salinas
toevallige
transit
venlo
vooroordelen
weerhouden
##200
##handig
##iddelen
##logy
##omp
##planning
##verblijven
480
aangegaan
afdichting
agia
angola
dominicana
drugbeleid
eronder
geinteresseerden
koffiekan
lonen
majesteit
mercuri
moab
uitmuntend
ville
wang
whirlpool
zittende
##59
##ista
##nna
##nza
##offeren
##ologisch
##slot
##sloten
assisteren
bewaakte
bhutan
cj
flamingo
geschiktheid
grenzend
kardinaal
kostuum
motorsailer
nederlandstalige
nuraghe
overstap
perl
princess
schaatsen
schuine
werkplaatsen
##beurzen
##combinaties
##halte
##huur
##ochten
##sporten
ankerspoel
aperitief
aram
baat
bewerkte
dave
deminor
dienstverlener
excellente
groepje
hoogstaande
hugo
levenskracht
linkerzijde
loyaliteit
onbepaalde
overstappen
rustgevende
stimulans
tongen
verlaging
vernemen
##apt
##bers
##chool
##heer
##iver
##leving
##schrijft
##stok
##uig
##wicht
##wintig
124
antwoordende
banking
chiang
clasificados
divx
ers
geoogst
giftig
greece
herhaalt
makarska
mol
ponte
pseudo
rafting
rf
rolstoelen
sancties
uitkijken
vatbaar
vervangende
verzachten
vuistneuken
wond
zeeniveau
zwaarden
##actor
##beker
##broeders
##constructies
##dog
##duur
##iend
##lagers
113
27°c
allergieen
cheques
dortmund
dour
dresden
eetzaal
ehouse
gedistribueerd
geschiedenissen
heersers
ine
jemen
kalium
nederlanden
onderzoeksproject
ontvangsthal
overspel
portie
scandinavie
sjabloon
spijze
straatje
volpension
zonnebaden
##84
##aarde
##bria
##dha
##extract
##grote
##iness
##revolutie
##sluiter
5htp
aankomende
adapters
afbreuk
basisonderwijs
beroofd
bouwhandleiding
buitenlucht
cabines
controllers
gedoe
geillustreerd
geraken
gerrit
glooiende
herbouwd
hoede
mensenkind
reality
ruige
samana
spleet
venetiaanse
vertrouwelijkheid
visualiseer
wekt
##assortiment
##itair
##nse
##tegels
##tuinen
##wl
145
aartsengel
armatuur
auditieve
bebouwde
cats
emma
familielid
herkenbare
ikzelf
inkopen
kain
kersen
leopold
lukte
oostelijk
reading
sal
saoedi
tegenstellingen
teleurstelling
truetones
versleten
werkblad
xxx
##active
##ates
##aver
##bouwer
##ev
##hier
##iatie
##ike
##kelt
##kenmerken
##kussens
##uwing
circle
dialoogvenster
discotheek
gehucht
juliaca
kate
katestube
kerkdienst
lichaamsbeweging
mk
nectar
ondeugend
rapportages
reproduceren
rsm
slank
staking
stellingen
stichter
trampoline
trotse
xx
##eder
##fabrieken
##gekeerd
##mana
##rial
##stoten
##vloeren
1922
aanbeden
aanzetten
alfred
beschouwing
bewoog
clinton
electronische
erna
finishlijn
geparkeerd
handtekeningen
horoscoop
hyper
hzz
impressie
israelieten
maitreya
markeert
meebrengt
moedertaal
morningstar
regenwater
reisverslagen
reproductieve
running
thinkcentre
timer
verfrissend
vlammen
waarheen
waart
##luik
##mend
##ores
##rat
##tsen
##uc
algerije
application
bepalend
bevalt
bitcoins
dwz
encyclopedie
geprijsd
gerucht
heide
koelkasten
lodewijk
meemaken
michelangelo
opwekken
rondreis
spons
stormen
stroken
verwarrend
verwijderbare
vredige
wanhopig
##cine
##cino
##court
##erbaarheid
##forum
##galerie
##gestort
##iaan
##korting
##life
##ple
##read
##riers
##turen
##velde
4k
academisch
bacterie
barmhartig
common
gastronomisch
gewekt
herkenning
klimt
nageslacht
notenbalk
onderbrekingen
parijse
regenbuien
ridge
ruiten
socio
spek
tractor
windsor
zeef
zouten
##anders
##kennen
##kopie
##peren
##splein
autodesk
azure
binnenshuis
blonde
dergelijks
drainage
econoom
fl
fokken
gereserveerde
gezaaid
grachten
illustreren
kalf
korrels
layout
lp
lun
ntfs
oak
opvolgen
outfit
puppies
rochelle
slagschaduw
veronica
voorvaderen
##2000
##bevolking
##bis
##ffel
##gelen
##oel
##rias
1924
aanslagen
bezetten
blaricum
cadeaus
champignons
chihuahua
commission
department
desingel
dilemma
elastisch
gedocumenteerd
hiernamaals
kanoen
manifesteert
manueel
marktaandeel
masturberen
mbps
nouveau
omringt
opgevolgd
resonantie
sauzen
schaar
terreur
turn
uitmuntende
verdoving
verhuurshops
voorschip
zoude
##elaar
##listen
##mide
##off
##outs
##posities
##schaal
##statische
380
aix
alba
basisschool
bezichtiging
blinden
boiler
concierge
contouren
course
geaardheid
gewild
goeds
inrichten
liefheeft
middellange
pony
progressie
qigong
raadt
radicaal
siemens
tabbladen
tol
trapani
uiteengezet
uitzenden
vakantieoord
verkrijgt
veronderstellen
veroverd
westelijk
zh
##brand
##fels
##ground
##ijpen
##iser
##iven
##ratieve
##sovereenkomst
##specifieke
##vend
##wski
aes
atlantico
auteursrechten
boat
bon
bruidegom
cadiz
daarenboven
dozijn
jongeling
ladyboy
malmo
most
omzeilen
opgelopen
perugia
plastics
porien
rits
roof
struik
teint
tienduizenden
vakantievilla
verering
##gras
##iling
##kundigen
##leiden
##oek
##pannen
##rg
##sbelasting
##studio
136
achtertuin
amstelveen
beoefenaars
beschrijvingdringend
blauwdruk
bourgeoisie
combineer
dekbedden
dierlijk
diersoorten
discipel
hydro
mission
moquegua
opstart
overschrijven
philip
smakelijk
train
urval
verbreken
verdeel
verliep
vermont
verteerd
voorspelde
wederopbouw
winkelstraat
##ect
##gend
##praak
##sco
##sin
##sm
##sorganisatie
##spiegel
##ssy
##telefoon
1100
24°c
amarillaschile
assist
assyrie
beleidsmakers
bijgestaan
dennis
ergonomie
faro
gadgets
houdende
inherent
kazen
moldavie
opgedeeld
pieken
positionering
samenwerkingsverband
statisch
sterrenbeeld
tevergeefs
toenemend
uitgeroeid
verontreiniging
wijnstokken
##cl
##domein
##filtratie
##has
##ization
##miteit
##mpers
##nny
##opbouw
##tu
##vezel
##vr
##worden
aeroklub
astronomen
buurten
caffe
dynamic
freeroll
galerijen
geschoven
gooit
kathmandu
nesten
nvidia
opgerichte
rabobank
return
schneider
senegal
sl
veiligheids
voorgangers
zweven
##aardig
##gelaten
##klapbare
##lab
##rop
##telijke
##wang
##zenders
19°c
1st
aartsbisschop
absorptie
bethlehem
beugel
competenties
geroosterde
gewaardeerde
landbouwmachines
lokken
overleefd
pau
personeelsbeleid
pisco
prague
quan
samengewerkt
schriftgeleerden
stevigheid
superfast
toewijzen
vecchio
verlieten
versilia
zachter
##baat
##besparende
##houwen
##instrument
##lade
##posten
##streken
##veerde
1931
aardbeien
akkers
assyrische
beren
ee
geert
godsdiensten
hapjes
illustrator
inspirerend
midoun
museo
psychotherapie
slider
tacna
teak
tegelvloeren
vergulde
vluchtige
##elaars
##factoren
##hese
##jl
##kocht
##maakte
##nto
##ocatie
##trein
##trek
##uiken
aanmaak
andersom
beeltenis
bekwaamheid
belonen
benin
duty
einstein
enschede
helper
kamila
kodesh
louvre
nominale
onkruid
paste
racisme
reisden
taalcursus
telefoongesprekken
uitbetalingen
verdrijven
voedselveiligheid
welker
wilson
##eh
##ices
##lood
##male
##malen
##mert
##relaties
##splaats
##yana
##zip
abonnees
antwerpse
bemanningskabine
brigade
chanel
combo
cp
dd
doctrine
drietal
elektro
fortuin
georienteerd
gevangenschap
hartelijke
hevig
incarnatie
johannesburg
kelders
koplampen
langzamerhand
mos
mx
notitie
stimulerende
substanties
ultrasone
##gasten
##infectie
##lc
##lse
##nheim
##pia
##pos
##rena
##springen
##uy
##verloop
155
arcade
demand
discrete
fifa
finca
flesje
formula
gehaakt
geregeerd
huancayo
informeert
inventarisatie
kappen
kroatisch
levenscyclus
morbihan
onderstreept
overmacht
rita
roemeens
roest
scope
sjaals
ta
teresa
vergrendeld
voorhof
##gant
##gevoelige
##ijp
##lede
##oscoop
beperkter
catalaans
corner
dief
economieen
ernaast
illustreert
informaties
ll
norton
ral
shorts
snowboarders
terminologie
variabel
verspillen
voorloper
##breiding
##byte
##chakra
##emde
##fish
##ind
##melding
##plantatie
##wees
156
alexandra
andahuaylas
crosstrainer
degelijke
elasticiteit
fotoboek
kopt
luchtverfrisser
modulair
oogje
racer
taille
wissel
##beheersing
##gno
##lading
##lom
##maarde
##pauze
##regime
##smethode
##tens
##ykh
a2
attent
dienste
flush
gravenhage
hippe
huiswerk
jacobus
lc
limousine
medailles
medelijden
messenger
ming
programmeur
python
runnen
sierlijke
suzuki
toegvoegd
tweetal
uitingen
vii
voornaamwoorden
##asse
##dh
##eter
##iliteit
##loten
##round
##sgewijs
##sopties
##stechnieken
##vlogen
##ways
16de
4g
afstammelingen
ammoniak
belanghebbenden
binnenkomt
doorsnee
federal
gerapporteerd
hallen
hasselt
hennep
minderheden
motorkap
notebook
onweerstaanbare
patriarch
perth
playtech
png
roche
schijfruimte
shoppen
standing
trujillo
vc
vergaderen
veruit
verzorgingstehuis
##150
##chting
##erg
##henen
##ijper
##ilde
##liers
##lisme
##tarieven
##yu
##zagen
195
5g
aangevoerd
apollo
behuizingen
bloemist
bout
broeden
busje
caesar
defecte
democratisch
duikt
gematigde
gevondenin
indicatief
keur
lavendel
onderverdeling
personage
ruimen
shock
symboliseert
termijnen
verbonds
##aki
##col
##eerbare
##ekte
##ereren
##eton
##iti
##legde
##ometer
##pitten
##rea
##rth
##schuim
##vina
autonoom
beseft
claimen
curriculum
dichters
driehoekige
drums
hapje
inbrenging
kaak
menen
octrooi
omarmen
onzin
perzische
prediking
profetische
rangschikking
rippen
spotten
vanochtend
vertaal
vk
zuinig
##88
##buizen
##dans
##ield
##ijzer
##medewerkers
##night
##ood
##sma
##snel
##straling
##urale
##yen
avonturiers
baanbrekende
connectoren
eindgebruiker
gereisd
harmonieus
hoeverre
kristalheldere
kubieke
levensvormen
regenen
ruis
specificeren
verwarren
vijg
voortkomt
webroot
##aanvraag
##ams
##bolische
##burn
##centrales
##gerekte
##lens
##nai
##rassen
##ueerd
##uim
##woud
##zza
afleiding
afleveringen
analisten
baren
beweerd
coalitie
dirigent
knus
lichtaansluiting
mandaat
ra
ruben
sans
share
snackbar
story
varken
vergiffenis
vergrendeling
voedingssupplementen
voornaam
##besparing
##gedraaid
##lken
##mest
##potten
##roe
##swoning
##visor
accepteer
afgoden
anek
atm
buggy
burton
climate
depot
deszelfs
discreet
eenden
enquetes
implantaat
ketens
mickey
ongediertebestrijding
ontkenning
pinguin
puntje
rauw
respondenten
substraat
terugtrekken
therapeut
tienden
watch
wrede
yamaha
zoekschijnwerper
##ande
##gevaar
##gma
##gronden
##monium
##spoor
##sprojecten
##wandelen
barrieres
bedreigde
bunker
cartridges
coin
comte
days
exploitant
gedierte
grace
inkten
kelly
ny
ongeldig
onthulling
ontslagen
peterselie
puin
regenval
rek
romana
shenzhen
sinaasappel
tin
zoenen
##97
##esa
##eth
##force
##geleid
##haald
##ols
##scode
##sfuncties
##teden
##unce
##werkende
balance
beoordelingscijfer
bradley
detecteert
dodelijk
doelwit
doolhof
eeg
encoder
eos
hendel
jr
karen
kristin
kuala
letteren
mobiles
neergezet
rekent
rib
rieten
roestvast
snelst
sowieso
uitgifte
verdubbelen
vermoorden
visualisatie
vonnis
wachtte
##branche
##ced
##dong
##duiken
##eigenaren
##eland
##hebbers
##iseer
##pis
##rta
##uid
##vattend
aantrekkelijker
afgebeelde
bangle
bezat
cuisine
decoder
demografische
doeltreffendheid
gesynchroniseerd
honderdduizenden
ingrijpende
jura
mall
meststoffen
namibie
omslag
peil
ridder
schoorsteen
snap
sproeisysteem
steegjes
steentjes
thiel
triomf
uitvoerende
uzelven
veronderstelling
##aanval
##aliseerd
##centie
##evallen
##hoor
##iddel
##jah
##mist
##mogelijkheid
##nz
##reuze
##status
##stoot
##telen
##tsu
5mm
angela
astrologische
badjassen
chi
funchal
gletsjer
ingaat
kalenders
km2
leopard
manifest
mixer
nauwkeuriger
ongelukken
prime
reageerde
ribbelst
theelepel
tutorials
vanmorgen
veertiende
verhuist
versierde
vroegtijdige
wandelafstand
wordende
zwaartepunt
##anza
##drogen
##fit
##hore
##ivati
##klachten
##loper
##oden
##oka
##privati
##rer
##roef
##veen
##vrijheid
1880
beeldkwaliteit
behorende
belfast
blaricom
bont
caldas
concluderen
downtown
frezen
gratie
jongeman
joost
kredieten
lepel
ongewijzigd
originaliteit
pads
quantum
sacrament
trant
vergelding
visioen
watson
westfalen
wijzers
##bag
##feren
##fieke
##grafen
##ijde
##illes
##js
##nij
##straten
##tisme
##tree
##uif
##zz
billenkoek
cayo
coole
ct
durf
fundamenten
garda
hoogtes
keurmerk
koophuizen
mutaties
notaris
oostkust
oprechtheid
rfid
slogan
templates
toegangsrechten
toepasselijk
winsol
##aagd
##aring
##bb
##cu
##eratie
##gangers
##hals
##leverancier
##normale
##praktijken
##sieke
##tiviteit
##volge
afbreken
barbados
bedient
bestuurlijke
bewakingsdiensten
bijstaan
crikvenica
haaruitval
heengaan
lier
lotusvoeten
mountainbikers
ontbinden
openluchtzwembad
opruimen
orgels
pech
scheuten
strijders
tibetaanse
verkenning
wegje
wide
##bird
##mosa
##uurd
##zuchtige
21e
225
algoritmen
beoordeelden
dedicated
demon
driedimensionale
entry
fases
hurghada
klonk
kruipen
loft
margaret
mora
nederzettingen
plooien
professionaliteit
profile
solution
zool
##83
##gus
##iceerd
##ision
##nch
##rukken
##stage
##thee
##tum
##usie
##vaders
##waartse
##zending
##zoekers
4x4
aurora
bedrogen
beierse
belemmeren
boogschieten
cockpitafel
delicaat
doosje
els
gediagnosticeerd
ideal
kinderfeesten
komend
modernisering
nadelige
nastreven
ondervindt
phil
raften
scherpte
schonk
spul
sweater
thermisch
vergezichten
walk
zetmeel
##ello
##lei
##metalen
##sbehandelingen
##slieden
##stisch
##tijl
##tonen
airborne
dertiende
eindtijd
euromillions
fietsroutes
fira
geloften
genova
gewandeld
glasmozaiek
grondslagen
intimiteit
isaac
kwarts
lumia
microgaming
mislukken
notes
nvr
onderduikers
pedrera
productief
stevia
uitstapje
verbind
zwaan
##advies
##anga
##cala
##hesie
##interface
##regen
##sleutel
##vens
##werven
##wich
##yne
bergsporten
bijlagen
boeing
bouwstenen
castrol
cottages
doorsturen
doses
eenpersoonskamer
energiebronnen
exposanten
friedrich
frustratie
gegenereerde
hypothese
invloedrijke
jagers
klemmen
magazines
moorden
olympus
ongelofelijk
onverminderd
opgeborgen
opgepakt
ouderwetse
paradigma
parasiet
programmaboekje
ranglijst
snelkoppelingen
tragische
vakbonden
vergezellen
voorbijgaan
voorruit
voorschot
wars
wasruimte
women
##91
##books
##circuit
##dekken
##mite
##ote
##rif
##schrijving
##smaatschappij
##somstandigheden
##wachten
##wb
1907
1908
8mm
bezitting
corvette
ek
fiat
foutloze
germany
handvol
individualiteit
kinderspeelplaats
legen
nietrokers
overwinteren
plantaardig
previous
quito
seoul
taalschool
tijdlijn
uitvinder
vuelta
waterpark
##ager
##enzen
##financiering
##koming
##koop
##mengsel
##mps
##nkt
##richter
##slijn
##snelheden
##spelbaar
##step
##verschijnselen
##verzameling
##vouw
1916
aarden
aximas
belgen
betoverend
bouwers
comprimeren
dienovereenkomstig
eng
gelofte
gorges
immobilieres
kleurstof
nasa
oprichters
persconferentie
retailers
schattingen
toediening
traffic
verhuurt
vladimir
vloeien
vriendinnen
zegende
zonbedekking
##derend
##ffing
##garen
##groeven
##lah
##nx
##schriften
##slang
##vb
##verleners
afhalen
bananen
beatrix
beveiligingssystemen
beweeg
bloedsomloop
blz
broeken
continentale
domineren
eigentijds
flair
gecomprimeerde
gloed
grondwater
hagen
hebron
herten
homoseksualiteit
idyllisch
ietwat
inzetbaar
juweel
kuen
ldap
legitieme
levensonderhoud
lichtgevende
meebrengen
ontgeuren
overmatig
pascal
psalmen
republica
sanliv
specialisatie
stoffelijke
veroordeling
vervalt
wachtrij
zuidoostenwind
##aamd
##coli
##hoge
##ieken
##iza
##mic
##nist
##oz
##ptische
##rijs
##stermijn
actieplan
alzheimer
boeien
catamaran
crew
explosieve
feestelijk
felix
gerona
gestandaardiseerde
grade
gruwel
herodes
ineenstorting
kalme
lead
liedje
muisknop
nh
rechtse
rijkste
sata
schildpadden
shinto
systeemfouten
telling
trust
vluchteling
voordeliger
voorstander
welnu
wereldkampioen
##300
##animatie
##hoes
##hoping
##ilion
##oppen
##rei
##vangst
##verkopen
##wetenschap
aanvaardbare
about
achternaam
ain
alias
baten
bedrijfsdiensten
beoefenaar
christopher
doorzichtig
edwards
evenzo
gewoontes
graffiti
groepering
isa
kattenpis
keurig
kingdom
klossen
komeet
mailing
nuraghi
officieren
ontgeurder
ontstekingen
plato
raymond
rooklucht
sigaret
verkort
verwonderlijk
voedselketen
wisselwerking
##3a
##aven
##srust
##stream
##voeders
##zegging
##zenden
133
aangaat
amarillasgeorgia
anderson
arrestatie
attentie
bespreekt
betreffen
betrof
conservatieve
hief
iraanse
knowhow
ladingen
leidinggevende
misleiden
nationaliteiten
pcb
uurtjes
zoeker
##boy
##cover
##gestelde
##ises
##keerbare
##ladder
##lding
##leggers
##terij
##uka
##werping
aanblik
bijkomend
binnenvaart
bloeden
clinic
daarvandaan
direkt
geallieerden
genie
groepjes
inbox
instructeur
jakarta
judea
kiezers
ondiep
pakistaans
potter
proefschrift
promo
salamanca
tiger
truffel
value
verderven
voorschijn
wijnproeverij
##alisme
##aste
##eme
##lux
##moed
##omd
##sites
##snelle
##stown
##tukken
##verwerkende
abonnementen
automobiel
bloedbeeld
bolivar
boor
casablanca
dochteronderneming
duif
eetlepels
eitjes
electric
eli
gemonteerde
nebadon
odds
ongeloovigen
pietro
populairder
staken
tactiek
trof
verhindert
zussen
##alth
##berger
##chs
##dochter
##drukt
##eler
##fax
##ilt
##nieuws
##recorder
##rik
##rist
##scontrole
##smethoden
##standaard
##technische
##tudio
10e
129
180°
1909
aangewend
administration
afstemming
bedrijfs
bevrediging
blusapparaat
destructieve
drenthe
erdoor
extractie
gokkasten
huiselijk
interpretaties
kalmte
kattenurine
knappe
lade
legal
mango
monica
myspace
nagedacht
nalatigheid
neptunus
openslaande
partituur
raadpleging
rush
snelwegen
sterrenstelsels
##alt
##amt
##disciplinair
##eiing
##nice
##ogische
##record
##terugwinning
##uche
##velen
##voeging
bakkers
bereidingen
bestandssystemen
bloeitijd
bsd
cognac
eigenaardigheden
eilandjes
find
gedegen
jackpots
jessica
maori
minimalistische
mozambique
ontdaan
ornament
paswoord
phuket
ruth
sync
tattoo
tussendoor
vakje
vijfhonderd
violet
vragenlijst
##aling
##ateur
##belang
##chine
##ertijd
##load
##paarden
##ridge
##sea
##ssoftware
##sverzorging
##verhoudingen
##vertaling
##vrucht
##wave
##wijzigingen
bijouteria
borstkanker
brander
buena
buit
chassisnummer
cooperatieve
flits
gaar
geeerd
grimmigheid
helende
hydraterende
ic
ingebed
knap
kruisiging
ontmoetten
overzeese
playitalianlotto
prototypes
russen
secundair
synthetisch
t2
tellende
uitbreken
verwisselbare
voorgoed
vordering
waarschuwde
##89
##aming
##bian
##efficient
##genomen
##gin
##kade
##kins
##liefhebber
##oco
##unde
##zalige
950
adolescenten
b1
bacio
biljetten
block
broodje
chaotische
comfortriolering
edpnet
evenaar
excuus
icann
indre
kapper
klonen
lakken
latin
livorno
matte
nevel
number
oplosmiddelen
penseel
radiator
resulterende
rover
schildklier
sluis
urinezoeker
vegetariers
vergelijkende
vrijgeven
wandeltochten
wintersportplaats
zorgden
##aim
##aut
##coa
##dl
##fx
##lekken
##persoonlijke
##rijders
##scharen
##ske
##spositie
##sraad
2050
21ste
adoptie
akker
amerikaan
angstig
bestandsformaat
bewijsmateriaal
bovenzinnelijke
cellulaire
charms
dienstknecht
filosofen
gad
gedenk
gestudeerd
geworteld
hanteert
hoeve
hoezeer
hypotheken
instemming
lijntjes
nederig
omgevormd
onmogelijke
pablo
programmer
prov
tabs
toiletrolhouder
vangst
woeste
wolven
yuan
zondaren
##1080
##bby
##bollen
##chal
##ditie
##figuren
##lair
##llende
##matisch
##pedaal
##vlekken
##winnaars
##zucht
bahamas
bondage
bulgaarse
cold
compassie
cornelis
cubo
dwaling
eend
elektroden
fosfor
gelabeld
gevangenissen
hoogstwaarschijnlijk
jeff
liberty
meningsuiting
metrolijn
mozaiektegels
onrechtvaardig
opeenvolging
perigord
pinda
simulator
sinai
sportmogelijkheid
strekken
tikt
verheft
vervelen
wijding
zune
##detectie
##flessen
##instituut
##methodes
##ochenen
##oep
##prestatie
##quentie
##uli
138
251
beiaard
beveelt
bezeten
cardiovasculaire
ghz
hyfoma
kaapstad
overtocht
solitaire
stadsmuren
uitstel
uitvoerend
veerboten
vegen
voettochten
wangen
warner
zeefdruk
zeegebied
##beschrijving
##bonen
##categorie
##diepte
##drang
##energie
##nut
##pping
##pr
##sactiviteiten
##tery
##tube
##uwse
7000
achterin
bodrum
caribisch
crown
eerbetuigingen
gehandeld
grid
herstart
makkelijkste
mohammeds
nara
oasa
onderging
ozon
qi
roeren
roses
taipei
vastberaden
verbanden
vergissing
vermenigvuldigd
vermoeid
werker
##amar
##ario
##beheerder
##deksel
##elijken
##ineert
##ives
##ragers
##rappen
##reactie
##riale
##sbare
##schoon
##terug
##willig
196
afneembare
auberge
correze
dolphin
ecb
gastenverblijf
goteborg
leefomgeving
lidwoord
menig
nachtclubs
oncomfortabel
opdrachtnemer
reactietijd
salusa
snelkoppeling
sterrenhemel
telefonie
verscholen
verweven
verzegeld
voetafdruk
vries
wierook
##betaling
##erk
##kind
##modules
##proef
##rak
##ritten
##sau
##sor
##storm
##tappen
##zoek
2°c
aanspreken
assige
donkerder
etienne
gebhardt
gefabriceerd
gestort
golfterrein
immogo
jn0
kosovo
nagasaki
ontgrendelen
pallets
plc
renfe
verwezenlijkt
virale
voortgekomen
wouter
zitruimte
zwakheid
##kerij
##ksen
##ploeg
##skamer
##sporen
##sya
##til
##titel
##trol
##verdieping
abner
allfont
ambachtslieden
ammons
ancona
beauvais
bijbels
cannabinoide
commissies
emperor
fleece
gevangene
gokkast
hip
hizkia
identificeert
muzikant
ongelijk
passief
rechthoekig
regelaar
registraties
regular
salerno
skelet
skipistes
thais
toledo
vierhoekige
voetbalveld
waarbinnen
zakenreis
##bil
##cation
##chester
##dden
##gl
##junct
##ldiging
##leert
##medium
##otte
##rijen
afschuwelijke
almere
assembler
beethoven
caps
desktops
engelsen
gefilterd
geleide
gelijkaardig
gerecycled
janssen
jomy
kijkers
landpale
lane
malawi
rat
restanten
ru
schemering
vakkundig
vermoed
vredig
waken
wijnstok
zoekopties
zomerse
##appartementen
##horloge
##sbureau
##sproject
##vista
##wandelingen
##xon
aanvaller
atlet
ave
begroeten
bermuda
driemaal
estacio
gebundeld
german
hunnen
illusies
inglesi
invasieve
laad
linkedin
nachtrust
olbia
onbegrensde
oneindigheid
pijnbomen
rammen
rationele
roller
ruimtelijk
sahara
salem
sieraad
slagveld
snowboard
tijdschema
truien
tussenin
vreesde
waals
weggelaten
youth
zong
##bben
##eger
##ful
##gevuld
##inet
##jen
##misch
##ndy
##oken
##rapporten
##scapaciteit
##tf
##ugen
##vigen
8°c
begeleidende
beoefend
compagnie
davidson
diepten
doende
elvis
geografisch
glimp
hemelopname
ijverig
inachtneming
inrichtingen
karabijn
kronkelende
lach
moka
naden
nintendo
ogenschijnlijk
onderzoeksresultaten
onzuiverheden
pleit
regional
rocky
safescan
santorini
serre
speaker
speeltuinen
spirulina
sr
stones
tanga
telde
telpatroon
toelopende
valideren
waterloo
##accounts
##hielden
##hopen
##kabels
##kus
##luit
##mount
##nelheid
##producenten
##richtingen
##ssie
##tools
##vormde
255
8000
aangekocht
afgewisseld
amstel
annecy
asf
benoeming
bevind
blend
captain
contactpersonen
eetgelegenheden
harris
ian
klif
kopjes
kuil
lucifer
milffox
natuurproducten
opstijgen
orchestra
quest
togen
tweelingen
uranus
vernietigt
viii
vu
winning
##aandoeningen
##atieve
##breken
##caten
##cum
##element
##ificeerd
##iveerd
##jk
##meubilair
##nieuw
##nnen
##noi
##poker
##rook
##row
a3
aankomsten
besmette
betrokkene
bewaker
but
communisten
doelgroepen
domme
eilandje
einden
etruskische
fiscaal
flores
foetus
gecomprimeerd
geduurd
gelakt
granieten
hosten
jimmy
juk
luidruchtig
overnacht
overzees
pit
sexuele
terre
toverstok
tricotsteek
veeg
vereenvoudigd
vita
##aders
##adje
##diging
##fje
##klier
##lgen
##oll
##raakt
##scher
##teller
##teur
##treek
##uco
##zocht
131
1888
aanbesteding
aardappel
afvalstoffen
benadrukte
cherry
consoles
cradle
dageraad
desserts
emailadres
fiji
foutmeldingen
garciniaextra
gegrond
heftrucks
hogescholen
holding
kamerszeer
keltische
kreeft
kussenbekleding
madagascar
metrostations
nobele
ongebruikelijk
onverharde
onvolledige
path
puntjes
reflecterende
rijpen
rups
sciences
stelsels
stuurprogrammaversies
ufo
verluidt
verraad
wd
##bereiding
##infecties
##ologen
##tectie
126
aankomstdatum
akoestisch
barcodes
discount
exploitanten
gangway
gecoordineerd
gevalideerd
groeven
inhoudelijke
kacaby
klus
koelbox
kostenlose
krakau
leone
opknoping
personeelsleden
reisverslag
savona
schuift
screening
stapte
tiental
tote
vergoten
voorwoord
wereldbevolking
weven
wood
##bars
##case
##hang
##kleppen
##liseerd
##ope
##rv
##schermen
##schreven
##sinstallatie
1885
925
afwezig
ayacucho
bellevue
chanchamayo
constellatie
geduwd
gemodificeerde
interventies
jerobeam
kanon
melexis
nacional
ogg
ppt
rondjes
rum
sendmail
swift
tegenhouden
tint
uber
verhuizingen
voorkomend
##ated
##chia
##cp
##enteren
##haling
##honden
##istentie
##nyi
##ones
##oofd
##oort
##raties
##saurus
##sol
1902
achten
adel
asbest
avondeten
basketball
bijkeuken
blaza
christine
christophe
fiches
fusion
gegrilde
inner
keyboard
lacht
lite
machu
mainstream
multiculturele
normaliter
omgevingpanoramisch
onophoudelijk
onzes
portable
praia
slow
uitputting
uitrusten
wedergeboren
##brak
##campagne
##cb
##iezen
##pol
##stat
##tanks
##teer
##uws
##verdrag
##zand
##zinnigheid
201
aangestuurd
ascensie
bezighoudt
bouwwerk
brahmaan
choreografie
cilinderinhoud
eagle
flying
freelance
geciteerd
gedenken
gelijkvloerse
genres
gereageerd
healing
hoofdingang
injecties
investeert
krachtens
lagers
leds
nier
outlet
politicus
publiekelijk
tikken
touchscreen
vergrendelen
vesten
wagenpark
##bell
##born
##cloud
##daags
##rekking
##ruck
##system
##wetten
##woningen
##zaagd
26°c
7de
999
alone
baseren
bedrijfsklare
beschutte
cagliari
detroit
dip
fortune
framework
geconstrueerd
gietijzer
hoofdrol
intiem
jason
kerel
lui
nauwgezet
ongeloof
opvalt
seoel
sferen
stijfheid
stormachtige
tiff
trace
vertaalservice
vervulde
vliegvelden
xvi
zakje
##beginselen
##beugel
##eide
##gard
##gekoppeld
##haast
##hit
##ieuze
##lge
##mbo
##nnie
##orn
##rden
##ride
##rologie
185
1913
aandoen
aanhangwagen
bean
beeldmateriaal
belichting
covers
croix
essen
fritz
gansen
gesponsord
heft
identificeerbare
joris
kampeerterrein
koerden
mosterd
pvda
schrijfster
secretariaat
senaat
snijdt
tanken
toestanden
uitbarsting
uitvindingen
verstrijken
vervoerder
voortvloeiende
welbehagen
##arn
##boards
##cards
##cra
##duct
##gestoken
##geteld
##gua
##hallen
##iche
##num
##ppers
##pu
##rador
##urde
##verpakking
##zeker
aug
clowns
essay
garcia
geeindigd
girl
goeddunken
grosseto
hak
heinrich
kitty
korcula
lama
mit
neurologische
pius
preken
rafti
sacramenten
saver
timoteus
verwerkte
voorzover
##aba
##awa
##daden
##drukken
##gp
##ilo
##jagen
##nese
##nieuwe
##oss
##reiziger
##sfase
##uning
##vier
##vloed
##wortel
baarde
bedrijfsconsultants
bedrijfsprocessen
bijl
bleke
candy
ccr
centgraf
dennenbos
divanbed
durft
floppy
gastro
geboorteplaats
grap
hardlopen
ingebracht
kleinkinderen
liefgehad
motorsport
msc
opkomt
pedagogische
richmond
superuniversa
verbiedt
verbruiken
verheerlijken
vermenging
weerspiegeling
wegwijzer
zusje
##aag
##cen
##cure
##haalt
##jing
##kern
##mg
##oter
##rond
##wol
00€
147
aangezet
bestseller
cappuccino
christina
departementen
dwaasheid
eau
ecomare
filialen
gerco
geupload
gigantisch
groenland
limieten
linken
meervoud
metatrader
overgaat
overweeg
palais
picchu
second
slechtste
tomaat
vanop
##breid
##hub
##ident
##market
##nay
##nts
##richtlijn
##verteerd
afneemt
afwijzing
bauer
begrensd
copan
doorkruist
drift
duiker
frisheid
gebeld
glimlachen
handgemaakt
heidense
internetsite
marktplaats
ontlading
ontmoetingsplaats
opengl
privilege
reserves
response
royaal
snowboarden
synergie
totstandkoming
vaatwerk
veelbelovend
velds
##alisten
##arij
##bestendigheid
##bijeenkomst
##cessie
##df
##ganger
##gent
##holm
##lezing
##nell
##ornis
##trokken
##vechten
##voorraad
##werf
##zend
##zuren
137
additionele
adresboek
amd
apeldoorn
assessment
belgian
besneeuwde
bewonder
bijboot
bovenzijde
brunei
dakota
dbalmax
deuteronomium
diepgaand
esthetisch
geconcentreerde
kennissen
kiel
kikker
komedie
krimpen
omgaat
oppervlakkige
oproept
overlast
overtuigt
polycarbonaat
ritje
salou
schets
simuleren
sleuven
valet
verbeter
vergen
verwend
werkzaamheid
zebra
##aier
##alisering
##bouwing
##br
##deeg
##dioxide
##ening
##filosofie
##free
##hebbende
##oefening
##toestand
##ucci
##vijver
##wijken
amarillasarizona
banaan
bedriegen
bei
bruce
bs
elias
flughafen
fuerteventura
geallieerde
historicus
irish
jeugdige
kinderbijslag
korrel
krasbestendig
lm
megapixel
member
moedige
nazaret
neodymium
onderwijsmaterialen
ranch
resistentie
rosario
saffier
sluizen
smering
vcs
videoclip
vleeswaren
voorlichting
yes
zwevende
##benen
##einden
##ggers
##hua
##ruimten
##sbedrijf
##slaapkamer
##uth
##vastheid
##vio
##yte
11e
1904
beroerte
beschadigingen
bindt
booster
boules
corp
denkbare
dhcp
dijken
farmhouse
friese
gelinkt
geofferd
geschokt
glorieuze
grijpt
hubert
iss
kamersingerichte
maaien
magne
maremma
meesteres
membranen
menselijkheid
moederbord
motiveren
munich
ned
onmiskenbaar
ontbrak
opt
palmen
reddingsboei
reduceert
rembrandt
reu
ridders
romeins
slave
tor
trommel
verdeeldheid
verpleegkundigen
waarnemer
ward
wasrek
zeventien
##beten
##braken
##controller
##ften
##izon
##lokken
##tien
##trueerd
##uss
##weld
##wijnen
9000
aanhanger
activisten
adrenaline
ag2r
archive
bankbedrijf
bankfoto
bezigheden
buig
civilisatie
cum
doha
gecoat
generation
kalksteen
opgang
overtreft
philadelphia
phnom
raadsel
rijksmuseum
roots
silicium
superuniversum
talenscholen
thermo
toewijzing
zeebodem
##93
##bahn
##dop
##gamma
##geleiding
##ivaat
##kruid
##lls
##oiing
##orio
##scoop
##serie
##stammen
##symbolen
##vent
##voorbereiding
##wekking
##zit
304
aangeraakt
aanneemt
allrounder
alm
audiobestanden
bespaard
bestudering
comfortopen
cycladen
dauphine
dome
exterieur
final
forward
gecomponeerd
gedroomd
geplukt
gletsjers
guadeloupe
journalistiek
libie
losgelaten
margarine
menorca
moscow
murano
nestje
penzion
pilaar
poetische
pretpark
primont
productieprocessen
rare
rescue
rhodes
sherman
spuit
sterrenstelsel
susan
togo
trier
vrieskast
##agentschap
##jers
##klas
##linken
##nagels
##office
##ogo
##paar
##pal
##quet
##reclame
##rr
##signaal
##tb
##voegsel
##zalig
1906
aanvoer
accounting
ademend
alinea
apres
barmhartige
bazuin
bekers
benoemen
besprekingen
boetieks
briljant
fijnste
flak
groef
hencov
herstelproces
kaders
kooklessen
kwaliteits
mdf
omvangrijk
onderbreken
ouderlijk
pavilion
pioniers
reeel
ronduit
schacht
slowaakse
smaakvolle
teruggevonden
uitbuiting
uitgesneden
verkenner
voorzichtigheid
waardes
##bedekking
##cier
##gro
##krijgen
##mble
##onderhoud
##oper
##pus
##rley
##sdelen
##ture
##vain
##vn
##zitting
aandrijvingen
aanleggen
aberdeen
batllo
bedrading
cultiveren
ergometer
fiber
ft
geevolueerd
gespaard
goeden
goot
hydromassage
inval
julian
kajakken
karinthie
kiezelstrand
laan
landhuizen
mares
naturel
naxos
onvruchtbaarheid
oogleden
ophangen
pipe
processie
regelbare
ryan
shooter
sisley
stuurwiel
stuwmeer
supporters
talrijk
tec
tegenhanger
tussenstop
verderf
vermengen
verwoestende
verzamelden
##ather
##bbels
##bewijzen
##eca
##gelezen
##gevoerd
##mara
##mn
##paal
##quisitie
##rton
##sering
##stond
##tekeningen
##tool
##volgende
abonneren
asperges
blender
blootstellen
dukla
duomo
emancipatie
gevlochten
hoofdtelefoon
kaal
managen
mandarijn
modelleren
omstandigheid
ontspannend
origine
raamwerk
rechtszaak
rokken
routeschema
serienummer
speels
tweet
valkenburg
verkent
vervanger
vrijkomen
vrome
wereldklasse
##0m
##94
##aald
##ardig
##armen
##bags
##bureaus
##cas
##cie
##console
##ekking
##harde
##hiers
##loon
##nu
##oefent
##xine
aanbouw
aantekening
ethanol
gegrepen
geroosterd
ignatius
institut
interesseren
jane
large
ryanair
s3
toneelstuk
vergaren
widgets
wine
womo
xanadu
##a0
##boer
##choenen
##fysica
##ify
##oorde
##page
##pres
##procedures
##reefd
##rein
##sley
##uba
##wongen
10gbe
afgestudeerden
alentejo
axel
bartender
bedieningspaneel
clusters
comfortabeler
competities
cristina
culinair
districten
focust
folk
geluidskwaliteit
geruime
gezalfd
guardian
intestinale
lilo
meegekregen
onbewuste
oplaadbare
poetsen
quiz
recover
ribbels
singer
teruggegeven
uitsluiten
verheffing
verstandige
vijandige
vondst
waanzin
waterbedrijven
watermerk
weekdag
##alie
##ances
##cial
##dj
##iende
##ln
##mad
##rien
##technologieen
##tips
##vingen
##zation
100m2
absorbeert
afhangt
afwerkingen
altos
baron
beweringen
dolce
engineers
esprit
frederik
generic
geprepareerde
highlights
ingrijpen
insuline
meetings
metadata
ondervonden
ontsteken
orkesten
pittige
regina
soortgelijk
spant
spelling
subjectieve
uitweg
verne
vernedering
wachters
ypagescalifornia
##bbel
##campagnes
##cussie
##date
##dichte
##ead
##giften
##hus
##plas
##rede
##reizigers
##rock
##sluitbare
##ssel
##takken
##vaiut
##virus
##voetbal
##ym
##×768
aangezichten
address
ademt
afbreekbaar
afhandeling
arriveert
cartago
edom
fotogalerij
geblazen
geene
hielpen
houdingen
inbreng
kajak
klaslokalen
krachttraining
mouse
muggen
onregelmatig
onverzadigde
overspoeld
pastoral
personaliseren
rondte
schakeling
scholieren
tijdsduur
touwen
tricotst
tuberculose
venture
voorgenomen
weggevoerd
zinken
##abiliteit
##balanceerd
##besparend
##comite
##criteria
##dwalen
##hasa
##ieke
##infrastructuur
##ketens
##lake
##nr
##oefeningen
##preid
##riere
##smachines
##toetsen
##uts
##versiteit
##wara
##yr
142
1903
adequaat
belde
castello
choreograaf
elektromechanische
fatsoenlijke
huidig
jd
koffiemachine
laatsten
munitie
naad
onschatbare
opwarmt
psychologisch
roosevelt
sample
taarten
tekende
verwerkingsverantwoordelijke
wire
zwitsers
##bekken
##bewaking
##estel
##gles
##opathie
##rdi
##remmen
##sec
##sgebieden
##soortige
##wals
##welt
##zende
almachtig
beboste
bende
beval
champs
dalende
deadline
dekdouche
denwelken
eerstgeborene
gouda
gympen
hotelfaciliteiten
hs
isis
isoleren
judith
kliek
klop
misleid
missionarissen
noordpool
publiciteit
qing
richters
schildpad
scholing
snow
sucre
tekstbestanden
vrijgemaakt
wa
werner
zaragoza
##chie
##dies
##dynamische
##helling
##ignon
##luizen
##mmy
##nds
##otherapie
##radio
##sgroepen
##soplossingen
##spark
##splanning
##these
3g
aanspraken
armenie
bern
betegelen
bezuinigingen
bird
cm3
correspondent
dieselmotor
drielandenpunt
elektra
florianopolis
gekende
generatoren
geplakt
hyperlinks
ibn
jacobs
johnny
manuscript
observaties
onberispelijke
ongehoorzaamheid
parfums
paros
partnership
performances
privileges
productdetails
routers
serafijnen
silhouet
sluitingsdagen
socket
terroristische
theatre
tolkenservice
tub
uwerzijds
verzendt
vormgeven
wheel
zelfschenking
##aide
##alon
##anken
##chrikt
##eers
##ergie
##esta
##harding
##ioneren
##metje
##overeenkomsten
##persen
##pressen
##roefd
##ssnelheid
##stemmen
##trouw
##tudies
##unen
##voeder
##wijziging
##wire
##wogen
##zier
amfitheater
benlee
benodigd
boeiend
champions
checklist
componeren
cor
crazybulk
era
feeds
forse
gecompliceerde
giant
handschijnwerper
heuvelrug
instrumentatie
interim
kapsel
luide
mesopotamie
miller
morris
nieuwkomers
nov
onderdanen
ongeschikt
opgeschreven
parlementaire
query
regeert
rommel
ruimschoots
sabana
schoonmaakkosten
slinger
smit
tijdstippen
toiletpapier
truetype
uil
ulieder
vastberadenheid
vierhonderd
voetsporen
waardeer
wandelde
weerszijden
werkelijkheden
years
zeshonderd
##400
##design
##fat
##haan
##hir
##ility
##ineren
##llon
##nipt
##riam
##rita
##rkt
##wisselaar
advance
aftrek
ambitieus
beproefd
bestrating
brisbane
checkout
clan
fruitige
gefocust
ghost
ingetrokken
lazarus
lokalen
mahmutlar
minderjarigen
opereert
opgevoed
overtuigende
radisson
rey
rundvlees
schaden
sen
spain
spijsoffer
sprekend
strandvakantie
subversion
triest
vloeit
vorderen
weigering
zonmirakel
##lik
##medische
##stijging
##uard
##upe
##vm
148
9e
aantreft
beet
broekje
bundelen
cook
diode
elbe
fatima
fonts
garages
gepositioneerd
habla
hoofdredacteur
hygienisch
ingles
ix
loggia
oliver
overschrijdt
planner
prediker
prijzengeld
schaars
tap
uitlijning
verbluffende
verspilling
vilcabamba
voorkoming
wereldbank
werelderfgoedlijst
wierpen
wortelen
wrap
##ater
##breed
##caster
##cke
##elden
##esi
##made
##smaak
##stelsels
##ticum
##varianten
##voegd
##wten
1895
6de
aangeleverd
arab
beschuldigen
beschuldigingen
bevredigend
bezigheid
bouwgrond
buitenlands
gaandeweg
gekochte
gelijkwaardige
gematigd
gezant
hirado
languages
monde
onderzoeksprogramma
ontsnapt
radioactieve
slijm
uitgedeeld
upskirt
vario
verstoken
voedingswaarde
volley
vraagstuk
vrijen
waterskien
weerspiegeld
woonkamers
zuidkant
##bakkers
##cola
##gevoeligheid
##gna
##langs
##mento
3500
5m
altaren
autoweg
begroet
binnenkomst
byte
cortona
eetbare
emule
gedeeltes
kroeg
makelaardij
matching
motogp
opdoen
porec
postcode
rpm
sliep
smeermiddelen
southern
spelende
sponsoring
staaf
stakeholders
stapelen
statuut
symbolisch
verkondigt
verwierf
vilnius
vlokken
whisky
works
wouden
zijdelingse
##ademing
##chter
##cot
##durende
##erf
##gues
##hara
##internationaal
##loofde
##oloog
##padden
##pelijk
##pistool
##score
##start
##udeerde
##wei
aankomsttijd
administratiekantoren
bedorven
behaagt
beschouwde
chloor
clark
cnb
config
daarmede
dronk
eiffeltoren
galaten
gehuurde
heads
jardin
jerry
kse
kwalificeren
levenslange
linksys
logies
onderscheidingen
ontkent
overgegaan
panden
pharao
psychiatrische
reseau
reuzen
shrine
slaapzaal
stabiliseren
toekennen
voorbestemd
wimpers
wm
zuidpool
zuivelproducten
##bee
##computers
##fveer
##ijst
##inde
##ioenen
##ior
##oorlog
##quin
##riemen
##rong
##sed
##stokken
##vende
##zeer
1715
additieven
administratiekosten
alleenlijk
beginpunt
behoeft
benauwdheid
bereikbare
bestudeert
bilaterale
column
concurrentievermogen
davis
default
duitstalige
dwang
eindpunt
feel
fysisch
gevlogen
gregoriaanse
hechting
instructeurs
intrede
jennifer
laguna
lease
legacy
lek
lelijke
mailadressen
merrie
micha
nagel
overschakelen
portefeuilles
reorganisatie
rouw
rt
stijf
teenslippers
teruggetrokken
transporten
vakantiedorp
viscositeit
voorbereidend
voorspoedig
vrijgelaten
waterkant
##centrische
##chel
##config
##configuratie
##edo
##eelt
##fing
##gereedschappen
##gevoelig
##mping
##particuliers
##pet
##sai
##taten
##under
##weten
##yard
acrobat
adria
animo
arrondissement
beat
bijvoeglijke
cairns
directories
dressing
florentijnse
folliculair
friends
fundering
gelijkenissen
geloovigen
geluisterd
golflengte
hor
hunter
inductie
investment
kingston
kledij
leerproces
leid
lpg
luchtstroom
metselwerk
noir
onontbeerlijk
opslaat
radiatoren
refereert
representatieve
verankeren
verkorte
verreweg
##cin
##dar
##eerplaats
##enta
##fk
##icum
##iki
##logic
##lotto
##redenen
##relatie
##rijder
##rix
##stijgt
##taties
##trui
##umenten
##yce
430
aangemerkt
afbeeldingseffecten
alberto
altea
bekeert
beknopte
boekarest
bosrijke
burn
cartoons
cases
cathedral
cocaine
cycling
daterend
diplomatieke
drukkerijen
england
ensembles
gepassioneerd
grensoverschrijdende
herstructurering
kennel
klappen
lichtwerkers
literair
pigmenten
potje
prat
psycholoog
refnr
roosters
velgen
verwittigd
vin
voorgedaan
weense
wetboek
wrijven
##belt
##haat
##hic
##keling
##leraar
##motief
##nologische
##planner
##poneren
##voorstellingen
340
4mm
aanpast
alarmen
ateliers
bekwame
curs
fysiologische
gecompenseerd
hoekje
hound
immuniteit
joao
kristalhelder
milan
monding
onderkomen
paolo
produceerde
purper
redelijkerwijs
rolstoelgebruikers
schiermonnikoog
schuilt
standvastig
steenkool
strik
trieste
tsunami
verleende
##derde
##dle
##geboren
##leutel
##lijnde
##lr
##oh
##plicht
##rlei
##road
##sverandering
##tassen
##vington
aankwam
actieprijzen
atlantique
bikes
dijen
dorre
evoluerende
expliciete
goeie
graancirkel
indian
kraken
lekkage
molecuul
movement
nutrienten
oeganda
opgeeft
pcs
prairie
rebellie
samengebracht
thuisland
toxische
uitgangspunten
uitnodigende
verdeelde
verzaking
vietnamees
wijzer
##aards
##aliseren
##ative
##chland
##dozen
##egt
##geer
##jacht
##kjes
##lement
##lichting
##masker
##neembaar
##riaan
##tch
##ulos
##vres
##wens
##wisselen
##zio
16mm
1870
2nd
afvallen
ambtenaar
apparaatstuurprogramma
belanden
bergruimte
boetes
burgerluchtvaartuigen
delle
disclosure
duin
dunner
episode
erosie
favv
francesco
heuvelachtige
huisstijl
knusse
koks
laadt
lampjes
mallen
migreren
natuurwetenschappen
niettegenstaande
ongelijke
protesten
rai
rijdende
ruikt
structureel
sympathie
toegegeven
toevoer
vervolgde
verzoekt
veulen
wonderlijk
xi
##001
##bekende
##biologie
##fout
##gine
##hold
##spercentage
##strepen
##vige
##vocht
15de
1882
50m
achtig
adams
adverteerders
afgebakende
akoestiek
assistenten
bestelt
constructieve
emerald
gefilmd
gelukzaligheid
grey
hengst
illuminati
inspireert
iq
keuren
mara
margot
millennia
mvo
nieuwigheden
noteren
omvatte
onthoudt
ontwikkel
platina
prado
samenhangende
sprookje
transformeert
uitnodigingen
uitvoerige
veerkracht
verkiest
##afd
##bewust
##bisch
##denten
##dragende
##gedwongen
##hias
##illac
##klank
##lace
##lenzen
##oline
##rading
##ruim
##stappen
##tium
##voertuig
1887
acceptabel
amersfoort
angelo
anno
behoeftes
belasten
belkin
biomassa
bodybuilders
cb1
centurie
chronisch
dec
devices
fascisme
flyers
guesto
holidays
kachels
kingsize
lightning
localisatie
lukken
mailinglijst
mancha
manchioneal
mass
miste
mivb
monty
muisklikken
mythologie
nations
offerde
opgestuurd
overbruggen
rad
rhin
robinson
ruggenmerg
segovia
strengste
texturen
tubes
verdiept
verkoren
verzadigde
verzoekers
vrijlating
zegels
zoute
##abo
##ertje
##gevel
##leine
##oezen
##rag
##rondes
##strook
##ync
1886
beschrijvingappartement
bijgehouden
centers
communications
competitieve
divisies
doodstraf
fu
gambia
gecentraliseerde
gerookte
getelden
graafmachine
haaien
joyeux
kappers
kavel
kerkelijk
lacteren
matten
minibus
moeras
operations
opvangen
overloop
reina
routines
slut
somme
stichten
sticks
teruggaan
three
vasco
verkeersveiligheid
vloerbedekkingen
voorschrift
zweten
##aster
##bilisatie
##cycle
##echniek
##enza
##hers
##kbaar
##lieten
##llis
##missies
##uv
##wezens
1860
1898
achtereenvolgens
beschrijf
bezel
bizarre
blank
carrier
charmes
colombo
conferentiecentrum
dierbaar
draaibare
houtsoorten
howard
imf
kwik
legerden
luz
martha
michiel
natura
nemesis
nero
nodigde
oefent
omwenteling
onsterfelijke
overduidelijk
p2p
porties
residentieel
schoppen
singles
spinazie
springende
taboe
teacher
uitgeschreven
urineonderzoek
vasthoudt
verzwakking
zakjes
##ange
##boter
##chtige
##cross
##dalen
##dent
##elend
##etta
##hel
##kappen
##kool
##sca
##signalen
##tellen
146
1899
aangeroepen
aanstreping
ahuachapan
alessandria
annie
aparthotel
bezette
bloesem
books
bumper
c3
dennen
doseren
dreef
examenvragen
galileo
gary
geneva
gips
inneemt
inschrijvingen
killarney
nico
poeders
saas
screenshot
sheffield
skin
tewerkstelling
thermen
venice
verleid
verrichtingen
volterra
welkome
zegening
zwakheden
##atsu
##duinen
##fondsen
##gevraagd
##hangers
##hor
##okken
##ossing
##politiek
##pompt
##rica
##share
##shops
##smeter
##tera
##vage
##vallei
##warmte
##xie
##zender
##zijnen
151
aanhangwagens
achterland
anatomie
assistant
auditorium
avaya
bunkers
charge
denzelven
eurologos
exporteurs
faciliteren
frontera
gefixeerd
handomdraai
ida
ieve
jaloezie
kindje
kitten
klavier
loir
meiden
opperheer
opslagmedia
pergola
schoten
shi
skyline
spiegelen
tinnitus
uitstraalt
uitvoerbare
vbs
verschoven
verstrooid
vervaardigde
verzonnen
villaggio
voortbrengt
vvd
waterbestendig
waterfietsen
waytostay
##aumont
##datie
##ego
##ezer
##garten
##gres
##hai
##kaar
##ows
##trent
##zzi
141
1830
affiniteit
alcudia
amethist
asset
bedenkt
beladen
belemmeringen
belvedere
bemiddelaar
blinds
boordevol
comodo
congress
dinosaurussen
evenredig
finistere
gemotoriseerde
globe
gruwelen
hemellichamen
hepatitis
hervatten
hey
hoefde
inbraak
insignia
italy
juniper
kamerfaciliteiten
kanonnen
klm
kwalificaties
locomotief
marokkaans
mechanica
montpellier
nancy
noordwijk
overhandigd
regelmaat
ruimteschip
schindler
selectieve
slachten
sodom
sofitel
tiedje
tijdloos
toevluchtsoord
tulpen
uitchecken
vijgen
wellington
wielerwedstrijden
woonachtig
##directory
##este
##euse
##gif
##iceren
##igny
##inator
##kke
##leder
##makende
##metrie
##mf
##news
##pijpen
##republiek
##schieten
##skamers
##staart
##stig
152
1°c
533
aardbei
abimelech
african
afwerken
arroyo
calamus
complementaire
comptia
cube
derzelver
eib
gecentreerd
grenada
interieurs
kali
kalmeren
londense
mentor
mig
muziekbestanden
nicole
obstakel
odessa
ols
ontvouwen
pere
plastisch
poucet
rijker
roubaix
statuten
striptease
tuinbouw
uitdroging
vijandelijke
waarnemers
wasautomaat
waterdichtheid
weekblad
zaailingen
zentrum
##ape
##arbeid
##cirkel
##emer
##errein
##geluiden
##gesprekken
##gregaten
##iticus
##nat
##player
##pont
##pton
##rgie
##sari
##spreken
##toel
##urance
12mm
162
achterop
ambulance
belichaming
beperkende
betalende
cave
clitoris
deskundig
dieven
extended
fascinatie
gehandicapte
geteste
gpu
hdtv
hv
idaho
implicaties
inbrengen
informeer
jinja
kampeerplaatsen
kooldioxide
kos
kozijnen
krater
maxi
moeilijkheidsgraden
mtr
mumbai
nakoming
openhaard
opklimmende
rechtover
riga
stella
terugbetalen
thermaal
vanmiddag
verzoenen
wastafels
##87
##ads
##av
##balie
##begrip
##bovenhoek
##breuk
##harden
##ificeert
##lee
##meerde
##mentatie
##np
##pennen
##pillen
##projector
##rap
##rius
##sontwikkeling
##uite
##voeten
##yat
acupunctuur
aosta
asa
auslands
beheerde
benauwend
bevreesd
bevrijdt
boerderijvakanties
boogschutter
dappere
dorada
electro
espressopotje
farizeen
filiaal
gehanteerd
handtassen
houtskool
identiteiten
ingrid
jodium
kwellen
levenswijze
ludwig
luifel
morini
mother
naleven
noordwest
omgetoverd
ongunstige
onlosmakelijk
parkeer
personenauto
rudolf
schoonmaakdiensten
stanley
uitzetten
verduidelijken
verhoog
vermijdt
vluchtte
vooravond
winkelmand
wisselkoersen
wonderbaarlijk
##carbonaat
##dement
##dossier
##enden
##gle
##ilia
##imenten
##ipe
##kat
##lor
##osten
##pay
##quez
##stechniek
##tond
##west
##wingen
143
149
arlington
barbour
bewolking
brandweer
bulgaars
contanten
defense
gastheren
geschoten
heftig
ij
indiaas
jodendom
jongelingen
julie
koralen
korst
ls
nad
netscape
romig
ruggengraat
schoolmeisje
stay
stud
tankstation
til
tractie
troc
vergaderd
versiering
verwarm
vierentwintig
vuren
when
worldline
##5m
##abele
##bezit
##biliseren
##bl
##chloride
##elling
##eurig
##haren
##ianen
##idu
##kopers
##roy
##rtal
##tiele
##tructie
534
aanbidt
aangesproken
accorhotels
alarmsysteem
ambassades
antislip
benedenverdieping
beroepsonderwijs
chronologische
cristobal
current
deelneemt
deelstaat
dolomieten
excellent
geit
gezegde
gloeien
gratisonroerendgoedadverteren
headset
houdkracht
improvisatie
josafat
js
kundig
martinique
meervoudig
mijnheer
narada
overleggen
powerline
punk
rack
ruimer
schrappen
sita
skunk
studeert
technicus
telefonische
telefoontje
veroverde
verstrikt
vliegwiel
vurig
zuil
zwolle
##arbeiders
##arden
##bibliotheek
##concerten
##dio
##enties
##fiches
##fische
##inkt
##isen
##kost
##lakken
##not
##ped
##sent
##slijst
##stekens
##tl
##vival
30°c
310
90°
aanvrager
aarzelen
accumulatie
afronding
arno
ascenderen
atlantida
aude
avg
bmp
border
budgetten
dengenen
domineert
doorslaggevend
dor
drum
fictieve
gelast
gewelfde
gloednieuw
hardhout
koeweit
kwh
legendes
lelie
mimesis
modernistische
musical
ongewenst
onmiddelijk
onmisbare
pastor
practice
progressive
raamfolie
request
speech
torres
traint
tuinbenodigdheden
verblijfsaccommodaties
verkleuring
verlangde
voc
wenste
zendingen
zintuiglijke
##ademen
##anks
##behoefte
##categorieen
##dende
##hau
##ieres
##manen
##olk
##pliceren
##quo
##reed
##rijding
##smachine
##sum
##von
##ypt
##zang
bekendmaking
bisdom
boomgaard
connecties
contrasten
corps
decreet
defecten
erfgenamen
erwin
ferro
fossielen
gehesen
gemeubileerde
gnome
hoogteverschil
koeler
lijstje
madame
maggiore
markeer
meegedeeld
metropool
mill
omheinde
oordeelt
overlevering
proefversie
reine
representatief
schoonheidssalon
spits
verfraaien
verlengt
wan
wikifun
zondig
##academie
##behandelingen
##ceren
##eas
##emt
##fried
##gespoord
##gewoonten
##gratuiteparticulier
##iceerde
##imax
##ination
##jaars
##ked
##kelde
##koker
##pelde
##rip
##scopische
##steunen
##swaarde
##trasse
##vrouwen
##vullen
adviseer
backpackers
beklimmingen
bharata
bouwplaats
caroline
codec
destructief
dichtsbijzijnde
dienstknechten
foz
gelijmd
geoordeeld
gepakt
geschrapt
handelaars
hesse
klokkentoren
knokke
kokosnoot
listing
multifunctioneel
nantes
opwaarts
perzisch
ravelry
reflecteren
rhinestone
roodharig
schilderachtig
seminaries
slaapbanken
toegangspoort
transformator
tuv
uitkijkt
uitziende
vestigt
voorgaand
wageningen
wereldberoemd
wisselkoers
##album
##beren
##horst
##lauw
##lina
##norm
##oise
##planken
##sens
##teek
##vermindering
##vreesd
460
administrator
afgifte
bandera
begraafplaatsen
beoefening
bestandstypen
buurlanden
cabanas
consultatie
dezes
elektrode
ezau
fracties
gaston
gecompileerd
geexploiteerd
gemotiveerde
geregelde
getrouwe
gym
haargroei
helikopters
hemzelf
identiteitskaart
internationalisatie
jaipur
keukenschorten
kijkend
mondeling
mondstuk
onestat
overlevende
overstroming
pavel
roi
silk
sin
starter
tatra
voorbereidende
voorschrijven
zonnewijzer
##chtig
##diger
##eep
##enne
##erina
##eville
##gebaseerde
##ieen
##ijkers
##ngst
##poot
##rons
##rooms
##sat
##sf
##uigd
##vatting
00u
bee
benedictus
cabarete
colosseum
competition
cvs
databanken
drummer
dwerg
edwin
extender
ezechiel
gisting
gooide
hint
impliciet
indicaties
luigi
maltese
manuscripten
materialisme
meerprijs
muurschilderingen
narconon
opentype
optimizer
opwindend
overbelasting
overleefde
overweldigd
paddenstoelen
panagia
pruimen
tapes
through
uva
verbijsterd
verlof
voorafgegaan
waters
wax
winstgevend
zaventem
##bestuur
##dro
##egel
##istieken
##komende
##korrels
##processor
##raan
##reacties
##restaurants
##rito
##sbibliotheek
##uitvoering
##vlokken
##yk
200m
5°c
aanvoelen
ballingschap
bediende
bek
belgocontrol
bouches
chrysler
d8
dorado
evans
franche
freestyle
gestreepte
haalbaarheid
handvest
hectaren
heup
homes
hoofddoel
istanboel
jansen
klom
kus
kwaliteitsnormen
luchtige
marriott
meesterschap
moois
oasis
omis
ongelofelijke
opbrengen
raval
realiteiten
reduction
regeneratie
sand
stroomuitval
toekenning
trajecten
voorhoede
waalse
zonnebloem
##aga
##araat
##bekistan
##eil
##guas
##hini
##ijl
##kerke
##kkels
##koi
##lese
##lity
##teiten
##tijn
adviesprijs
afgetrokken
afghaanse
albany
argos
castellon
century
citadel
cnbp
dodge
droogt
droomt
fig
gastgezin
gunsten
harddisk
hgh
hook
iers
imperium
jumbo
llc
monteur
onvoorziene
pda
recreatiegebied
rockmelt
rolt
scepter
shops
shot
sophia
sportactiviteiten
stoffering
sultan
terracotta
theologen
thuishaven
titus
toegelicht
toegezonden
uittrekken
verdedigd
verdon
vergaderzaal
##aaid
##afil
##anne
##beoordeling
##bere
##bouwers
##chirurgie
##diameter
##eche
##fan
##ija
##koping
##onds
##poorten
##sspanning
##terminal
##wonnen
##writer
##yar
1750
440
aanwinst
accor
aktetassen
anniversary
antichrist
arcadia
bestudeerde
buffalo
carcassonne
coruna
damme
dragende
ejaculatie
eraf
gekeerd
geoorloofd
geprojecteerd
gesuggereerd
groups
hangmat
haus
hockey
hoogkwalitatieve
imitatie
immoanzeigen
immuun
kikkers
marianne
marion
masterclass
mint
nachtmerrie
natuurparken
nefkens
nhtv
progressief
rabbi
rip
ruzie
samengaan
schloss
spots
teef
tusschen
tweepersoonsbedden
urn
verlaagde
vermits
voedingsdeskundigen
watervoorziening
yellow
##besturing
##cheiden
##formatie
##gekeken
##illy
##innen
##iso
##nion
##nka
##objecten
##oeg
##oeve
##realistische
##rios
##spier
120m2
163
aangehaald
afgeschaft
behoudens
binnenlands
brievenbus
cima
decoderen
devotie
doordrongen
fantasy
geelimineerd
gevankelijk
gewonden
haalden
inge
io
koek
kr
krakow
kwalijk
lars
logeren
negativiteit
ongebruikte
ontvankelijk
overeenkomende
pasgeboren
poel
rijtje
ritmes
roerstandindicator
ronda
sands
semester
slaapzalen
sprinter
tactische
tragedie
tungsten
typeface
verdienste
vienna
wagner
wellnesscentrum
##alers
##cto
##eira
##geleiders
[...]
